{
  "capacity": 42404,
  "Ġansw": 2590,
  ")-": 13219,
  "Ġwithheld": 31453,
  "Ġindifferent": 31655,
  "sk": 8135,
  "frequency": 35324,
  "Ġ262": 35404,
  "EH": 42413,
  "inter": 3849,
  "venant": 15330,
  "shr": 36007,
  "Ġsprinkle": 45799,
  "ĠPixie": 46687,
  "Ġstarve": 47141,
  "colour": 49903,
  "Ġmeant": 4001,
  "thodox": 12836,
  "Ġchap": 28022,
  "Ġphilosophical": 17580,
  "atts": 30353,
  "ĠTheatre": 15752,
  "ĠMum": 38367,
  "Ġregex": 40364,
  "ĠINST": 40589,
  "inqu": 18934,
  "Ġreim": 21123,
  "Ġrevived": 28910,
  "Ġcurriculum": 20583,
  "ffect": 4812,
  "ĠDanny": 15105,
  "Currently": 21327,
  "oland": 23573,
  "ĠMUCH": 45859,
  "ĠNeither": 16126,
  "eches": 16672,
  "Ġembattled": 49118,
  "nv": 48005,
  "Ġrotten": 36371,
  "vey": 3304,
  "Ġremainder": 17675,
  "Ġcreative": 7325,
  "Ġ<<": 9959,
  "Ġmanifestation": 30566,
  "color": 8043,
  "Mask": 45195,
  "ĠCALL": 42815,
  "Ġsuspensions": 47228,
  "able": 540,
  "workers": 22896,
  "ĠCum": 27843,
  "Ġph": 872,
  "Face": 32388,
  "ĠTexans": 21012,
  "Ġretri": 37715,
  "utation": 7094,
  "Ġbrakes": 23746,
  "Ġnailed": 37708,
  "ĠHorizons": 39519,
  "immigration": 47620,
  "utics": 48063,
  "Bench": 44199,
  "reader": 46862,
  "Ġ116": 18693,
  "ĠReview": 6602,
  "ĠStation": 9327,
  "Ġaforementioned": 20794,
  "right": 3506,
  "ĠSHALL": 50163,
  "Ġrough": 5210,
  "Ġnecessity": 14564,
  "Les": 35882,
  "ĠExtras": 43620,
  "ĠSke": 19460,
  "Ġhier": 13550,
  "ĠBolton": 35293,
  "Ġpsychologist": 23540,
  "ĠTaxes": 42260,
  "ĠBrew": 9702,
  "Ġfaint": 18107,
  "à¤": 11976,
  "Ġfew": 1178,
  "ĠFans": 24964,
  "azaar": 34485,
  "ĠInf": 4806,
  "ĠMuslims": 7045,
  "ĠComment": 18957,
  "atha": 30921,
  "Ġprovider": 10131,
  "SEC": 23683,
  "Ġ140": 12713,
  "ĠRh": 10323,
  "unning": 16596,
  "Ġ\\\"": 19990,
  "Ġhardly": 8941,
  "Ġoneself": 27186,
  "ATTLE": 35455,
  "ĠRatings": 36826,
  "Ġcompetition": 5449,
  "Ġblinked": 40360,
  "Ġbesieged": 41680,
  "ques": 13281,
  "Ġbrightly": 35254,
  "agonist": 15239,
  "Ġfoundation": 8489,
  "ĠDash": 16189,
  "oy": 726,
  "Ġ165": 21409,
  "RAG": 33202,
  "Ġresult": 1255,
  "ĠTube": 34510,
  "ĠRodney": 34895,
  "Ġlewd": 45179,
  "Ġbitters": 48666,
  "Ġdoing": 1804,
  "Ġpizza": 14256,
  "ĠCannot": 26003,
  "ĠPhant": 38699,
  "Ġpalate": 44100,
  "ÃįÃį": 43569,
  "Hamilton": 45405,
  "Ġsteered": 49300,
  "Ġâ": 2343,
  "ĠFreem": 39587,
  "Ġjudges": 10266,
  "Ste": 7447,
  "Ġdressing": 18544,
  "ĠQin": 31482,
  "Ġsuperflu": 48713,
  "abwe": 27050,
  "ĠSVG": 45809,
  "ĠTok": 9453,
  "Ġstemming": 34807,
  "Ġdots": 22969,
  "ĠBeats": 40210,
  "ĠNoble": 20833,
  "ĠPlants": 39269,
  "Ġfilmed": 18976,
  "Ġpretending": 23662,
  "Sp": 4561,
  "Ġvoting": 6709,
  "ĠPi": 13993,
  "operative": 27173,
  "Ġ(": 357,
  "ĠEditorial": 39525,
  "ĠEven": 3412,
  "Ġparanormal": 47525,
  "Ġvibrant": 21266,
  "Ġthinks": 6834,
  "Reward": 48123,
  "ĠSee": 4091,
  "ĠThou": 34048,
  "ĠSmoke": 25416,
  "mage": 25561,
  "Ġtrajectory": 22942,
  "151": 24309,
  "ĠEl": 2574,
  "Ġdefer": 29135,
  "Ġblogger": 23530,
  "Ġy": 331,
  "Ġlobbyist": 35196,
  "ĠLO": 17579,
  "Ġspreadsheet": 30117,
  "Frames": 35439,
  "ĠOEM": 29671,
  "trip": 39813,
  "Ġsub": 850,
  "ebra": 37052,
  "Cre": 12443,
  "Ġdisgu": 17360,
  "ĠMovement": 15477,
  "Ġspecialized": 16976,
  "Ġdismant": 27038,
  "Ġinflammatory": 23760,
  "Ġtermed": 28569,
  ":[": 33250,
  "ĠColombian": 40351,
  "Ġawfully": 45421,
  "Ġdeforestation": 48152,
  "rf": 41871,
  "Ġsovereignty": 18582,
  "iliated": 31705,
  "Ġsuspic": 12486,
  "ĠPir": 10334,
  "ĠeBay": 21698,
  "atos": 35492,
  "imated": 15655,
  "Ġgrou": 1132,
  "Ġdeeper": 9211,
  "ĠEasy": 16789,
  "Ġlikewise": 20467,
  "Ġscoff": 39247,
  "ĠMaker": 21521,
  "appa": 20975,
  "ĠOriental": 39713,
  "Ġpatriarchal": 42301,
  "Pref": 36698,
  "Ġscrib": 44661,
  "Rules": 37766,
  "ĠOriginal": 13745,
  "ĠHound": 44900,
  "ibu": 33828,
  "def": 4299,
  "Ġwarn": 9828,
  "itta": 48519,
  "ows": 1666,
  "ĠSpotify": 26778,
  "ĠYak": 30254,
  "Ġorphan": 26051,
  "ĠJoh": 16053,
  "Ġupgrading": 25485,
  "Ġwelding": 47973,
  "ĠHK": 31440,
  "ĠPri": 4389,
  "Ġlamps": 32209,
  "zar": 41046,
  "flash": 34167,
  "ĠIrwin": 48470,
  "Ġbidder": 44848,
  "ĠHalloween": 16032,
  "Ġbombings": 26579,
  "otte": 11404,
  "umped": 27073,
  "itness": 3659,
  "qus": 45260,
  "builders": 50034,
  "ĠALE": 32318,
  "ĠRonaldo": 36309,
  "ĠTransgender": 44002,
  "Ã¦": 21241,
  "Ġabstraction": 34651,
  "ĠHills": 14379,
  "ĠGibson": 20400,
  "Ġinsider": 25851,
  "Ġcoal": 5655,
  "stuff": 41094,
  "ĠCl": 1012,
  "owa": 8455,
  "Ġgameplay": 11327,
  "Ġfascinated": 30103,
  "Ġbins": 41701,
  "ĠAnalyst": 44600,
  "ĠAround": 16824,
  "ishly": 29735,
  "ĠWhit": 13183,
  "tm": 17209,
  "ĠWolver": 26328,
  "Ġcomputation": 29964,
  "Ġreel": 35672,
  "Ġshrunk": 38900,
  "Ġperv": 48435,
  "Ġtwin": 15203,
  "Ġindul": 19441,
  "Ġpeacefully": 30996,
  "41": 3901,
  "Ġtrove": 42377,
  "avior": 15759,
  "onso": 26666,
  "Ġadvance": 5963,
  "itched": 10981,
  "Ġplayoff": 13119,
  "Ġavid": 32450,
  "pressure": 36151,
  "ĠDogs": 21367,
  "ĠBoots": 28807,
  "phans": 44464,
  "Gate": 22628,
  "Chance": 43606,
  "Ġpredetermined": 45574,
  "roll": 2487,
  "Ġsecuring": 19732,
  "wagon": 41127,
  "gart": 41651,
  "ĠBit": 4722,
  "visible": 23504,
  "installed": 37050,
  "Ġupheaval": 46907,
  "irts": 9682,
  "Ġ:-)": 47226,
  "bite": 37018,
  "ĠPur": 9330,
  "Ġdeploy": 6061,
  "Ġbacon": 21385,
  "iev": 11203,
  "Ġadministrative": 11553,
  "optim": 40085,
  "rice": 20970,
  "ES": 1546,
  "Ġnotification": 14483,
  "Result": 23004,
  "ĠIntroduction": 22395,
  "Ġarous": 22015,
  "Ġscant": 35183,
  "Ġns": 36545,
  "onom": 6326,
  "Ġcopper": 15317,
  "ĠHR": 15172,
  "leaders": 37553,
  "Ġscale": 5046,
  "atoon": 23122,
  "ĠPan": 5961,
  "FS": 10652,
  "pas": 44429,
  "approved": 29137,
  "inately": 48618,
  "ĠClippers": 28564,
  "ĠOptions": 18634,
  "Ġfibers": 26742,
  "ĠYear": 6280,
  "frame": 14535,
  "Ġgoat": 26917,
  "luaj": 36473,
  "ĠAnth": 8451,
  "ĠLydia": 47766,
  "Ġhosting": 13662,
  "ĠFaust": 47411,
  "ĠGrad": 17701,
  "Ġsins": 18377,
  "Ġaccumulation": 24106,
  "ĠConsumption": 42158,
  "Ġcentralized": 29024,
  "Ġdetained": 14847,
  "ĠKristen": 44467,
  "eely": 45269,
  "Ġbehav": 2955,
  "ie": 494,
  "lightly": 30945,
  "Tap": 45081,
  "æĿ": 30266,
  "Ġaromatic": 48440,
  "lambda": 50033,
  "ĠCorbyn": 15673,
  "ĠBetter": 11625,
  "Ġguid": 10103,
  "ĠOverview": 28578,
  "Land": 22342,
  "antly": 3875,
  "rying": 14992,
  "ĠAlexand": 21000,
  "ĠVert": 24417,
  "norm": 27237,
  "Ġvomiting": 30874,
  "Ġastounding": 34328,
  "ĠActivities": 36270,
  "Ġamen": 29448,
  "Authent": 47649,
  "Ġreconnect": 37671,
  "ĠPlum": 43178,
  "yn": 2047,
  "Ġ240": 14956,
  "ellig": 2976,
  "Ġboycott": 23659,
  "Ġthough": 996,
  "Ġwearing": 5762,
  "ĠStadium": 10499,
  "ĠGian": 30851,
  "GT": 19555,
  "up": 929,
  "Ġdemolished": 33359,
  "ĠABC": 9738,
  "erie": 18287,
  ".\")": 19570,
  "Ġsaw": 2497,
  "Ġpastor": 22175,
  "142": 23726,
  "erno": 24100,
  "Ġantip": 32867,
  "Ġallocations": 49157,
  "Ġgre": 10536,
  "ĠFuel": 25483,
  "numbered": 35565,
  "403": 31552,
  "Ġ302": 32591,
  "ĠSmooth": 37002,
  "failed": 47904,
  "rontal": 39321,
  "lio": 48590,
  "Ġis": 318,
  "Ġchalleng": 4010,
  "Ġcomment": 2912,
  "Ġdesignation": 22566,
  "Ġclinicians": 41883,
  "Ġpushing": 7796,
  "ebus": 33209,
  "Ġcomputing": 14492,
  "ĠTreaty": 21345,
  "Constructed": 25207,
  "Ġprisoners": 10577,
  "ĠManufacturing": 32760,
  "Ġinstr": 6480,
  "ĠBoat": 30828,
  "ĠAllison": 33461,
  "supp": 18608,
  "umsy": 37133,
  "Ġpositively": 19888,
  "Ġpersonality": 8806,
  "Ġdiscusses": 19451,
  "ringe": 38229,
  "meet": 47745,
  "Ġauthenticity": 26275,
  "Ġshell": 7582,
  "del": 12381,
  "edin": 27152,
  "Ġastron": 10894,
  "ĠYOUR": 16592,
  "ĠUpgrade": 24236,
  "Ġwhereby": 23482,
  "Ġsystems": 3341,
  "ĠCompensation": 39059,
  "dl": 25404,
  "Ġmonitored": 20738,
  "Ġsymmetry": 40686,
  "ĠPAL": 40795,
  "Ġber": 18157,
  "ranch": 25642,
  "Ġcompromising": 35294,
  "Ġ": 220,
  "bull": 16308,
  "VIEW": 28206,
  "Ġpackages": 10392,
  "ĠAshe": 36318,
  "Ġchoked": 39283,
  "Ġplaus": 48923,
  "Ġemancipation": 48936,
  "ĠSnow": 7967,
  "ĠHmm": 43352,
  "Ġpneum": 29631,
  "588": 39118,
  "Ġafflicted": 39785,
  "Ġremorse": 34081,
  "path": 6978,
  "ĠBF": 41646,
  "ĠGrateful": 44249,
  "ĠBernardino": 35680,
  "nance": 41601,
  "Cover": 27245,
  "miss": 3927,
  "ĠForeign": 8708,
  "Ġendors": 14621,
  "Ġpinned": 25711,
  "ĠDuration": 22920,
  "ãģ®æ": 27032,
  "ĠPupp": 20926,
  "umerous": 31385,
  "ocious": 32346,
  "ĠDynamics": 33806,
  "TW": 34551,
  "ĠVoters": 35689,
  "region": 36996,
  "Ġlearning": 4673,
  "ĠTray": 34575,
  "Ġmetre": 42760,
  "Ġlineup": 12750,
  "Ġtracked": 18283,
  "only": 8807,
  "++": 4880,
  "ĠSL": 12419,
  "Ġlinebacker": 18961,
  "bard": 23024,
  "uy": 4669,
  "Ġtragedy": 13574,
  "Ġrepetition": 29693,
  "Jer": 36134,
  "Ġrift": 36788,
  "ernaut": 37879,
  "Ġmodem": 38053,
  "Ġbrief": 4506,
  "Ġcertificate": 10703,
  "Pink": 41912,
  "Ġfanc": 39980,
  "Twitter": 14254,
  "shake": 32431,
  "soc": 35634,
  "ãĥį": 44916,
  "Letter": 45708,
  "Ġwriters": 8786,
  "Atlantic": 41120,
  "Ġ409": 48132,
  "Ġwhirlwind": 49676,
  "requisites": 34075,
  "Ġ308": 35617,
  "ĠHeights": 20365,
  "]);": 36563,
  "andestine": 35887,
  "809": 34583,
  "Ġbarr": 29069,
  "ILE": 41119,
  "Ġgerm": 41171,
  "ãĤ½": 47559,
  "ĠFlynn": 14654,
  "ĠFrench": 4141,
  "prof": 5577,
  "Ġoffseason": 16349,
  "ĠPavel": 49612,
  "Example": 16281,
  "Ġsoc": 1307,
  "Ġ83": 9698,
  "Ġseized": 12000,
  "ADE": 19266,
  "lied": 18511,
  "owship": 23473,
  "complex": 41887,
  "Home": 16060,
  "ĠEvery": 3887,
  "Ġdismantling": 41928,
  "ĠFif": 12830,
  "Ġperfectly": 7138,
  "Ġenrich": 22465,
  "Ġtighter": 28619,
  "Ġpopulous": 44042,
  "å½": 37605,
  "Ġtang": 13875,
  "rical": 8143,
  "Ġtribute": 17547,
  "Cla": 47404,
  "ĠKr": 13685,
  "ĠYet": 6430,
  "ĠHeavenly": 29035,
  "ĠAnthem": 43192,
  "jing": 49940,
  "Ġinstructions": 7729,
  "uum": 13814,
  "ĠFinch": 45277,
  "Ġjoyful": 48977,
  "ĠSheen": 50189,
  "å¹": 33176,
  "contract": 28484,
  "eter": 2357,
  "chlor": 36813,
  "Ġsequest": 46314,
  "ĠVertical": 38937,
  "Ġtor": 7332,
  "idential": 35599,
  "Ġlime": 28738,
  "ĠModern": 12495,
  "ĠElsa": 19226,
  "ÃŁ": 39683,
  "ĠStudents": 14882,
  "ĠInfinite": 22380,
  "radical": 42325,
  "Ġattitudes": 14479,
  "Ġbuggy": 46542,
  "ĠTur": 3831,
  "Ġgelatin": 49084,
  "status": 13376,
  "Ġoral": 12886,
  "Ġforeigners": 19670,
  "ĠEdge": 13113,
  "acerb": 22428,
  "ĠMTV": 31214,
  "Ġpilot": 8022,
  "ĠCann": 12283,
  "Ġcooling": 15134,
  "Ġdownload": 4321,
  "ĠCritical": 17684,
  "437": 43284,
  "Ġcalculator": 28260,
  "ĠMaintenance": 34857,
  "Ġtop": 1353,
  "NSA": 47549,
  "Ġbilingual": 48116,
  "vi": 8903,
  "tg": 25297,
  "Ġrecognise": 21817,
  "Ġdisplay": 3359,
  "ĠPhase": 18983,
  "ĠComments": 19502,
  "Ġinjunction": 27439,
  "ĠSolar": 12347,
  "ĠLambert": 36978,
  "ĠStrait": 41407,
  "ĠVal": 3254,
  "Ġobliter": 35722,
  "Ġu": 334,
  "Ġcrotch": 45885,
  "ĠLikes": 46077,
  "ĠRollins": 47489,
  "Ġ465": 49669,
  "ĠCave": 18603,
  "Ġnatives": 30962,
  "ĠHERO": 45947,
  "isan": 9057,
  "forming": 15464,
  "Ġtougher": 20516,
  "Ġendurance": 22965,
  "ĠDread": 27005,
  "ocular": 37320,
  "asma": 11797,
  "ĠRogue": 16432,
  "215": 23349,
  "token": 30001,
  "Ġaddressed": 9469,
  "Ġknockout": 35825,
  "Ġirritated": 38635,
  "250": 9031,
  "SPEC": 48451,
  "istence": 13274,
  "508": 33042,
  "Fresh": 35857,
  "controller": 36500,
  "lement": 1732,
  "ĠFlames": 25814,
  "riter": 43407,
  "Ġexcise": 47547,
  "^^": 18237,
  "leaning": 25909,
  "ĠGeneration": 16588,
  "Ġresumed": 28291,
  "ĠIntern": 2445,
  "Ġcomplete": 1844,
  "Ġharmon": 25625,
  "Ġintimid": 12895,
  "402": 32531,
  "read": 961,
  "Ġfound": 1043,
  "ĠVacc": 31749,
  "Rom": 22834,
  "Ġproxy": 15741,
  "ĠDecre": 36400,
  "Ġroadside": 39479,
  "Ġtenants": 21445,
  "Grade": 42233,
  "Ġshielding": 43539,
  "Ġdiscretionary": 41314,
  "Ġeste": 43577,
  "Ġcannabinoid": 48175,
  "Ġuprising": 26312,
  "Ġestablish": 4474,
  "Ġ(+": 11502,
  "Ġinjust": 19019,
  "ĠWhole": 23431,
  "Ġcheckpoint": 26954,
  "metics": 27757,
  "orable": 10475,
  "usalem": 10555,
  "Ġul": 14856,
  ")).": 29720,
  "ector": 9250,
  "Ġconfiscated": 34012,
  "ĠTom": 4186,
  "emetery": 19785,
  "ĠDumbledore": 27442,
  "trust": 38087,
  "Ġindust": 2226,
  "DOS": 35178,
  "ĠFactors": 41140,
  "Ġadverse": 12681,
  "Ġtheorem": 44728,
  "Ġav": 1196,
  "Ġneigh": 3422,
  "Ġ2009": 3717,
  "ĠState": 1812,
  "uclear": 4016,
  "Ġbigot": 25015,
  "request": 25927,
  "itz": 4224,
  "dom": 3438,
  "Ġspike": 20240,
  "Ġpaintings": 21641,
  "Ġpolice": 1644,
  "Ġtesting": 4856,
  "ĠMC": 13122,
  "Ġworthwhile": 24769,
  "Ġwonders": 19294,
  "Ġ1957": 25177,
  "ħĭ": 26534,
  "ushima": 30474,
  "ALD": 44071,
  "Ġcondone": 48058,
  "Ġstress": 5503,
  "ĠKevin": 7939,
  "Ġremove": 4781,
  "Ġreal": 1103,
  "ernel": 7948,
  "X": 55,
  "raising": 32741,
  "Ġdetonated": 38754,
  "Ġenlist": 33858,
  "ĠGrizz": 31106,
  "Mu": 33239,
  "sequ": 3107,
  "stats": 34242,
  "ĠAure": 43737,
  "Ġsmaller": 4833,
  "Ġapproving": 33354,
  "Ġtap": 9814,
  "Ġcharitable": 21803,
  "ĠFrancis": 12155,
  "anc": 1192,
  "Ġmotive": 20289,
  "Ġcave": 11527,
  "iris": 29616,
  "Ġmeddling": 33545,
  "Ġturned": 2900,
  "ĠCure": 36947,
  "ı": 237,
  "Ġfantasies": 30162,
  "China": 14581,
  "uay": 30106,
  "ĠMorales": 36588,
  "voy": 40024,
  "Ġcommunicates": 48556,
  "Ġshrink": 22085,
  "IGN": 16284,
  "____": 1427,
  "Ġwinter": 7374,
  "Ġacadem": 15574,
  "Ġlat": 3042,
  "ĠHak": 24734,
  "ĠFront": 8880,
  "ĠAH": 28159,
  "Ġnegoti": 5578,
  "Ġvictims": 4970,
  "Ġinventor": 33475,
  "Ġ138": 21503,
  "Ġpoly": 7514,
  "ĠSurveillance": 34818,
  "ĠLucius": 42477,
  "yden": 43955,
  "Ġburning": 9482,
  "ĠIndones": 12638,
  "ieties": 9545,
  "ĠProject": 4935,
  "ĠResults": 15691,
  "ĠBearing": 28834,
  "icial": 6652,
  "bing": 4623,
  "offic": 14406,
  "Burn": 29053,
  "ĠStatements": 44936,
  "ĠGlou": 49383,
  "Ġpaste": 17008,
  "733": 49995,
  "Ġprolonged": 20573,
  "Ġdef": 825,
  "digit": 27003,
  "Ġscorer": 30664,
  "ancouver": 10264,
  "Ġshipping": 8440,
  "Ġemanc": 37672,
  "Ġinsensitive": 41246,
  "ĠCONTIN": 43659,
  "Ġrapid": 5801,
  "imore": 9401,
  "committee": 26799,
  "nb": 46803,
  "Ġdealer": 16456,
  "ĠUnit": 11801,
  "ĠPitch": 33517,
  "Ġjournalistic": 35227,
  "bil": 33473,
  "å¦": 36685,
  "Ġservic": 37756,
  "rio": 27250,
  "Engine": 13798,
  "Recommend": 41248,
  "ĠPetraeus": 46364,
  "Paper": 42950,
  "Ġhypothal": 48641,
  "ĠjQuery": 37420,
  "ĠNasa": 48673,
  "®": 106,
  "Compare": 41488,
  "Bytes": 45992,
  "rough": 740,
  "inside": 48787,
  "cigarette": 46040,
  "eneg": 46495,
  "Ġsquats": 48871,
  "pp": 381,
  "ĠITV": 49188,
  "gard": 19977,
  "cients": 35611,
  "Instance": 33384,
  "Ġgithub": 33084,
  "vation": 10473,
  "Ġlungs": 21726,
  "Ġdeeds": 23777,
  "Jac": 28821,
  "Ġrites": 41302,
  "652": 43193,
  "collection": 43681,
  "ĠWings": 17330,
  "Dispatch": 49354,
  "ĠIllust": 23279,
  "built": 18780,
  "ĠCarolina": 5913,
  "Ġconcerned": 5213,
  "ullivan": 16040,
  "Ġ;)": 35540,
  "Ġpretty": 2495,
  "orean": 29456,
  "Todd": 42817,
  "Ġweak": 4939,
  "Ġmedicinal": 30381,
  "rogen": 8648,
  "Ġmasc": 23977,
  "ores": 2850,
  "eston": 19115,
  "Ġfec": 27685,
  "native": 30191,
  "entary": 48648,
  "Ġcheer": 14042,
  "Ġoils": 20629,
  "1800": 39188,
  "elfare": 27122,
  "hene": 29473,
  "Ġdf": 47764,
  "Ġpayment": 6074,
  "ĠPublished": 26372,
  "':": 10354,
  "Ġdifferently": 10338,
  "hed": 704,
  "ĠGUN": 43794,
  "imize": 48439,
  "ú": 182,
  "atari": 35554,
  "Ġtrial": 4473,
  "theme": 43810,
  "Cath": 39581,
  "Ġavoids": 30940,
  "ĠTC": 17283,
  "ĠQUEST": 43658,
  ":/": 14079,
  "ĠFacebook": 3203,
  "Ġbel": 894,
  "social": 14557,
  "Ġstink": 48305,
  "ĠUran": 33287,
  "Ġteam": 1074,
  "Ġchats": 40815,
  "At": 2953,
  "Ġplaybook": 41794,
  "Ġincendiary": 47716,
  "Ġactually": 1682,
  "ĠJones": 5437,
  "Ring": 39687,
  "Ġinmates": 16831,
  "addock": 35509,
  "ĠYankee": 36514,
  "Ġlux": 10632,
  "ĠBrexit": 11435,
  "Ġroller": 24471,
  "itimate": 30233,
  "Chel": 38292,
  "Ġshutter": 31168,
  "ĠPhotograph": 18903,
  "Ġhugely": 22641,
  "667": 28933,
  "ĠGolem": 27167,
  "Ho": 28900,
  "Much": 20045,
  "ĠTay": 25569,
  "sym": 37047,
  "Ġroutines": 31878,
  "Union": 38176,
  "Ġrebels": 12669,
  "ĠElder": 15624,
  "99": 2079,
  "Ġlet": 1309,
  "ĠBudget": 15401,
  "Ġuint": 20398,
  "Ġput": 1234,
  "Ġemotionally": 17991,
  "ĠDisaster": 35213,
  "ĠCentre": 9072,
  "Ġtwins": 20345,
  "hews": 40645,
  "ĠFranÃ§ois": 50208,
  "ĠEthernet": 31903,
  "ĠThursday": 3635,
  "ĠEastern": 8345,
  "ĠVi": 16049,
  "ĠVERY": 29550,
  "Ġbackdoor": 47758,
  "Ġconvictions": 19131,
  "Ġdynam": 6382,
  "ĠBarclays": 37985,
  "Ġunconsciously": 48570,
  "Ġnylon": 36104,
  "Ġpractical": 8472,
  "Ġclaws": 28421,
  "amd": 28745,
  "ideshow": 42286,
  "ĠDrum": 25331,
  "Ġlecture": 19143,
  "233": 25429,
  "Ġtricky": 17198,
  "eds": 5379,
  "Ġafterwards": 12979,
  "Ġalong": 1863,
  "ĠColts": 20464,
  "ĠFloyd": 21150,
  "ĠKi": 21927,
  "Ġinviting": 23310,
  "Ġinsulting": 27899,
  "these": 27218,
  "674": 45385,
  "ĠSamurai": 23882,
  "Ġwhispering": 48508,
  "Ġbelie": 1250,
  "Ġtutor": 48680,
  "Things": 22248,
  "ensity": 6377,
  "story": 13571,
  "Ġpled": 8032,
  "works": 5225,
  "Legend": 21351,
  "Ġtolerant": 33435,
  "Natural": 35364,
  "views": 33571,
  "equal": 40496,
  "ĠMerc": 12185,
  "Ġmilliseconds": 38694,
  "People": 8061,
  "Ġepisode": 4471,
  "Pacific": 22933,
  "Ġcontractor": 17195,
  "Ġallies": 7681,
  "ĠTesla": 11938,
  "Ġlingering": 28528,
  "aus": 8717,
  "ĠAb": 2275,
  "ortex": 26158,
  "eas": 30412,
  "Tumblr": 39415,
  "090": 42534,
  "Ġsill": 49276,
  "ĠHayden": 35805,
  "Ġcardio": 47926,
  "ĠMills": 19790,
  "yard": 9413,
  "Ġgradually": 11835,
  "inges": 26792,
  "ĠCOUNTY": 41012,
  "ĠBlasio": 36200,
  "ĠLIST": 39498,
  "Ġchrist": 33826,
  "ĠDawn": 12258,
  "Ġyoungsters": 33167,
  "uncture": 39187,
  "ĠNicarag": 33288,
  "amber": 7789,
  "Ġduplication": 50124,
  "Ġchilling": 28010,
  "iest": 6386,
  "otine": 16174,
  "Ġdiversity": 9573,
  "bedroom": 36269,
  "Ġfrankly": 17813,
  "Ġproficiency": 32102,
  "ĠNeon": 27093,
  "ĠBaby": 14801,
  "ĠKor": 14769,
  "AR": 1503,
  "Ġcracks": 23217,
  "cast": 2701,
  "Ġ53": 7192,
  "ĠVatican": 19057,
  "Ġstatistic": 24696,
  "Ġportfolio": 15320,
  "Ġpriests": 17345,
  "mass": 22208,
  "Ġdeity": 26462,
  "ĠNET": 30502,
  "SSL": 31127,
  "Ġbonuses": 17568,
  "Ġcoronary": 37151,
  "Ġdozen": 8667,
  "ĠMarine": 11000,
  "Ġsnipp": 26911,
  "Ġhalls": 24350,
  "Ġrobbers": 46988,
  "ãĤĭ": 25748,
  "leasing": 48764,
  "Ġbree": 20780,
  "berry": 8396,
  "Ï": 139,
  "Fire": 13543,
  "vasive": 23747,
  "opens": 44813,
  "Ġpay": 1414,
  "ãĤ¯": 14099,
  "spawn": 48183,
  "ĠForbes": 22720,
  "Ġtimeline": 15264,
  "ĠJudy": 26395,
  "Ġphosphorus": 48980,
  "Ġhim": 683,
  "ĠNab": 36099,
  "Ġespresso": 48247,
  "Ġconducts": 36721,
  "eland": 8822,
  "Ġsympath": 23860,
  "elt": 2120,
  "Ġprosecution": 12580,
  "ĠMorph": 41170,
  "aid": 1698,
  "ëĭ": 46695,
  "avement": 44034,
  "av": 615,
  "ipher": 10803,
  "Ġregulation": 9001,
  "ambo": 22651,
  "Ġbiography": 26444,
  "Document": 24941,
  "ĠPainting": 48892,
  "Ġperiod": 2278,
  "onomy": 30565,
  "Ġpropagate": 47933,
  "haus": 30404,
  "Ġstocked": 42070,
  "Ġattent": 32649,
  "hner": 22277,
  "ĠMarble": 36891,
  "Ġcollected": 7723,
  "Ġabundantly": 49244,
  "Ġslows": 33019,
  "Ġ7000": 50205,
  ">": 29,
  "Ġ×": 14360,
  "Ġtraverse": 38138,
  "Ġfreeway": 39042,
  "ĠTan": 11818,
  "ĠHearth": 31069,
  "historic": 31304,
  "ĠAuditor": 38938,
  "Ġbre": 1449,
  "ĠSyri": 3030,
  "Ġdraft": 4538,
  "Ġdock": 23423,
  "UST": 7759,
  "Ġbrackets": 28103,
  "system": 10057,
  "ĠBeyon": 37361,
  "ĠLoad": 8778,
  "ibaba": 37541,
  "Gil": 40747,
  "ĠSach": 20678,
  "Ġkissing": 25847,
  "ichi": 16590,
  "ĠWorkshop": 26701,
  "Ġvalued": 17560,
  "capt": 27144,
  "Ġveterin": 33647,
  "¶ħ": 41678,
  "ĠHemisphere": 42811,
  "IU": 44958,
  "Ġlooks": 3073,
  "Ġenv": 17365,
  ":,": 45299,
  "Ġpray": 12472,
  "Ġsell": 3677,
  "Ġbin": 9874,
  "ĠPLAY": 28180,
  "Manufact": 44445,
  "ĠJimmy": 12963,
  "Ġministry": 11957,
  "Ġpatterns": 7572,
  "aders": 9972,
  "Ġbombard": 35285,
  "lance": 23215,
  "Turkey": 31632,
  "ĠDS": 17400,
  "ĠPrinted": 38482,
  "Ġ();": 13979,
  "Ġdegrade": 42962,
  "Cass": 43529,
  "ĠMyst": 32347,
  "ĠPages": 28221,
  "Ġemail": 3053,
  "Ġlitigation": 19284,
  "Ġretrospective": 41432,
  "oubtedly": 16423,
  "Ġexacerbate": 49522,
  "ĠFAR": 39024,
  "izont": 12071,
  "ĠOliver": 15416,
  "ĠAttacks": 24647,
  "ĠMonth": 16061,
  "remote": 47960,
  "Ġcelebr": 4681,
  "Ġtackling": 26348,
  "ĠShared": 39403,
  "ĠJersey": 8221,
  "Ġdismissive": 49010,
  "Ġbleak": 30942,
  "Ġalarmed": 32064,
  "Ġimpe": 18516,
  "eq": 27363,
  "Ġorbital": 32362,
  "flex": 32880,
  "igl": 38686,
  "Drop": 26932,
  "Ġchin": 22531,
  "ĠCoulter": 47248,
  "ORS": 20673,
  "igration": 4254,
  "Ġtumors": 31155,
  "ĠMothers": 49673,
  "Throw": 39431,
  "burning": 44313,
  "Ġtoilet": 16146,
  "ĠIceland": 17333,
  "ĠRB": 17986,
  "Optional": 30719,
  "Ġlongitudinal": 36211,
  "Ġstatements": 6299,
  "ĠCape": 15725,
  "Ġundermin": 16303,
  "ĠKass": 40511,
  "ĠElephant": 42651,
  "oples": 12614,
  "uxe": 18095,
  "ĠFas": 38971,
  "Ġperplex": 35682,
  "ĠJuliet": 38201,
  "Ġale": 31341,
  "ĠMeditation": 41616,
  "Ġstuck": 7819,
  "iliar": 4797,
  "ĠVolcano": 48380,
  "sis": 13429,
  "ĠFellow": 29764,
  "ĠThankfully": 31251,
  "Sche": 27054,
  "Ġinserts": 42220,
  "Ġunlaw": 16148,
  "Ġcancers": 25217,
  "Ġduty": 7077,
  "ĠBrigade": 26012,
  "Ġspate": 48831,
  "apolog": 46407,
  "Ġreported": 2098,
  "Ġrepe": 3172,
  "Ġsideline": 31585,
  "Ġdebris": 16468,
  "117": 17657,
  "278": 25870,
  "Ġbolted": 49647,
  "ĠGermany": 4486,
  "ĠFinland": 17837,
  "jay": 33708,
  "ocal": 4374,
  "102": 15377,
  "Ġdetails": 3307,
  "Come": 16773,
  "trade": 25351,
  "Ġarose": 21172,
  "ĠDemo": 34588,
  "Krist": 40756,
  "ĠPROG": 38688,
  "ĠTsuk": 28835,
  "Ġrom": 9267,
  "fare": 9496,
  "Ġsquad": 8244,
  "uda": 15339,
  "Ġpriorities": 15369,
  "Ġcalm": 9480,
  "JB": 47858,
  "ĠJenner": 39760,
  "ricting": 42870,
  "Ġpci": 39886,
  "Ġextinction": 21935,
  "ĠThen": 3244,
  "Ġtorn": 12445,
  "Ġtweets": 12665,
  "Ġbeforehand": 27091,
  "Ġneatly": 29776,
  "!.": 43179,
  "Ġtranslucent": 45323,
  ":'": 32105,
  "result": 20274,
  "sub": 7266,
  "ç·": 45784,
  "Ġ---": 11420,
  "><": 6927,
  "VPN": 33883,
  "Ġachieves": 41885,
  "hots": 17398,
  "Ġmud": 17492,
  "Ġsupervised": 28679,
  "Ġunanswered": 34001,
  "ĠPilot": 21697,
  "ĠSab": 9910,
  "Ġturbines": 35658,
  "ĠDhabi": 43941,
  "¬": 105,
  "Edward": 43982,
  "ĠRaider": 31423,
  "Ġbene": 10004,
  "167": 21940,
  "ius": 3754,
  "Ġthighs": 30389,
  "iots": 16228,
  "Ġspilled": 31896,
  "Ġthrowing": 9644,
  "Ġtheme": 7505,
  "Ġblocked": 10226,
  "ĠCroat": 22422,
  "Ġib": 24283,
  "Ġcoord": 6349,
  "Ġsymbol": 6194,
  "Ġinward": 29879,
  "Ġperk": 34407,
  "ĠAfghan": 6539,
  "Ġabundance": 20038,
  "XM": 37643,
  "bye": 16390,
  "ĠBesides": 16238,
  "Ġlogical": 12219,
  "Ġfundamentals": 33099,
  "Ġtie": 9839,
  "After": 3260,
  "ĠEX": 7788,
  "Lost": 31042,
  "ocracy": 17818,
  "Ġphysician": 14325,
  "rique": 33865,
  "Ġembodied": 34413,
  "ĠSATA": 35070,
  "Ġlofty": 37248,
  "779": 40393,
  "ĠDexterity": 40537,
  "ĠAlpine": 46994,
  "ĠSTA": 47550,
  "Ġhordes": 41872,
  "ĠHeld": 44584,
  "Norm": 35393,
  "ĠAnnounce": 43470,
  "Ġpresided": 45022,
  "DEV": 39345,
  "ĠCheong": 45348,
  "boxing": 45471,
  "Ġperjury": 47816,
  "ĠHousing": 16797,
  "ername": 13292,
  "Ġupfront": 36562,
  "ulet": 25132,
  "ĠSamantha": 34778,
  "Ġprivacy": 6782,
  "Texture": 32742,
  "jit": 45051,
  "ĠJamal": 46520,
  "ĠDrone": 38959,
  "Ġoperating": 5361,
  "ĠStockholm": 29679,
  "ĠEc": 14003,
  "Ġpiece": 3704,
  "ĠEffective": 29455,
  "Ġarbitrary": 14977,
  "RET": 26087,
  "Ġteams": 3466,
  "ANT": 8643,
  "Ġemissions": 8971,
  "ZZ": 30148,
  "ĠKad": 31996,
  "ĠCanaan": 47047,
  "ĠPSU": 48189,
  "ĠSect": 24062,
  "ĠTin": 22894,
  "ĠNovel": 24467,
  "Ġincompetent": 33840,
  "ĠCru": 6472,
  "Ġvulnerability": 15131,
  "TI": 25621,
  "Ġaddr": 37817,
  "ĠCOP": 27975,
  "Ġdisdain": 31564,
  "Ġwarships": 44304,
  "ĠHon": 8835,
  "ĠLEDs": 33697,
  "ĠRobert": 5199,
  "ĠJacques": 35437,
  "byn": 14929,
  "Ġflush": 24773,
  "mt": 16762,
  "Ġclicked": 28384,
  "Ġskewed": 37543,
  "highly": 47444,
  "ota": 4265,
  "ade": 671,
  "Ġeffic": 4396,
  "ported": 9213,
  "Ġappropri": 4148,
  "Ġdisproportion": 18717,
  "Reilly": 25819,
  "Ġlikes": 7832,
  "ĠTes": 10696,
  "Ġquantity": 12040,
  "Ġelevation": 22910,
  "ĠDecision": 26423,
  "Ġwriter": 6260,
  "888": 28011,
  "ĠBrus": 15507,
  "Ġfeminists": 22742,
  "Ġopponent": 6125,
  "ĠDev": 6245,
  "ĠIRA": 27859,
  "å¼": 28156,
  "Ġwrink": 34866,
  "carry": 34993,
  "Ġmock": 15290,
  "Ġdelete": 12233,
  "Ġelite": 9085,
  "ĠDesk": 39246,
  "ĠKeep": 9175,
  "Ġuncont": 28605,
  "Ġthugs": 35052,
  "Ġbullying": 20714,
  "kin": 5116,
  "Ġspokesman": 6523,
  "Ġhalt": 17369,
  "guyen": 39922,
  "ĠImm": 9543,
  "ĠGarcia": 18555,
  "Ġpalm": 18057,
  "ĠIslamists": 34434,
  "Ġciv": 36317,
  "Ġpronunciation": 41694,
  "Ġundergrad": 43485,
  "Ġinfiltrated": 43862,
  "ĠÂłĠÂłĠÂłĠÂłĠÂłĠÂłĠÂłĠÂł": 45706,
  "ĠSupply": 22663,
  "Ġindef": 16536,
  "Sample": 36674,
  "Ġsizeof": 39364,
  "ĠPassing": 46389,
  "ĠDownload": 10472,
  "Se": 4653,
  "Ġimminent": 21161,
  "Ġfellowship": 37900,
  "Ġattracting": 25142,
  "Ġblock": 2512,
  "Ġrecharge": 27978,
  "ãĤ»": 47271,
  "ĠStudent": 13613,
  "Britain": 37114,
  "=\\\"": 17553,
  "ĠABV": 49993,
  "Ġcried": 16896,
  "alam": 44949,
  "Ġmisses": 18297,
  "ĠOo": 45801,
  "Wil": 22327,
  "ĠClass": 5016,
  "Ġwherever": 14530,
  "essment": 21687,
  "oshenko": 43934,
  "ĠMAR": 18805,
  "Ġconsequential": 44777,
  "Ġtabloid": 43968,
  "Ġoverdue": 38079,
  "ĠBelgian": 21402,
  "reetings": 46648,
  "Ġchilly": 49018,
  "ights": 2337,
  "Ġaccus": 10458,
  "ĠRonnie": 40892,
  "ichita": 41940,
  "Ġcaptive": 25798,
  "ĠPLAN": 45650,
  "Ġfray": 40606,
  "ka": 4914,
  "past": 30119,
  "ĠContribut": 25767,
  "ĠDiscord": 39462,
  "ĠFounders": 45812,
  "ĠCannabis": 28838,
  "Ġdownward": 20841,
  "Ġpraised": 15342,
  "Ġmouths": 28552,
  "Ġmarried": 6405,
  "illary": 15856,
  "Ġfeas": 18401,
  "Ġsanction": 18830,
  "impro": 32077,
  "ĠGeographic": 33636,
  "Ġhabitats": 35308,
  "Ġreassured": 48171,
  "ĠBrowse": 44775,
  "ĠUN": 4725,
  "CB": 23199,
  "Ġarranging": 41878,
  "ĠHim": 10978,
  "Ġnowhere": 12062,
  "IME": 12789,
  "ensical": 46165,
  "Ġcorresponding": 11188,
  "GD": 45113,
  "Ġallele": 45907,
  "Ġremedies": 29604,
  "Ġ284": 40654,
  "ki": 4106,
  "assault": 46635,
  "Upon": 23792,
  "Ġpain": 2356,
  "ĠFeder": 35089,
  "Ġbrowse": 25675,
  "Ghost": 32001,
  "Ġ246": 34951,
  "ĠKap": 27344,
  "ĠHarvey": 14943,
  "ĠTamil": 32519,
  "redict": 17407,
  "Texas": 21607,
  "ĠCycling": 25550,
  "ĠKS": 34172,
  "Analy": 37702,
  "Ġfat": 3735,
  "Ġclarity": 16287,
  "Ġgrow": 1663,
  "Ġthinking": 3612,
  "ĠHop": 9996,
  "ĠProphet": 13583,
  "aiden": 17538,
  "Ġspecification": 20855,
  "Ġfuel": 5252,
  "ishing": 3929,
  "Ġhitch": 35996,
  "¥µ": 35069,
  "new": 3605,
  "abo": 34748,
  "VALUE": 39488,
  "Ġformulas": 32126,
  "ĠSacred": 17380,
  "ĠNum": 31835,
  "Ġthankfully": 36308,
  "Ġrepr": 41575,
  "Ġsurely": 10403,
  "utory": 17957,
  "Minimum": 44046,
  "ĠKarachi": 46154,
  "ĠDeadline": 35954,
  "ĠSp": 1338,
  "Ġspaceship": 40663,
  "Ġhotline": 46989,
  "ĠEEG": 48749,
  "Ġacc": 697,
  "Ġinvolves": 9018,
  "Ġheadquarters": 10043,
  "Ġbreweries": 31247,
  "fe": 5036,
  "Ġcompilation": 23340,
  "Age": 23396,
  "ĠJACK": 45586,
  "Ġ235": 28878,
  "ĠRez": 47753,
  "budget": 37315,
  "ĠZion": 16899,
  "Ġnode": 10139,
  "ĠOttoman": 34158,
  "ĠGREAT": 37853,
  "Ġoverl": 12893,
  "anta": 4910,
  "Ġadject": 31129,
  "rate": 4873,
  "Ġfewer": 7380,
  "ĠãĤ": 17433,
  "Ġworkaround": 46513,
  "mus": 14664,
  "ĠThief": 23471,
  "isites": 31327,
  "semb": 4428,
  "usa": 22064,
  "ĠGE": 22319,
  "Ġnood": 25099,
  "Ġsurround": 4573,
  "IRD": 46833,
  "ears": 4127,
  "ĠBapt": 18226,
  "ĠShopping": 39109,
  "Ġdull": 19222,
  "Ġmasculine": 27543,
  "ĠLabor": 7882,
  "Ġjudging": 22989,
  "ymm": 26621,
  "ACT": 10659,
  "Ġechoing": 39915,
  "sy": 1837,
  "Ġcontrolled": 6856,
  "Ġcher": 21382,
  "Ġfn": 24714,
  "rylic": 34554,
  "ĠXan": 47482,
  "ĠSTAR": 25424,
  "Ġmim": 17007,
  "Ġfunctionality": 11244,
  "ĠReact": 21492,
  "Ġairing": 31701,
  "Ġedged": 45871,
  "ĠDistrict": 5665,
  "Ġoffenders": 17120,
  "'/": 26488,
  "Ġrepentance": 45893,
  "Ġposit": 46436,
  "Ġstudent": 3710,
  "ĠKenn": 7158,
  "Ġaltering": 29057,
  "ĠFl": 1610,
  ")?": 19427,
  "ĠHin": 29094,
  "podcast": 46032,
  "Ġminute": 5664,
  "reflect": 35051,
  "ĠMelanie": 49872,
  "Chapter": 14126,
  "ĠRenew": 29479,
  "Ġarmoured": 44138,
  "ĠAmmo": 31073,
  "Ġindustrial": 7593,
  "20": 1238,
  "ĠIndependence": 20153,
  "sama": 33843,
  "dirty": 49075,
  "Ġastronomical": 37209,
  "Ġcontestant": 44047,
  "box": 3524,
  "ocaust": 16377,
  "430": 31794,
  "ĠIndustry": 17420,
  "Ġmedication": 14103,
  "Ġcalming": 44907,
  "ĠFloat": 48436,
  "ĠGlory": 25778,
  "iffs": 10203,
  "ĠSprint": 23178,
  "Whatever": 21875,
  "ĠUs": 4021,
  "Ġuter": 31500,
  "uating": 11927,
  "ĠAthen": 18001,
  "Ġinterfaces": 20314,
  "ĠVenezuel": 13420,
  "Ġbiology": 17219,
  "TABLE": 38148,
  "Ġunthinkable": 39593,
  "STER": 41809,
  "Ġthw": 41964,
  "Ġidol": 21580,
  "ĠStew": 12194,
  "impl": 23928,
  "Ġcollective": 10098,
  "Ġchased": 26172,
  "ĠDanielle": 39808,
  "Ġperfected": 42155,
  "AX": 25922,
  "GoldMagikarp": 42202,
  ">\"": 24618,
  "Ġ<+": 42496,
  "ĠGra": 7037,
  "Ġstudied": 9713,
  "Ġdetriment": 42959,
  "Ġgoblins": 46220,
  "Ġtro": 4161,
  "worms": 49617,
  "Ġfid": 49909,
  "Ġcourthouse": 33625,
  "Ġadversary": 34114,
  "Ġkettle": 40231,
  "Ġworse": 4785,
  "Ġlobbied": 40835,
  "Ġpromises": 10497,
  "olerance": 37668,
  "671": 46250,
  "Ġspaced": 38980,
  "419": 45068,
  "Ġparent": 2560,
  "Ġsophomore": 24505,
  "Ġposters": 19379,
  "Ġperfect": 2818,
  "Ġfav": 2090,
  "okes": 3369,
  "ĠBradford": 28199,
  "ĠFishing": 28944,
  "Ġvideog": 36342,
  "Ġaffects": 10975,
  "Ġfluffy": 39145,
  "Ġfiled": 5717,
  "ĠCou": 15062,
  "ier": 959,
  "ĠRegister": 17296,
  "Ġfeaturing": 9593,
  "Ġink": 16882,
  "waters": 41555,
  "ĠGoing": 19219,
  "Ultimate": 47892,
  "enn": 1697,
  "Ġcalculates": 43707,
  "ĠâĢĶ": 851,
  "Ġreader": 9173,
  "olt": 5978,
  "ĠHans": 13071,
  "Ġwhispers": 37806,
  "ĠTus": 46233,
  "!:": 48725,
  "itialized": 13562,
  "Ġembro": 27623,
  "Ġdeleted": 13140,
  "ĠTit": 7659,
  "Ġoutings": 47280,
  "Ġassistant": 8796,
  "ampions": 4350,
  "ĠCass": 14154,
  "Ġrehab": 14321,
  "hl": 18519,
  "ĠTelevision": 21516,
  "ented": 4714,
  "Ġunderlying": 10238,
  "ĠGir": 23837,
  "schild": 35058,
  "Ġpromul": 38040,
  "Ġnumbered": 25840,
  "Ġproducts": 3186,
  "Ġhacking": 15656,
  "iba": 23718,
  "Ġreluctant": 18416,
  "format": 18982,
  "Ġsentiments": 26930,
  "ĠGujar": 28600,
  "Ġpristine": 37293,
  "City": 14941,
  "ĠCommonwealth": 17165,
  "ĠNurse": 42724,
  "Continue": 29453,
  "ĠXY": 41420,
  "raught": 44451,
  "Ġmanipulative": 47859,
  "ĠLuis": 20894,
  "ĠNR": 23057,
  "Ġtales": 19490,
  "Ġcorrelates": 42567,
  "BOX": 39758,
  "ĠTrophy": 25640,
  "crow": 47114,
  "?!": 12248,
  "ĠTJ": 41852,
  "Ġboarding": 25523,
  "roxy": 42059,
  "c": 66,
  "ĠAdventures": 15640,
  "web": 12384,
  "ĠMulti": 15237,
  "Ġgir": 37370,
  "Instant": 49933,
  "Ġgoggles": 42762,
  "ube": 3266,
  "Ġexported": 29050,
  "Ġho": 8169,
  "ĠNevada": 12087,
  "Ġreciproc": 36564,
  "Ġfringe": 26821,
  "Ġaisle": 28960,
  "ĠHawks": 23445,
  "Ġclassmates": 28999,
  "ĠDek": 44297,
  "rat": 10366,
  "Ġdisclosure": 13019,
  "ascular": 14767,
  "Ġmusicians": 17245,
  "ĠPros": 27631,
  "Ġalienated": 41258,
  "acious": 14209,
  "ĠConfederate": 21900,
  "Function": 22203,
  "gov": 9567,
  "Ġliking": 24976,
  "Ġmultipl": 15082,
  "emic": 5314,
  "ĠUnified": 42225,
  "Ġtraditional": 4569,
  "tes": 4879,
  "hash": 17831,
  "Ġtravellers": 37217,
  "Hispanic": 43830,
  "agy": 46671,
  "oline": 14453,
  "Organ": 26121,
  "employed": 36266,
  "Ġocc": 1609,
  "Ġalone": 3436,
  "Ġvigil": 16729,
  "ĠOx": 10736,
  "where": 3003,
  "Ġ501": 24555,
  "Mesh": 37031,
  "Ġdescribed": 3417,
  "Ġnorth": 5093,
  "\"âĢĶ": 15327,
  "nea": 39718,
  "ĠNicholson": 40365,
  "console": 41947,
  "Ġresorts": 43017,
  "Ġpredicament": 44472,
  "Teen": 45639,
  "Ġmodesty": 48740,
  "Ġsexy": 17144,
  "Brian": 24761,
  "Ġpayday": 45691,
  "Ġpessimistic": 46392,
  "wang": 47562,
  "Ġparalle": 9315,
  "ĠGow": 41396,
  "ĠExtrem": 47871,
  "ĠSpokane": 44302,
  "Ġcontraceptives": 45295,
  "ĠDavis": 7802,
  "omi": 12753,
  "Ġ3000": 20343,
  "thouse": 23931,
  "Ġswimming": 14899,
  "Range": 17257,
  "Ġ|": 930,
  "Ġexperien": 3410,
  "ĠWife": 34188,
  "ĠAcademic": 31421,
  "ci": 979,
  "ĠCouncil": 4281,
  "Ġretailers": 16167,
  "Ġdecl": 2377,
  "Ġbreakout": 31661,
  "ĠDIRECT": 42242,
  "Ġpraying": 26002,
  "ĠShapiro": 34034,
  "Ġvocal": 12435,
  "Ġcastles": 49203,
  "Ġcompromised": 19066,
  "604": 31916,
  "ĠPrec": 28737,
  "gins": 29878,
  "ĠWikimedia": 44877,
  "inated": 3898,
  "Ġbars": 9210,
  "advert": 17904,
  "Clearly": 30638,
  "Ġslippery": 32911,
  "Ġslaying": 45183,
  "Ġsharper": 41415,
  "Emergency": 48979,
  "door": 9424,
  "Ġconsiderations": 18506,
  "after": 8499,
  "Hash": 26257,
  "Ġ==": 6624,
  "aphael": 34889,
  "tips": 41315,
  "ĠKron": 44732,
  "share": 20077,
  "Ġinvention": 14250,
  "Ġlightning": 14357,
  "Ġnud": 26731,
  "venge": 18674,
  "spection": 31308,
  "rosc": 45943,
  "ppel": 46357,
  "771": 46761,
  "Independent": 40566,
  "Cat": 21979,
  "eded": 15395,
  "Ġapi": 40391,
  "Ġbloated": 45709,
  "Ġrewards": 11530,
  "ĠMoreno": 43269,
  "Ġsearched": 16499,
  "ĠKush": 18995,
  "ARR": 26465,
  "Ġunspecified": 29547,
  "utable": 18187,
  "ĠCancer": 15523,
  "Ġdepending": 6906,
  "ĠCE": 18671,
  "drug": 30349,
  "vernment": 11355,
  "Ġdismantled": 44001,
  "%%%%": 36917,
  "Ġdesperation": 31265,
  "Ġtsunami": 31019,
  "ĠVigil": 39840,
  "ĠRef": 6524,
  "Ġdeflect": 31685,
  "osaurs": 22344,
  "ĠPeoples": 41770,
  "entry": 13000,
  "Vol": 16598,
  "interest": 9446,
  "ĠMIA": 44903,
  "Ġsalary": 9588,
  "Following": 14291,
  "Ġ(),": 29994,
  "urai": 16998,
  "Ġperformed": 6157,
  "ĠRutgers": 30595,
  "Ġsatir": 31621,
  "ĠMach": 7080,
  "iron": 1934,
  "Ġashamed": 22461,
  "ĠDuel": 23958,
  "Ġchorus": 26441,
  "Iter": 29993,
  "Ġbystand": 33326,
  "ĠKnow": 9365,
  "ĠInteresting": 43580,
  "Ġshielded": 45153,
  "ĠMoments": 45209,
  "ĠDresden": 46993,
  "ĠBalkans": 48100,
  "Ġexcruciating": 49069,
  "ormon": 10615,
  "DIT": 49828,
  "Ġcycl": 11700,
  "ĠKansas": 9470,
  "Ġdownside": 25320,
  "ĠMoonlight": 39951,
  "ĠJustin": 10799,
  "Ġsellers": 23531,
  "Ġminer": 16285,
  "Ġchars": 34534,
  "ĠFlavoring": 49813,
  "Ġdiamonds": 30984,
  "Ġterrified": 22144,
  "Ġ32": 3933,
  "ument": 1713,
  "ĠCFR": 38233,
  "Ġener": 2400,
  "Ġ22": 2534,
  "KNOWN": 44706,
  "itious": 25253,
  "hibited": 44139,
  "Ġmoving": 3867,
  "Ġremember": 3505,
  "ĠReason": 23219,
  "Ġchampioned": 39257,
  "APH": 31300,
  "ĠPeel": 49266,
  "Ġpolled": 37698,
  "utenant": 15340,
  "ARB": 37304,
  "isi": 23267,
  "izing": 2890,
  "ĠAdd": 3060,
  "ĠCaribbean": 18020,
  "ĠLearning": 18252,
  "Ġflowed": 35456,
  "Ġmoved": 3888,
  "otin": 41403,
  "Christmas": 44614,
  "etus": 29158,
  "Ve": 26979,
  "ĠEverett": 36815,
  "polit": 34470,
  "mit": 2781,
  "ãģĭ": 27370,
  "Ġspurred": 34601,
  "Entry": 30150,
  "wife": 22095,
  "Ġnurture": 43414,
  "imaru": 49551,
  "ew": 413,
  "Ġexpertise": 13572,
  "Ġgonna": 8066,
  "ĠJul": 5979,
  "Ġturning": 6225,
  "ceptive": 25867,
  "Ġvalid": 4938,
  "ĠPsychic": 38874,
  "azing": 4070,
  "stra": 12044,
  "ĠEffect": 7896,
  "forcing": 18766,
  "heres": 19079,
  "ĠTS": 26136,
  "Ġengages": 32902,
  "Ġauthorised": 39019,
  "ocking": 8629,
  "neum": 25668,
  "Ġhair": 4190,
  "ĠAustralian": 6638,
  "ĠRiy": 33542,
  "Ġcatalyst": 31357,
  "ĠHispanics": 30714,
  "ÃĥÃĤ": 5808,
  "Ġ65": 6135,
  "ĠTrouble": 34179,
  "Ġvo": 7608,
  "Ġimproving": 10068,
  "Eva": 44239,
  "Ġwise": 10787,
  "Ġtripled": 43761,
  "Ġ760": 48284,
  "########": 7804,
  "Ġwhist": 32262,
  "KN": 29132,
  "ĠSetFontSize": 39446,
  "Ġtesters": 42891,
  "onto": 5957,
  "ĠBLACK": 31963,
  "Fly": 33771,
  "biz": 42189,
  "ĠSydney": 11852,
  "tags": 31499,
  "Ther": 35048,
  "Ġinhibits": 49543,
  "ĠMarriage": 24509,
  "AAAAAAAA": 43488,
  "oom": 4207,
  "nyder": 21053,
  "ĠChop": 40159,
  "Ġconsisting": 17747,
  "ĠDart": 29032,
  "anson": 23103,
  "Ġbathing": 39153,
  "Ġbottom": 4220,
  "ĠTory": 19037,
  "Ġmusician": 21623,
  "Ġ153": 24652,
  "Ġcreativity": 16389,
  "Ġcalculating": 26019,
  "ĠCalls": 27592,
  "GMT": 49424,
  "ĠMAD": 45878,
  "Ġdrunken": 26680,
  "Ġcontroversies": 36512,
  "Ġreplaced": 6928,
  "ĠEz": 21034,
  "Ġproof": 6617,
  "ĠBosnia": 34292,
  "printed": 49695,
  "eer": 28153,
  "Ġmathematician": 48251,
  "Pro": 2964,
  "ĠMAN": 17254,
  "ĠTracker": 26885,
  "icion": 47430,
  "untarily": 49605,
  "alties": 10355,
  "GM": 15548,
  "ĠFort": 6401,
  "Ġcoached": 31764,
  "ĠBieber": 42263,
  "omach": 10806,
  "Ġspoilers": 31136,
  "ĠHAS": 33930,
  "Ġinvolvement": 9750,
  "ĠSw": 2451,
  "Working": 28516,
  "UTERS": 14974,
  "ĠVeh": 15118,
  "IDES": 42538,
  "Forge": 19857,
  "Ġappro": 1331,
  "Ġpuzzled": 36907,
  "ĠBaton": 38617,
  "Ġtimeout": 26827,
  "agues": 6120,
  "ription": 2918,
  "Ġprojectiles": 33281,
  "344": 33535,
  "private": 19734,
  "pire": 5111,
  "Ġrebounds": 18841,
  "ĠBal": 8528,
  "ĠInspect": 20904,
  "Ġgodd": 17495,
  "letcher": 29257,
  "Pg": 31743,
  "productive": 27781,
  "Ġalter": 8343,
  "ĠAMER": 32617,
  "Ġendanger": 35276,
  "Ġdefect": 11855,
  "Ġflavored": 45613,
  "ĠGMOs": 46135,
  "ĠChong": 46892,
  "Ġflattering": 48259,
  "Creating": 32071,
  "techn": 23873,
  "ĠCharisma": 44859,
  "site": 15654,
  "ĠVladimir": 14840,
  "Ġuninstall": 43194,
  "Ġsubreddit": 25163,
  "arate": 30748,
  "ĠOmni": 44251,
  "Ġroughly": 7323,
  "Ġforehead": 22645,
  "Ġcommissioned": 20462,
  "Ġsor": 25655,
  "Ġacknowled": 7333,
  "Ġwilling": 4684,
  "ĠDOES": 38359,
  "Ġhalftime": 35185,
  "Ġattendants": 46337,
  "ĠPlease": 4222,
  "Ġeuro": 11063,
  "aspberry": 17653,
  "Ġpopulism": 47584,
  "ĠAnxiety": 48276,
  "Ti": 40533,
  "Aw": 23155,
  "ĠART": 24278,
  "ĠTaiwan": 14119,
  "ĠDrink": 32906,
  "Ġsuggested": 5220,
  "otta": 12375,
  "Ġmiscarriage": 45931,
  "EMP": 39494,
  "ĠAmazing": 23181,
  "Ġsignaled": 34676,
  "Ġantidepress": 27293,
  "ĠX": 1395,
  "Compan": 41309,
  "Ġreperc": 32846,
  "Fast": 22968,
  "Ġreplica": 30069,
  "Ġfounders": 22202,
  "ĠObj": 38764,
  "Ġrescue": 9992,
  "gren": 32762,
  "Magikarp": 41538,
  "Ġflares": 45831,
  "Ġmanaging": 11149,
  "Ġprotests": 8536,
  "League": 24623,
  "Ġstartling": 28027,
  "ĠInqu": 17193,
  "ĠJessie": 43425,
  "Ġasleep": 16039,
  "Ġjugg": 24873,
  "ĠDickens": 46167,
  "Ġcomplexion": 48026,
  "ĠSicily": 49301,
  "ĠConcepts": 50053,
  "ĠScha": 35756,
  "......": 16317,
  "anim": 11227,
  "pe": 431,
  "ĠCourt": 3078,
  "Ġfists": 33053,
  "Ġresurrection": 27556,
  "Ġtriggers": 20022,
  "oton": 18970,
  "five": 13261,
  "ATA": 13563,
  "ire": 557,
  "00": 405,
  "ĠNutrition": 23285,
  "Summary": 22093,
  "verty": 8077,
  "292": 32759,
  "Ġmotivate": 35065,
  "Mont": 26031,
  "ot": 313,
  "ĠTHEN": 42243,
  "Ġadip": 31659,
  "Ġrighteousness": 33738,
  "Ġaccidents": 17390,
  "ĠRex": 17853,
  "itism": 18937,
  "ĠGuinea": 22777,
  "Ġeve": 28001,
  "aired": 9820,
  "wy": 21768,
  "respond": 5546,
  "ĠDiscovery": 23455,
  "Ġshare": 2648,
  "'.": 4458,
  "icular": 13174,
  "water": 7050,
  "Map": 13912,
  "member": 19522,
  "ĠFlore": 23347,
  "ensitive": 18464,
  "Ġnurses": 20669,
  "Ġbargain": 22803,
  "Ġregener": 16935,
  "Ġincom": 15501,
  "Ġsuburb": 23200,
  "ĠLeafs": 25479,
  "ĠCommunication": 26117,
  "Ġfluor": 26967,
  "chens": 29937,
  "obia": 30665,
  "Ġmantra": 32628,
  "cipline": 34647,
  "Ġstatewide": 23605,
  "Ġadversaries": 35177,
  "mas": 5356,
  "ĠWyn": 29758,
  "girls": 36960,
  "Ġtreats": 18432,
  "Ġbelonged": 19611,
  "Ġdischarged": 26476,
  "Captain": 27898,
  "Ġbroke": 6265,
  "ĠAFP": 8916,
  "Ġdeton": 20413,
  "Ġlegislative": 10828,
  "Ġtug": 27762,
  "Ġlandscape": 10747,
  "Ġblasts": 29895,
  "Ġmalaria": 33917,
  "dropping": 37554,
  "Ġrewrite": 28183,
  "ĠAct": 2191,
  "Alert": 36420,
  "Ġcottage": 36856,
  "ĠSupreme": 5617,
  "Ġmuse": 26817,
  "Hy": 21217,
  "Ġtailor": 35280,
  "significant": 36591,
  "ĠHL": 38312,
  "ĠKik": 40571,
  "ĠChomsky": 41057,
  "ucks": 6238,
  "ĠBermuda": 41410,
  "Ġrepertoire": 42515,
  "Ġfearless": 43157,
  "auntlet": 32633,
  "criminal": 45955,
  "neau": 46533,
  "Ġguaranteed": 11462,
  "agn": 4660,
  "Ġhidden": 7104,
  "IJ": 23852,
  "ĠNottingham": 39802,
  "Ġpurchase": 5001,
  "Wire": 29451,
  "learning": 40684,
  "â": 158,
  "President": 10364,
  "Ġmistaken": 16011,
  "Ġpredecessor": 18476,
  "Ġrampant": 26262,
  "ĠEmerald": 28909,
  "43": 3559,
  "Interview": 39945,
  "ĠHu": 11256,
  "fa": 13331,
  "Ġyo": 27406,
  "named": 13190,
  "aceutical": 14642,
  "Ġhops": 29438,
  "Figure": 11337,
  "ĠESC": 40251,
  "Ġscatter": 41058,
  "Ġneighboring": 19651,
  "rene": 25924,
  "ĠLat": 5476,
  "Ġfriction": 23822,
  "ĠRevolutionary": 28105,
  "Ġvivo": 34714,
  "Ġpink": 11398,
  "Ġexcel": 27336,
  "Ġisolate": 28091,
  "ger": 1362,
  "UNE": 41884,
  "Ġretaliation": 24671,
  "ĠEdit": 5312,
  "quarter": 24385,
  "Ġdefeated": 9772,
  "ulk": 12171,
  "umpy": 32152,
  "ipop": 42800,
  "inators": 47721,
  "628": 48200,
  "Ġoverloaded": 50068,
  "Ġexceed": 7074,
  "Ġhandler": 21360,
  "ĠDiversity": 36188,
  "699": 47325,
  "ĠCoffee": 19443,
  "Um": 37280,
  "Ire": 48505,
  "Private": 29067,
  "ĠArchitect": 17340,
  "zone": 11340,
  "ĠHasan": 49482,
  "Ġexasper": 41851,
  "ration": 1358,
  "sylvania": 9270,
  "Ġinstallments": 49854,
  "ĠBowie": 29989,
  "Ġevaluate": 13446,
  "Ġaveraged": 16449,
  "Ġcigars": 33204,
  "philis": 49613,
  "Ġsingle": 2060,
  "rites": 23156,
  "Ġprotested": 27278,
  "ãĥ¼ãĥ": 12045,
  "Ġreceive": 3328,
  "ĠRest": 8324,
  "Ġmerch": 12487,
  "ĠPrecision": 39281,
  "Ġentertainment": 9739,
  "Ġexting": 24973,
  "Colorado": 41330,
  "rep": 7856,
  "ruby": 49137,
  "Ġconfront": 7239,
  "Fil": 11928,
  "ĠBody": 12290,
  "istical": 19929,
  "din": 25194,
  "ĠJudging": 47024,
  "inently": 26528,
  "Ġuniversity": 6403,
  "ò": 174,
  "ĠZombie": 14609,
  "pic": 16564,
  "ĠPOW": 24148,
  "Residents": 42347,
  "Sort": 42758,
  "Ġworshipped": 46204,
  "ĠHOUSE": 46586,
  "ained": 1328,
  "Ġprinciple": 7989,
  "everal": 8438,
  "else": 17772,
  "ĠJu": 12585,
  "oir": 10840,
  "Ġexper": 1121,
  "Ġslot": 10852,
  "ĠRut": 21214,
  "ylene": 37880,
  "ĠDent": 39078,
  "ĠIcelandic": 41959,
  "(*": 46491,
  "118": 16817,
  "Ġsnag": 48456,
  "Ġshortcut": 29401,
  "Eye": 24876,
  "izz": 6457,
  "percent": 25067,
  "Ġorc": 26393,
  "Ġexecuted": 10945,
  "ĠRussell": 11563,
  "ĠTitan": 11977,
  "Ġrailroad": 24337,
  "Ġcasing": 39731,
  "zinski": 46394,
  "ĠNearly": 21233,
  "ilded": 46158,
  "Js": 49044,
  "zilla": 16496,
  "Ġskirt": 23967,
  "ergy": 26079,
  "Ġthoughts": 6066,
  "ĠVox": 28035,
  "Dar": 32708,
  "\"}": 20662,
  "ĠSome": 2773,
  "ĠBeer": 16971,
  "Ġdifferential": 22577,
  "Ġresembling": 29474,
  "ss": 824,
  "Ġhospital": 4436,
  "ĠisEnabled": 34842,
  "ĠMDMA": 34883,
  "Ġirrad": 47537,
  "Commission": 50246,
  "RL": 7836,
  "Ġmoot": 41264,
  "Ġeco": 34286,
  "Ġnests": 44382,
  "ĠLys": 46749,
  "Ġinstrument": 8875,
  "ĠSanders": 5831,
  "Ġfortun": 16648,
  "Ġhappily": 18177,
  "next": 19545,
  "Ġbroadcasts": 30423,
  "282": 32568,
  "ĠForty": 38223,
  "Ca": 24334,
  "ById": 48364,
  "Ġumb": 20810,
  "Ġwhistlebl": 24516,
  "Normal": 26447,
  "ĠContinental": 30462,
  "Ġplanet": 5440,
  "Ġsat": 3332,
  "Ġreasoning": 14607,
  "Ġrecruits": 23096,
  "iver": 1428,
  "Ġundertake": 25340,
  "rest": 2118,
  "rior": 7701,
  "ĠDong": 28831,
  "Ġtied": 8165,
  "ĠAustin": 9533,
  "Ġfolk": 15504,
  "ĠAsc": 29469,
  "UX": 31235,
  "ĠEVER": 20498,
  "Ġio": 33245,
  "ĠScots": 33860,
  "Unlike": 18521,
  "Ġrequest": 2581,
  "ĠPHP": 19599,
  "Ġreacting": 33413,
  "arial": 36098,
  "Ġimplications": 10939,
  "Ġpacking": 24157,
  "Qaida": 41225,
  "Ġported": 49702,
  "Ġsur": 969,
  "ĠGamb": 33330,
  "Ġhypertension": 37454,
  "Ġdisciplinary": 24737,
  "ĠHumanity": 35629,
  "Deb": 16587,
  "ĠPhone": 14484,
  "ulnerable": 38828,
  "ĠLCS": 38217,
  "ĠAriel": 33364,
  "innamon": 21920,
  "cat": 9246,
  "Ġreset": 13259,
  "ĠAkira": 46910,
  "Ġspokesperson": 11821,
  "Ġbeloved": 14142,
  "ampion": 6734,
  "ĠLon": 39295,
  "Ñĭ": 45035,
  "Ġretains": 27452,
  "Ġutil": 7736,
  "Ġpoultry": 34101,
  "ĠVG": 34627,
  "ĠCth": 34901,
  "ĠCorrection": 35074,
  "Ġsten": 45219,
  "De": 5005,
  "Ġscenery": 31068,
  "Ġdesktop": 11364,
  "Ġlinebackers": 43081,
  "Ġcs": 50115,
  "Ġlect": 11042,
  "mith": 22947,
  "Ġindependent": 4795,
  "Ġdred": 47478,
  "Ġ###": 44386,
  "Ġequipment": 5112,
  "aily": 3079,
  "Ġmonth": 1227,
  "ĠSoc": 3345,
  "Ġinfiltration": 45106,
  "Ġurban": 7876,
  "ĠPolitico": 27096,
  "hood": 2894,
  "Ġbully": 27410,
  "Ġreputable": 40300,
  "Ġesp": 15024,
  "Ġscam": 19126,
  "Ġcapitalist": 15098,
  "Ġingen": 27016,
  "Ġsingles": 25287,
  "Staff": 31449,
  "Ġm": 285,
  "\"},": 25719,
  "Ġcoffee": 6891,
  "ĠLeia": 41212,
  "ĠSheriff": 12874,
  "Ġrein": 6865,
  "ĠMillenn": 19007,
  "Ġsubstantive": 28580,
  "740": 45598,
  "Ġcris": 4442,
  "Ġrecept": 9420,
  "ucc": 18863,
  "Ġnamesake": 49829,
  "ĠCreat": 7921,
  "eries": 10640,
  "sets": 28709,
  "Ġliteral": 18875,
  "Ġceasefire": 29717,
  "Ġingrained": 47938,
  "Under": 9203,
  "Ġparish": 28830,
  "):": 2599,
  "ĠExchange": 12516,
  "Ġoccupancy": 42498,
  "kos": 46150,
  "ĠLM": 37125,
  "ĠBritann": 46693,
  "Ġgeop": 30324,
  "Ġgeo": 40087,
  "ĠTwelve": 30775,
  "orr": 38890,
  "Ġlearnt": 26338,
  "Ġpies": 47199,
  "ĠPolitics": 17554,
  "Ġreneg": 30780,
  "Ġ312": 34465,
  "ords": 3669,
  "pass": 6603,
  "book": 2070,
  "ĠEMP": 38144,
  "awatts": 46684,
  "Ġinterceptions": 28891,
  "BE": 12473,
  "ĠGa": 12822,
  "ibrary": 4115,
  "'?": 30960,
  "Ġenemies": 5775,
  "ls": 7278,
  "Ġcomments": 3651,
  "ĠOrient": 35275,
  "ĠSymb": 41327,
  "Ġtheolog": 37275,
  "zed": 8863,
  "plete": 6677,
  "Desk": 42523,
  "leneck": 43163,
  "Ġdispers": 39895,
  "Is": 3792,
  "Ġspir": 9158,
  "Ġsometime": 17291,
  "Ġtwice": 5403,
  "oven": 16206,
  "args": 22046,
  "owners": 15605,
  "hin": 20079,
  "Ġsurplus": 18201,
  "Ġregain": 21509,
  "ĠFinn": 15368,
  "Ġelbow": 22662,
  "2019": 23344,
  "Lou": 24016,
  "Ġswapping": 38869,
  "Ġcoils": 41331,
  "Cand": 41572,
  "Ġburn": 4245,
  "Cr": 13916,
  "ajor": 1518,
  "eve": 44655,
  "ĠBetsy": 45775,
  "ĠDigest": 44255,
  "urs": 1834,
  "ĠSaf": 6895,
  "ĠAgain": 6521,
  "Ġsteadily": 18434,
  "ĠTriumph": 41337,
  "ĠBritons": 43310,
  "aretz": 48338,
  "Ġnewsp": 6043,
  "Ġvoluntary": 16171,
  "Ġbig": 1263,
  "ĠSample": 27565,
  "ĠDevelop": 6013,
  "ĠMassive": 38756,
  "td": 8671,
  "Ġencourages": 18656,
  "Ġchief": 4039,
  "2011": 9804,
  "juries": 47496,
  "Ġtrash": 13913,
  "Ġcows": 22575,
  "ĠTrop": 25491,
  "Ġexpiration": 28385,
  "Ġalterations": 29858,
  "413": 44103,
  "ourney": 5604,
  "Ġviolation": 8747,
  "yrs": 48489,
  "ues": 947,
  "Ġestimates": 7746,
  "Ġagain": 757,
  "ren": 918,
  "ĠUkrain": 5435,
  "ĠSpecial": 6093,
  "Yeah": 10995,
  "SY": 23060,
  "Ġnoises": 26782,
  "Ġembody": 48061,
  "renched": 23437,
  "Ġtemplates": 24019,
  "ĠCODE": 42714,
  "ocrat": 35128,
  "Ġbows": 37469,
  "Anne": 43227,
  "Ġbenef": 2204,
  "Ġassembled": 16030,
  "ĠSAF": 37630,
  "Bo": 16635,
  "î": 170,
  "ĠThey": 1119,
  "ĠDivine": 13009,
  "Online": 14439,
  "ĠReal": 6416,
  "Ġpseud": 25038,
  "ovy": 27796,
  "Ġcontainment": 37149,
  "ributed": 6169,
  "tainment": 10738,
  "Args": 42035,
  "Ġabhor": 42934,
  "Ġdoctrine": 13115,
  "Ġrifle": 11575,
  "ophy": 16982,
  "pull": 31216,
  "ĠPrism": 35417,
  "Ġtrail": 8025,
  "ĠØ": 17550,
  "ĠDespite": 7945,
  "FUN": 42296,
  "unci": 49652,
  "Ġnegativity": 45074,
  "aler": 36213,
  "Ġinterfered": 46414,
  "ĠOrc": 19083,
  "ĠHarrington": 48334,
  "Ġprepares": 25978,
  "ãģ": 2515,
  "Ġmanned": 34737,
  "036": 48597,
  "Ġcons": 762,
  "Ġplot": 7110,
  "Ġ\"": 366,
  "Ġrequested": 9167,
  "Ġbeast": 13824,
  "ĠCAP": 20176,
  "Ġoverload": 31754,
  "nom": 26601,
  "Set": 7248,
  "ĠEdwards": 17381,
  "Ġ\"...": 27896,
  "Ġgathering": 11228,
  "etti": 24851,
  "raviolet": 44223,
  "Ġconnecting": 14320,
  "everything": 37814,
  "ĠClin": 11834,
  "ART": 7227,
  "itizens": 34100,
  "ĠSharia": 38627,
  "ĠBaxter": 46277,
  "Ġknit": 30495,
  "ĠMonument": 33075,
  "Ġcommand": 3141,
  "ĠSchool": 3961,
  "IAS": 43429,
  "ussion": 11956,
  "ä¹": 20046,
  "ĠRoll": 8299,
  "uned": 40881,
  "Super": 12442,
  "Ġtends": 12444,
  "ĠGMT": 16987,
  "Ġemb": 4072,
  "oving": 5165,
  "Iss": 27738,
  "ĠAssad": 13032,
  "Ġduct": 28494,
  "pak": 41091,
  "ĠScripture": 25595,
  "More": 5167,
  "tl": 28781,
  "Ġforgiven": 32350,
  "ĠOliv": 40019,
  "aska": 8480,
  "elfth": 44659,
  "Ġsomething": 1223,
  "ĠYanukovych": 43202,
  "Increase": 46890,
  "Ã±o": 31329,
  "Ġcertified": 15704,
  "Ġrenegoti": 48312,
  "Ġboats": 16659,
  "Ġleagues": 16861,
  "Ġleve": 34002,
  "ĠWorcester": 50075,
  "Ġtornado": 33718,
  "ĠGrid": 24846,
  "Ġpronoun": 28636,
  "Ġerrors": 8563,
  "ashi": 12144,
  "Ġbaff": 25989,
  "nutrition": 40482,
  "ach": 620,
  "ĠKend": 19274,
  "Ġcoffers": 47295,
  "Ġreflection": 14580,
  "ĠMess": 10626,
  "243": 26660,
  "Sup": 40784,
  "ĠHernandez": 24687,
  "Ġreliability": 17843,
  "Ġratio": 8064,
  "Ġdism": 18099,
  "ĠShepherd": 30890,
  "Ġtroublesome": 35778,
  "cloneembedreportprint": 30899,
  "Elsewhere": 49374,
  "ĠFever": 41951,
  "fighters": 17114,
  "ĠIR": 14826,
  "ĠClaim": 22070,
  "ĠPokÃ©": 9169,
  "history": 23569,
  "Ġrates": 3965,
  "Ġescort": 27675,
  "Eventually": 28724,
  "Ġapply": 4174,
  "ĠNob": 8140,
  "ĠSap": 35980,
  "ĠCater": 40742,
  "Ġrespawn": 42929,
  "--------": 982,
  "Ġillnesses": 24024,
  "ĠSequence": 45835,
  "Ġinadequ": 17881,
  "Zip": 41729,
  "Ġenterprises": 23941,
  "owner": 18403,
  "spot": 20485,
  "ellect": 6879,
  "uddenly": 18865,
  "Ġlaure": 34515,
  "icating": 12364,
  "Consider": 19626,
  "Ġburd": 8746,
  "ĠOlson": 31530,
  "bay": 24406,
  "ĠSteven": 8239,
  "review": 19023,
  "Ġrepaired": 27457,
  "201": 1264,
  "Ġidea": 2126,
  "ribution": 3890,
  "State": 9012,
  "Ġreportedly": 7478,
  "ĠMouse": 21839,
  "Ġacquiring": 22488,
  "Ġsonic": 36220,
  "omination": 27744,
  "Ġimprove": 2987,
  "Ġorthodox": 28299,
  "Â¶": 26604,
  "ĠKP": 45814,
  "Ġunpredict": 20378,
  "Ġrenowned": 22140,
  "Ġbeginning": 3726,
  "ĠLG": 17370,
  "ĠBIG": 26746,
  "acid": 46309,
  "chat": 17006,
  "ÃŃa": 29690,
  "ĠSchwarzenegger": 47507,
  "Ġutopian": 49678,
  "ĠInterview": 19371,
  "Ġhottest": 26896,
  "åħī": 46268,
  "ĠRisk": 19602,
  "Ġpartly": 11476,
  "Ġgods": 11858,
  "ĠAdvertisement": 39711,
  "ĠML": 10373,
  "ĠKrishna": 38594,
  "ifling": 38966,
  "Links": 31815,
  "757": 39251,
  "izza": 9990,
  "Ġ256": 17759,
  "oo": 2238,
  "Ġintox": 21275,
  "Ġmini": 9927,
  "HQ": 41275,
  "killed": 42130,
  "589": 44169,
  "trap": 46670,
  "Ġcarrots": 34397,
  "ĠTyp": 17134,
  "wich": 11451,
  "åı": 20998,
  "EX": 6369,
  "ingo": 32735,
  "ocobo": 37642,
  "i": 72,
  "ĠArn": 16644,
  "izens": 44908,
  "Ġdiscl": 5862,
  "Ġclo": 28050,
  "ciation": 17269,
  "Ġmanifesto": 29960,
  "Ġsun": 4252,
  "Ġexplored": 18782,
  "Ġisot": 31624,
  "Ġeat": 4483,
  "Ġrecreational": 18136,
  "53": 4310,
  "alian": 7199,
  "Ġbeach": 10481,
  "Ġmorally": 22388,
  "Ġ!": 5145,
  "Ġretrie": 13236,
  "Ġsuite": 18389,
  "Ġdiscontent": 39784,
  "estate": 44146,
  "alyses": 43710,
  "Ġfroze": 37785,
  "ositories": 35061,
  "ĠChildhood": 40992,
  "Ġcoll": 2927,
  "ĠLever": 42365,
  "Ġsupplied": 14275,
  "Ġaccompanied": 11791,
  "Ġaperture": 32729,
  "ĠFrost": 15122,
  "Ġexce": 43748,
  "ĠTemplate": 37350,
  "orns": 19942,
  "ĠColl": 7778,
  "mont": 8691,
  "Comments": 23903,
  "Ġhither": 37706,
  "wed": 19103,
  "uzzle": 9625,
  "iffe": 22391,
  "Ġunwitting": 38420,
  "Ġblasp": 30459,
  "ĠBigfoot": 50120,
  "ĠGrants": 40535,
  "Ġliber": 3655,
  "Ġunrelated": 19938,
  "Outside": 30815,
  "ĠSnapchat": 31546,
  "Ġunsu": 48092,
  "644": 29173,
  "Ġmeats": 32219,
  "oki": 18228,
  "ĠExpression": 41986,
  "ĠCalais": 48025,
  "Ġpredicts": 26334,
  "Ġcrow": 37593,
  "Ġemptiness": 49333,
  "raction": 7861,
  "indu": 10259,
  "rison": 7426,
  "ĠEli": 25204,
  "illery": 14920,
  ")}": 38165,
  "Ġexpressions": 14700,
  "ĠLas": 10123,
  "ĠAtk": 36379,
  "èĪ": 48958,
  "Ġcoastal": 17475,
  "ĠHorse": 18455,
  "ĠWallet": 37249,
  "Ġlantern": 41207,
  "ango": 14208,
  "orious": 9982,
  "ĠEvan": 21523,
  "ĠCrescent": 36398,
  "agi": 18013,
  "Ġsuspicious": 13678,
  "Ġintervals": 20016,
  "ĠCargo": 41061,
  "Ġbackfield": 45747,
  "ĠSomali": 30886,
  "ĠObama": 2486,
  "grown": 22377,
  "Ġfulfillment": 32402,
  "Ġmonumental": 36364,
  "DEC": 41374,
  "iem": 26597,
  "Ġclash": 19122,
  "cart": 26674,
  "Ġdir": 26672,
  "Ġaccredited": 37237,
  "QL": 9711,
  "airy": 13021,
  "Ġstarring": 20495,
  "Ġ+": 1343,
  "Ġcorrupted": 26940,
  "ĠCreed": 24299,
  "ĠTOP": 28662,
  "Ġ--------": 24200,
  "liament": 5130,
  "Ġworkout": 17578,
  "Ġreper": 23269,
  "ĠTaliban": 15471,
  "antz": 46269,
  "ĠPrimary": 21087,
  "ĠArts": 11536,
  "ĠPKK": 35176,
  "è£ħ": 35318,
  "Ġarchetype": 37942,
  "ĠDJs": 48644,
  "ĠLeica": 50211,
  "ĠLeBron": 24712,
  "Ġskipped": 26684,
  "arf": 37595,
  "Ġborder": 4865,
  "Ġbarb": 42577,
  "Ġsymptom": 25993,
  "ventures": 10065,
  "orers": 28089,
  "Ġworsening": 42373,
  "oth": 849,
  "Ġsued": 16334,
  "Ġxml": 35555,
  "Ġconnection": 4637,
  "reen": 1361,
  "Ġtriangle": 22950,
  "ĠLU": 50168,
  "esome": 5927,
  "Ġsurgeons": 38479,
  "Ġdismal": 39656,
  "ĠDoctor": 9356,
  "Ġalot": 43158,
  "ĠInstallation": 32588,
  "Ġboycot": 46878,
  "Ġrehears": 28779,
  "Ġappealed": 22280,
  "Ġreferencing": 32578,
  "ĠCENT": 33269,
  "ĠEssentially": 34039,
  "Ġming": 42434,
  "ĠiT": 4748,
  "linked": 25614,
  "ritis": 27398,
  "2017": 5539,
  "icably": 41685,
  "Ġsauce": 10746,
  "Ġfinishes": 20271,
  "iano": 10115,
  "Ġcountless": 12925,
  "ABLE": 17534,
  "ĠMedium": 13398,
  "DC": 9697,
  "arest": 12423,
  "ĠPhilippines": 13316,
  "ĠKah": 38798,
  "ĠPen": 7507,
  "Ġmurderers": 38313,
  "Ġhence": 12891,
  "ĠConservatives": 17897,
  "incial": 13744,
  "YES": 43335,
  "Ġ215": 22951,
  "LED": 30465,
  "ĠNik": 11271,
  "cribed": 32968,
  "bare": 49382,
  "Ġoccur": 3051,
  "*/": 16208,
  "Ġbeta": 12159,
  "utsu": 36567,
  "cont": 3642,
  "ĠPanel": 18810,
  "ĠWeekend": 30537,
  "ĠGross": 21796,
  "Ġ1916": 32811,
  "Ġbundled": 34358,
  "Ġsaturation": 36275,
  "Ġdisappearing": 28867,
  "ennett": 48151,
  "Ġpropaganda": 11613,
  "Ġhr": 39436,
  "Herm": 48523,
  "ority": 29134,
  "Ġovertake": 48155,
  "Ġclosing": 9605,
  "Left": 18819,
  "Ġenclosed": 28543,
  "ĠSinger": 28755,
  "Ġexperiments": 10256,
  "Ġsexually": 11363,
  "Ġsimulation": 18640,
  "Ġtell": 1560,
  "Ġrats": 13623,
  "AN": 1565,
  "Ġprotects": 17289,
  "ĠSending": 32038,
  "slave": 36341,
  "minus": 40191,
  "Ġneglected": 24007,
  "Enter": 17469,
  "ĠTracks": 42259,
  "Ġmortg": 28465,
  "ĠKNOW": 35876,
  "icer": 16647,
  "Ġbrutality": 24557,
  "LLOW": 44765,
  "Ġrite": 46048,
  "Sher": 28782,
  "ĠMiranda": 29575,
  "cru": 32838,
  "ĠWorker": 35412,
  "vas": 11017,
  "Ġfreezes": 44389,
  "Ġcorrecting": 39038,
  "Ġ'[": 44438,
  "Ġbarriers": 14725,
  "STAT": 35744,
  "ĠSuc": 47352,
  "igroup": 47875,
  "ĠStacy": 49523,
  "Beck": 43454,
  "ĠDragonbound": 17900,
  "song": 34050,
  "phrase": 34675,
  "Ġapproximation": 40874,
  "Ġforensic": 23953,
  "MIC": 49884,
  "Ġradicals": 32842,
  "ĠFame": 18864,
  "ogram": 21857,
  "Ġshifting": 15852,
  "ĠShape": 25959,
  "ebin": 23497,
  "Ġplead": 30701,
  "287": 27800,
  "ĠNoon": 41035,
  "endez": 41913,
  "ution": 1009,
  "Ġlasted": 15436,
  "Ġneb": 45508,
  "Ġslut": 33526,
  "Ġhumanities": 47824,
  ">>>>": 16471,
  "ĠOnion": 34733,
  "Ġintervening": 37294,
  "Ġconclusive": 39689,
  "ICE": 8476,
  "Ġinaug": 14243,
  "ctr": 24087,
  "ĠHag": 21375,
  "Ġ213": 28658,
  "Ġoperated": 12228,
  "Ġcoral": 29537,
  "ĠProducer": 30436,
  "Ġcushion": 33579,
  "Ġbisc": 36228,
  "Ġfaculty": 12829,
  "Ġfullest": 40830,
  "Ġvisa": 14552,
  "Ġwhim": 29923,
  "ĠLibyan": 28661,
  "NBA": 32470,
  "Ġclothed": 45361,
  "oubt": 47675,
  "ĠAlexandria": 27872,
  "ĠTechnology": 8987,
  "Ġresident": 6623,
  "arov": 42737,
  "Ġfunctionally": 48410,
  "Ġfutile": 35322,
  "Ġdelight": 10974,
  "edly": 49288,
  "ĠKus": 49320,
  "Snake": 49795,
  "Ġ373": 47946,
  "iz": 528,
  "utan": 37878,
  "poon": 26743,
  "Ġhomers": 38818,
  "ĠFAM": 42129,
  "Ġjog": 48342,
  "Ġdeer": 20096,
  "ĠLiberal": 12266,
  "ws": 18504,
  "orgetown": 29085,
  "Ġhen": 30963,
  "albeit": 45781,
  "Ġyarn": 21181,
  "Internet": 28566,
  "ĠHDL": 48867,
  "Ġoriginated": 20973,
  "ĠPiece": 27053,
  "Ġgenerating": 15453,
  "Ġelapsed": 42118,
  "Ġunmarked": 46791,
  "soever": 15485,
  "lves": 31018,
  "ĠInvest": 7488,
  "693": 48528,
  "arians": 13517,
  "untled": 46343,
  "relevant": 49659,
  "ĠCSI": 49911,
  "ĠPriority": 34416,
  "Dead": 20489,
  "Ġcircles": 13332,
  "DS": 5258,
  "Ġcars": 5006,
  "Ġtoast": 27805,
  "typically": 48126,
  "uffed": 18339,
  "ĠRabbi": 31807,
  "ĠWarp": 31382,
  "Ġkosher": 43951,
  "Ġwicked": 20589,
  "162": 25061,
  "Cole": 46509,
  "Ġpretend": 16614,
  "APTER": 29485,
  "Ġsugars": 34476,
  "Ġtex": 48659,
  "num": 22510,
  "Ġstabbing": 29418,
  "ĠSevent": 35734,
  "Ġconvened": 39828,
  "Ġconverts": 26161,
  "Ġkidding": 26471,
  "Ġneocons": 43530,
  "ĠYemeni": 38534,
  "Hot": 21352,
  "Ġsen": 3308,
  "Ġboom": 14166,
  "vae": 33353,
  "Ġoutside": 2354,
  "ĠMes": 14937,
  "ĠAmendments": 39169,
  "uff": 1648,
  "ĠMann": 20291,
  "Ġnotice": 4003,
  "ĠAlv": 33414,
  "ĠJol": 39329,
  "Ġnumeric": 35575,
  "ĠJet": 19013,
  "ĠTrojan": 44695,
  "Ġample": 23933,
  "Ġholster": 43604,
  "ĠIND": 24413,
  "Ġvis": 1490,
  "Ġtrapped": 13640,
  "Ġdistinguished": 18876,
  "ĠSax": 29242,
  "selage": 45217,
  "ĠHeck": 31679,
  "Ġfully": 3938,
  "Ġencro": 45121,
  "ĠTrout": 42542,
  "smoking": 48783,
  "atur": 2541,
  "Ġslit": 40724,
  "\":\"\"},{\"": 47182,
  "Ġ245": 29637,
  "Mbps": 47842,
  "un": 403,
  "itzer": 10557,
  "ĠSelf": 12189,
  "Ġclarify": 18282,
  "Ġchalk": 30860,
  "Assembly": 49670,
  "avin": 20637,
  "Initialized": 28500,
  "ĠHe": 679,
  "Ġjournalist": 10099,
  "Ġimprison": 11116,
  "ultan": 30454,
  "atorium": 30732,
  "Ġ160": 13454,
  "ĠMR": 17242,
  "atinum": 16881,
  "ĠTactical": 26984,
  "ĠVelvet": 36271,
  "Ġ282": 41810,
  "Ġcramped": 43295,
  "Ġsignify": 44078,
  "ĠEp": 4551,
  "Ġ176": 26937,
  "Ġprescriptions": 34092,
  "Ġevangelicals": 44881,
  "Ġspor": 35810,
  "jee": 34589,
  "ĠGret": 35877,
  "Ġverifying": 45505,
  "unda": 46535,
  "à¦": 48071,
  "alsa": 32058,
  "pid": 35317,
  "Ġago": 2084,
  "ĠOct": 2556,
  "ĠDeath": 5830,
  "ĠItemLevel": 34448,
  "get": 1136,
  "ĠMermaid": 45523,
  "Ġear": 1027,
  "Ġvirtue": 14675,
  "ĠPalestine": 17263,
  "Fact": 29054,
  "ĠNeander": 38752,
  "ĠASP": 34658,
  "Ġseventh": 14024,
  "ë": 167,
  "Ġoverseen": 43097,
  "ĠEt": 17906,
  "Ġshoe": 17292,
  "ĠPowell": 19675,
  "Ġprose": 27149,
  "emonium": 33044,
  "ĠPag": 31525,
  "Ġpodcasts": 31969,
  "ĠKeeper": 26335,
  "Ġinhabited": 30671,
  "yles": 24327,
  "ĠForward": 19530,
  "inic": 47277,
  "Ġmapping": 16855,
  "Ġnick": 14428,
  "ĠSy": 1632,
  "ĠBirth": 17647,
  "illard": 32681,
  "Ġdist": 1233,
  "Ġexample": 1672,
  "äºº": 21689,
  "Ġstabilize": 32411,
  "Ġgym": 11550,
  "Ġregistering": 28336,
  "rit": 799,
  "ĠAMD": 10324,
  "Ġded": 4648,
  "Ġshiny": 22441,
  "Ġsoar": 48701,
  "ĠComput": 22476,
  "uces": 26873,
  "managed": 39935,
  "Ġvanquished": 49171,
  "Ġbon": 5351,
  "Ġpossess": 8588,
  "Ġmurders": 17162,
  "Ġcivilians": 10380,
  "something": 18927,
  "blem": 11253,
  "Ġtouring": 25583,
  "ĠBrand": 13512,
  "Ġstrut": 30577,
  "uberty": 34237,
  "resh": 3447,
  "sworth": 30567,
  "Ġblocking": 12013,
  "Ġtweak": 25393,
  "Kat": 25881,
  "ĠKiss": 20350,
  "ĠNP": 28498,
  "onel": 26261,
  "Ġselfies": 45406,
  "Intern": 15865,
  "ĠBolshevik": 48789,
  "onder": 8623,
  "ĠBabylon": 28028,
  "Ġfurnace": 42227,
  "Ġç¥ŀ": 47432,
  "ĠStop": 13707,
  "Ġhopeful": 17836,
  "÷": 179,
  "ĠOp": 8670,
  "PL": 6489,
  "Ġinclude": 2291,
  "150": 8628,
  "Ġvigorously": 31609,
  "Ġacquisitions": 33683,
  "Ġcomprise": 28889,
  "iths": 47252,
  "amiya": 38241,
  "rack": 39638,
  "ACP": 33056,
  "Ġwithhold": 34224,
  "ĠBron": 8923,
  "QU": 10917,
  "423": 43356,
  "EP": 8905,
  "Ġuseless": 13894,
  "Ġsimulate": 29308,
  "Ġpot": 1787,
  "ARK": 14175,
  "Ġcoated": 30267,
  "agged": 14655,
  "owment": 36569,
  "agall": 44906,
  "ĠHuh": 45412,
  "iphany": 49915,
  "Ġdiseng": 39402,
  "Ġlounge": 31893,
  "Ġgoals": 4661,
  "rella": 20481,
  "Ġgrab": 5552,
  "ĠInstitutes": 33656,
  "Ġsigned": 4488,
  "Tile": 35103,
  "Ġbreaches": 31523,
  "Ġgathers": 43609,
  "cott": 14612,
  "Ġhindsight": 36412,
  "Iowa": 45186,
  "ĠPick": 12346,
  "Ġreverence": 40380,
  "606": 33206,
  "Ġoccurrence": 19810,
  "alpha": 26591,
  "eth": 2788,
  "orce": 8387,
  "ĠMax": 5436,
  "ĠPublishers": 43403,
  "ĠNarr": 28390,
  "ĠArkansas": 14538,
  "Ver": 13414,
  "ersion": 6900,
  "onet": 36823,
  "Ġbasil": 37792,
  "Ġmasterpiece": 30669,
  "ĠHorton": 46051,
  "ĠGener": 2980,
  "kHz": 44191,
  "inem": 7749,
  "Ġdetermined": 5295,
  "dh": 34985,
  "Ġsailing": 28499,
  "Ġ1981": 14745,
  "ried": 2228,
  "Le": 3123,
  "ĠAutom": 17406,
  "ĠFla": 22026,
  "Ġgifted": 22527,
  "Ġblight": 42514,
  "eyed": 18834,
  "brown": 33282,
  "Ġ~/.": 39763,
  "di": 10989,
  "Ġ45": 4153,
  "ĠRather": 11317,
  "Ġgenerations": 10439,
  "SO": 15821,
  "IFE": 29150,
  "Ġrunner": 17490,
  "Offline": 28657,
  "Ġanal": 2037,
  "November": 21159,
  "ĠBaptist": 21724,
  "ENC": 24181,
  "ĠThinking": 30707,
  "Rain": 31443,
  "Kill": 27100,
  "Ġfascination": 35556,
  "scenes": 28123,
  "ocard": 44412,
  "She": 3347,
  "Ġso": 523,
  "TS": 4694,
  "ĠSwitch": 14645,
  "Ġjurors": 28792,
  "Ġinsurgents": 31622,
  "ĠCi": 37685,
  "Ġanalogue": 45304,
  "rog": 3828,
  "Ġmine": 6164,
  "Ġbunch": 7684,
  "Ġsampled": 35846,
  "Ġsoftware": 3788,
  "152": 17827,
  "ĠNatasha": 41875,
  "wave": 19204,
  "ĠOscar": 15694,
  "iott": 20773,
  "Ġfend": 41229,
  "Ġinund": 43431,
  "amsung": 30136,
  "Wilson": 37349,
  "oteric": 38571,
  "ĠSpiegel": 46902,
  "Ping": 49806,
  "CLOSE": 32737,
  "ortium": 25182,
  "Ġdeport": 29489,
  "ĠFidel": 42320,
  "Ġdescribe": 6901,
  "Ð¸": 18849,
  "ĠPants": 41689,
  "ĠMathematics": 39448,
  "Ġconservation": 14903,
  "Done": 45677,
  "Ġimported": 17392,
  "ĠDowning": 31355,
  "\",": 1600,
  "ĠCiv": 47909,
  "Ġappetite": 20788,
  "Ġhoc": 39158,
  "ĠIndigo": 40673,
  "ven": 574,
  "Ġsaved": 7448,
  "Ġimprint": 29122,
  "ĠBritain": 5491,
  "Ġrobust": 12373,
  "Ġkne": 24813,
  "ĠMinisters": 36647,
  "Owner": 42419,
  "Role": 47445,
  "Ġrecognizing": 22650,
  "ĠST": 3563,
  "ĠDian": 19326,
  "Ġunsc": 28594,
  "Ctrl": 40069,
  "Ġventures": 33787,
  "undai": 44591,
  "Ex": 3109,
  "Ġexemption": 19572,
  "Ġants": 27842,
  "ĠMIL": 31515,
  "Ġchecked": 10667,
  "ntil": 10125,
  "Ġcommencement": 32609,
  "Ġpar": 1582,
  "bons": 23461,
  "even": 10197,
  "Ġwon": 1839,
  "Ġrefrigerator": 30500,
  "Ġgunned": 49474,
  "Ġgirl": 2576,
  "bee": 20963,
  "Ġclinical": 8668,
  "ĠShade": 48747,
  "Ġborrowing": 23669,
  "Ġfavour": 7075,
  "Ġfair": 3148,
  "iane": 46470,
  "bara": 39389,
  "Ġpeas": 22589,
  "ĠFischer": 30901,
  "Agent": 36772,
  "ĠEssex": 38307,
  "1971": 41208,
  "Gb": 49017,
  "ĠOb": 1835,
  "Ġinterrogated": 49473,
  "ĠGoes": 31914,
  "Ġ361": 47744,
  "ĠSophia": 39953,
  "democratic": 41232,
  "examination": 47779,
  "ihu": 48406,
  "Ġrunes": 32326,
  "ĠAPR": 40410,
  "ĠMitch": 20472,
  "Ġdrive": 3708,
  "ĠBened": 25660,
  "bishop": 27832,
  "ternity": 19682,
  "Ġascertain": 35520,
  "Ġdeteriorating": 43229,
  "673": 45758,
  "erous": 48411,
  "Ġmunitions": 39586,
  "ĠMoroccan": 49323,
  "ĠPres": 1763,
  "its": 896,
  "ĠAlright": 40967,
  "ĠSEA": 41067,
  "ĠOral": 42222,
  "Ġcorpse": 21304,
  "True": 17821,
  "ĠScene": 28315,
  "players": 32399,
  "ĠLarge": 13601,
  "ĠCitizens": 18029,
  "ĠMorty": 30395,
  "zech": 15356,
  "Ġhatch": 25834,
  "Ġkills": 12847,
  "Details": 24259,
  "Ġsyll": 27226,
  "ĠPeace": 12689,
  "Ġbarely": 8523,
  "Ġmorp": 38837,
  "Ġmort": 5596,
  "Ġlatter": 6846,
  "Ġslavery": 13503,
  "Ġapprox": 5561,
  "udding": 33926,
  "ĠDN": 45080,
  "erest": 1260,
  "Ġranking": 12759,
  "ĠResources": 13864,
  "Ñģ": 21727,
  "Ġscalp": 39287,
  "ĠSet": 5345,
  "nesium": 27619,
  "âĸ": 5008,
  "Multi": 29800,
  "runs": 48381,
  "ĠJiu": 42310,
  "ĠAdviser": 47661,
  "Ġmartyr": 28009,
  "Loop": 39516,
  "Ġunus": 7242,
  "ideos": 4921,
  "Ġshore": 15191,
  "Ġ750": 19683,
  "Ġspr": 7500,
  "Ġimplicitly": 31821,
  "Ġmanifests": 42190,
  "bidden": 37978,
  "Ġactiv": 1753,
  "Ġsimultane": 10108,
  "ĠWalter": 15819,
  "Ġculprit": 26581,
  "iatures": 42711,
  "Ġlifts": 27103,
  "Ġsuperheroes": 40896,
  "Ġecology": 36517,
  "Ġmint": 21043,
  "Ġestranged": 44585,
  "Ġmysterious": 11428,
  "Ġarr": 5240,
  "ĠRadeon": 13082,
  "Ġarchitect": 7068,
  "iets": 27955,
  "Ġentered": 5982,
  "Ġpig": 12967,
  "ĠRevenue": 20197,
  "ĠFarrell": 37568,
  "styles": 47720,
  "ĠThat": 1320,
  "ãĥĬ": 26229,
  "DON": 41173,
  "ams": 4105,
  "aundering": 23496,
  "ĠLavrov": 43991,
  "ĠTerminal": 24523,
  "ĠPercent": 22512,
  "ĠDeep": 10766,
  "Ġdeposition": 32553,
  "Ġpsychology": 15119,
  "ovic": 17215,
  "apsed": 28361,
  "ĠEngine": 7117,
  "Naz": 37235,
  "Ros": 35740,
  "ĠReboot": 50204,
  "ĠHayes": 25109,
  "âĢ¦âĢ¦": 7398,
  "Ġbuffs": 34636,
  "ĠCasey": 21097,
  "Ġsuppression": 22711,
  "osh": 3768,
  "Ġ777": 35534,
  "Leg": 11484,
  "ĠWhether": 10127,
  "Ġ44": 5846,
  "Ġresolution": 6323,
  "Ġoffending": 30810,
  "ISTORY": 42480,
  "Ġsto": 3995,
  "afe": 8635,
  "Job": 33308,
  "xual": 5541,
  "Ġ99": 7388,
  "oultry": 30056,
  "Ġcurrent": 1459,
  "ĠMetatron": 38894,
  "Ġ193": 29691,
  "ĠKemp": 44198,
  "614": 46841,
  "Ġideas": 4213,
  "ĠMacintosh": 48087,
  "ĠBaseball": 17362,
  "Ġdb": 20613,
  "ĠAbel": 42474,
  "ĠTw": 1815,
  "ĠAssange": 21882,
  "echo": 30328,
  "aliation": 22885,
  "Ġparadise": 31354,
  "Ġpreclude": 44125,
  "ĠSit": 21131,
  "Ġmotors": 24699,
  "Ġtons": 10860,
  "INS": 20913,
  "Ġincapac": 38533,
  "Ġtrapping": 43338,
  "raised": 49309,
  "ĠNine": 16431,
  "rob": 22609,
  "ĠDowns": 49618,
  "ĠCountries": 34906,
  "Ġhandcuffs": 44473,
  "Ġcorresponds": 24866,
  "Ġpresidential": 4787,
  "ĠRuth": 22132,
  "Ġrelate": 15124,
  "Ġstricter": 36602,
  "Ġbeat": 4405,
  "Ġsoda": 20584,
  "ĠBarker": 36933,
  "Ġdebtor": 49519,
  "Ġwarmer": 23254,
  "acers": 49908,
  "ogly": 34619,
  "Ġgreatness": 27951,
  "forward": 11813,
  "oor": 2675,
  "ilia": 17517,
  "Ġwarning": 6509,
  "ĠChandra": 46295,
  "]]": 11907,
  "âĢ³": 12237,
  "Ġmanually": 14500,
  "Ġvegetation": 28459,
  "sound": 23661,
  "ĠHercules": 32795,
  "ĠSophie": 35331,
  "otation": 14221,
  "ĠOklahoma": 10433,
  "Yang": 38663,
  "Ġraining": 43079,
  "Ġilluminating": 46717,
  "alling": 9221,
  "fires": 27312,
  "SR": 12562,
  "Ġ[\"": 14631,
  "ĠMaking": 16427,
  "Ġquirky": 37276,
  "icas": 44645,
  "Ġcertain": 1728,
  "Ġfloor": 4314,
  "ojure": 32511,
  "AB": 6242,
  "Ġpt": 42975,
  "Ġsubscribed": 45794,
  "Ġconceal": 21363,
  "Ġgunfire": 29276,
  "Ġangular": 32558,
  "Ġpowerfully": 48745,
  "computer": 33215,
  "ĠAnt": 3738,
  "Ġswarm": 30077,
  "ĠMemories": 32923,
  "Ġsay": 910,
  "Ġdelivery": 7585,
  "Ġairline": 18091,
  "25": 1495,
  "Ġlic": 3476,
  "Spe": 5248,
  "ĠAcid": 27066,
  "Forest": 34605,
  "Org": 46808,
  "Ġexamines": 28025,
  "ãģ«": 28618,
  "Ġgu": 915,
  "append": 33295,
  "Ġprevention": 14196,
  "cdn": 32341,
  "Ġtelecom": 30452,
  "ĠIrma": 41224,
  "ĠRousse": 42849,
  "ĠMayweather": 38718,
  "ĠKats": 47244,
  "es": 274,
  "Ġtribes": 15663,
  "types": 19199,
  "ĠKag": 26785,
  "Ġamendments": 17835,
  "CTV": 30428,
  "Ġcollection": 4947,
  "aqu": 36129,
  "ĠNRA": 23962,
  "ĠZika": 30861,
  "ĠEnough": 31779,
  "ĠAvenue": 8878,
  "ĠStir": 33689,
  "ĠSweden": 10710,
  "Standard": 23615,
  "ĠShi": 16380,
  "mal": 7617,
  "ardi": 22490,
  "Medical": 37158,
  "ĠCardiff": 34910,
  "ĠWarm": 25692,
  "Show": 15307,
  "Ġencourage": 7898,
  "cend": 15695,
  "mp": 3149,
  "ĠEuropean": 3427,
  "igm": 17225,
  "recorded": 47398,
  "Ġbusinessman": 19834,
  "Ġinclud": 846,
  "Ġproficient": 39318,
  "ĠInterpret": 48907,
  "qual": 13255,
  "Ġcloud": 6279,
  "Ġintimidating": 29301,
  "CLE": 29931,
  "Ġresin": 36536,
  "Ġcommunion": 41419,
  "Ġpick": 2298,
  "Ġcam": 12172,
  "291": 33551,
  "Ġdark": 3223,
  "ĠAir": 3701,
  "opter": 32563,
  "Ġinto": 656,
  "Ġhinder": 34541,
  "Ġbearer": 49508,
  "ĠSenior": 14017,
  "uits": 15379,
  "Ġmom": 1995,
  "ĠBridgewater": 48218,
  "Preview": 48835,
  "Ġpatrons": 25720,
  "ĠInterstellar": 49041,
  "Ġstrapped": 37625,
  "Upload": 41592,
  "641": 42759,
  "erving": 14344,
  "Ġreaching": 8978,
  "lov": 27086,
  "ĠElectro": 38781,
  "odon": 46457,
  "ĠJarrett": 48654,
  "ĠThro": 47854,
  "Ġrevolutions": 37888,
  "Ġsubstitution": 32097,
  "Ġcenters": 10399,
  "ĠMcCarthy": 18751,
  "Ġtouch": 3638,
  "allows": 47205,
  "TPPStreamerBot": 37579,
  "DK": 48510,
  "Ġche": 1125,
  "Ġcontinuously": 17282,
  "ĠDame": 20377,
  "Ġtomb": 22234,
  "pps": 41799,
  "ophile": 37161,
  "ĠSloan": 43066,
  "ĠGuerrero": 49002,
  "Ġflashlight": 38371,
  "ĠManager": 9142,
  "ĠUNHCR": 49558,
  "ĠLansing": 49860,
  "bart": 16575,
  "ĠDiablo": 31452,
  "uu": 12303,
  "Ġ2014": 1946,
  "Ġsleeping": 11029,
  "Ġtrees": 7150,
  "ĠAqu": 11446,
  "Ġcurrency": 7395,
  "economic": 17079,
  "important": 18049,
  "Ġanswered": 9373,
  "Ke": 8896,
  "Ġaugment": 35016,
  "pers": 19276,
  "ĠKau": 28148,
  "Ġ610": 44300,
  "Ġ502": 47233,
  "eering": 48066,
  "Ġbash": 27334,
  "<": 27,
  "OR": 1581,
  "ĠFlor": 4432,
  "acy": 1590,
  "ĠMoon": 6869,
  "Ġ43": 5946,
  "Ġlasting": 15727,
  "ĠDre": 30882,
  "exp": 11201,
  "Motor": 34919,
  "656": 37466,
  "establish": 40037,
  "governmental": 31353,
  "Ġtoxin": 43026,
  "Ġnon": 1729,
  "Ġepisodes": 8640,
  "Ġreload": 18126,
  "Ġanticip": 8462,
  "Ġhypert": 32608,
  "Ġresize": 47558,
  "hell": 12758,
  "Ġuninterrupted": 49471,
  "Ġbott": 3005,
  "ĠMaxwell": 28276,
  "ossom": 25548,
  "yton": 31616,
  "DJ": 35028,
  "Ġtrumpet": 40334,
  "Dep": 12156,
  "hani": 29839,
  "Ġblood": 2910,
  "prop": 22930,
  "Ġrobber": 29979,
  "Ġpassages": 22674,
  "ĠKeynes": 33531,
  "idine": 39422,
  "Boost": 45686,
  "Ġaggregation": 46500,
  "ĠShort": 10073,
  "Ġunbel": 17491,
  "**": 1174,
  "Ġrequire": 2421,
  "ĠMont": 5575,
  "Ġsubsequ": 6399,
  "ĠColomb": 16872,
  "ĠCasino": 32802,
  "virtual": 32844,
  "Ġsurvival": 9441,
  "ĠCert": 14965,
  "Ġmysteriously": 42529,
  "ĠYounger": 45174,
  "Ġceilings": 45926,
  "Rather": 27202,
  "Ġwhatsoever": 16014,
  "Ġreinforces": 41125,
  "Ġeast": 7627,
  "Ġweap": 2432,
  "Ġyounger": 7099,
  "Throughout": 26797,
  "ĠTurning": 36143,
  "rier": 5277,
  "emphasis": 36663,
  "Ġputs": 7584,
  "ĠRiley": 22637,
  "ossal": 33582,
  "WIN": 37620,
  "Brand": 38416,
  "Ġthirty": 12277,
  "Ġbelly": 19921,
  "ĠMessenger": 24306,
  "Ġconstants": 38491,
  "qua": 39566,
  "Ġpc": 40653,
  "ĠExxon": 27879,
  "Ġstamina": 32312,
  "Ġunderrated": 42308,
  "usercontent": 43667,
  "mable": 44102,
  "Ġ-=": 48185,
  "ĠAval": 23587,
  "Ġfilmmaking": 49291,
  "ĠYou": 921,
  "page": 7700,
  "ĠWarlock": 34787,
  "Ġ158": 24063,
  "Ġtendency": 13542,
  "ĠPinball": 37010,
  "vre": 43933,
  "Haunted": 46979,
  "Ġbehest": 49672,
  "Ġg": 308,
  "Ġmanipulating": 29349,
  "Ġcumbers": 44392,
  "ĠKits": 40297,
  "Ġdeaf": 21815,
  "+.": 27613,
  "ĠBur": 5481,
  "ĠImper": 28185,
  "ĠVotes": 39584,
  "agame": 46746,
  "Ġinsult": 13277,
  "hesion": 32582,
  "ĠHIS": 33700,
  "ĠSerpent": 30177,
  "ridden": 40372,
  "orks": 3647,
  "Ġinf": 1167,
  "Ġcollar": 19908,
  "Desktop": 36881,
  "hap": 45897,
  "Ġrelating": 11270,
  "Ġvictory": 5373,
  "iculty": 22402,
  "Playing": 36530,
  "Balt": 41312,
  "ĠPope": 13258,
  "owe": 47097,
  "Ġcuff": 47291,
  "living": 19950,
  "OUNT": 28270,
  "Ġmatrix": 17593,
  "Ġflour": 10601,
  "ĠHawaii": 13708,
  "ched": 1740,
  "Ġclassified": 10090,
  "Ġjurisdictions": 25281,
  "ĠSalem": 31988,
  "Ġpremie": 33050,
  "93": 6052,
  "Ins": 20376,
  "Ġasking": 4737,
  "Ġsimplest": 24043,
  "åĽ": 32368,
  "Ġfonts": 26806,
  "Ġfifth": 8150,
  "ĠNath": 32607,
  "Ġsharing": 7373,
  "ĠRou": 13876,
  "Ġprecise": 7141,
  "Ġchoking": 39302,
  "itamin": 40746,
  "ĠFree": 3232,
  "Ġteenagers": 17366,
  "Ġunrem": 49733,
  "032": 49959,
  "Ġ1908": 40417,
  "996": 38565,
  "Ġpunct": 21025,
  "Gamer": 33648,
  "Saint": 48615,
  "Style": 21466,
  "ĠLeilan": 50216,
  "Ġmoisture": 20160,
  "ĠAnswers": 42612,
  "Ġrye": 47553,
  "Active": 13739,
  "ĠMG": 34809,
  "ĠPharaoh": 42697,
  "Ġexceptionally": 24822,
  "hua": 33061,
  "Access": 15457,
  "ĠVern": 23092,
  "ĠOlive": 30012,
  "ĠPrep": 19141,
  "ma": 2611,
  "Ġdish": 9433,
  "Ġ341": 43155,
  "Ġsterling": 46499,
  "riz": 47847,
  "Ġconsensus": 11529,
  "modern": 23922,
  "Ġcondoms": 33298,
  "enemy": 46970,
  "ĠAst": 8304,
  "Ġtying": 28379,
  "Ġhavoc": 29860,
  "ARGET": 46095,
  "crete": 38669,
  "ONES": 39677,
  "z": 89,
  "Ġsupporters": 5941,
  "ility": 879,
  "Ġvent": 7435,
  "Ġmerely": 6974,
  "ĠVenus": 21094,
  "ĠEn": 2039,
  "Af": 17584,
  "ĠCOUR": 37384,
  "RANT": 32506,
  "384": 22842,
  "emark": 47626,
  "Bright": 41267,
  "Ġschools": 4266,
  "ĠLethal": 47281,
  "ĠAzerb": 29740,
  "ĠPenal": 42836,
  "helial": 35566,
  "rehensible": 34718,
  "Ġcoordin": 11385,
  "ĠExpl": 5905,
  "iar": 12571,
  "ĠCelest": 47245,
  "????": 9805,
  "ĠBerman": 43859,
  "Ġconsumer": 7172,
  "Ġcrafting": 21671,
  "ĠCosponsors": 41868,
  "Ġcynicism": 49509,
  "ĠKing": 2677,
  "Collins": 49645,
  "FFFF": 29312,
  "ĕ": 209,
  "Ġcleaning": 12724,
  "ĠLooking": 15616,
  "ĠProsecutor": 37478,
  "Ġspins": 37621,
  "ĠHO": 40115,
  "Comp": 7293,
  "Ġaudiences": 15579,
  "Ġgenetics": 25862,
  "ĠVPN": 21669,
  "ĠTorrent": 43399,
  "Ġdistinct": 7310,
  "ĠRodgers": 19947,
  "Ġsupplying": 28099,
  "ĠLoki": 31771,
  "Ġ314": 34085,
  "Ġcubes": 34896,
  "Jump": 36046,
  "scl": 38528,
  "books": 12106,
  "535": 44465,
  "arten": 23996,
  "byter": 36204,
  "Ġchlorine": 43107,
  "ĠSTEP": 49154,
  "ĠBerm": 36967,
  "stead": 28044,
  "ĠAmbro": 43233,
  "Ã©e": 22161,
  "ĠIsles": 36217,
  "Ġincarnation": 29185,
  "Ġvert": 9421,
  "Ġwebs": 2639,
  "Ġdrains": 44368,
  "ĠOmar": 24980,
  "Ġunified": 22706,
  "lectic": 42009,
  "ãĢĤ": 16764,
  "Ġshallow": 19337,
  "Ġ174": 27621,
  "ĠWent": 29866,
  "NB": 32819,
  "ĠSaddam": 24277,
  "ĠBlackBerry": 30845,
  "ĠGenie": 49405,
  "ĠAndrew": 6858,
  "ĠDefinition": 30396,
  "onential": 35470,
  "oni": 14651,
  "Ġspill": 19431,
  "Ġremark": 6919,
  "Ġdod": 20764,
  "ĠJong": 17960,
  "Ġdagger": 31322,
  "Ġand": 290,
  "Ġfence": 13990,
  "anne": 21952,
  "ARM": 33456,
  "Ġrestaurant": 7072,
  "ĠEmily": 17608,
  "reb": 34806,
  "482": 40149,
  "atching": 19775,
  "Ġdefinitive": 17347,
  "Ġstronghold": 32753,
  "Ġsamples": 8405,
  "Ġreiterated": 27116,
  "PROV": 41283,
  "ĠRacing": 14954,
  "Ġlever": 17124,
  "ĠHayward": 41960,
  "Ġfra": 5306,
  "Ġesteem": 42213,
  "Ġcontract": 2775,
  "Ġtoss": 12153,
  "truth": 35310,
  "ĠCherokee": 39476,
  "Ġprec": 3718,
  "Ġtours": 21284,
  "Ġwife": 3656,
  "ga": 4908,
  "ĠSpy": 23688,
  "Ġsurvives": 36417,
  "Appearance": 48231,
  "Ġdopamine": 26252,
  "ä½": 19526,
  "odo": 24313,
  "Ġinherit": 16955,
  "ĠYen": 47028,
  "Ġtele": 5735,
  "Ġversatility": 31689,
  "ĠWolfgang": 48566,
  "16": 1433,
  "Ġunworthy": 49284,
  "Ġsteam": 13324,
  "comp": 5589,
  "Ġpatronage": 49753,
  "Ġhour": 1711,
  "Ġviewing": 11681,
  "ĠMerchant": 33508,
  "ĠIgor": 46157,
  "Ġalgorithms": 16113,
  "HOU": 46685,
  "Ġmmol": 47340,
  "ĠLeopard": 49072,
  "Ġmanga": 15911,
  "ink": 676,
  "agu": 11433,
  "ĠLegs": 49379,
  "Ġcontinuing": 8282,
  "Ġevenings": 37119,
  "Mods": 24239,
  "($": 16763,
  "ĠC": 327,
  "ĠHis": 2399,
  "Ġman": 582,
  "ĠLone": 23405,
  "ply": 2145,
  "Ġneut": 22190,
  "Ġtrademarks": 27346,
  "windows": 28457,
  "ĠSpiel": 34841,
  "Ġimproves": 19575,
  "Ġimmortal": 26156,
  "Ġinvariably": 31338,
  "Ġtradem": 12677,
  "Ġconsequences": 6948,
  "443": 34938,
  "Ġrocked": 36872,
  "Ġ!!": 37867,
  "roma": 42902,
  "Ġattest": 44477,
  "ĠCompton": 47062,
  "Across": 40553,
  "vp": 36133,
  "fix": 13049,
  "King": 15708,
  "Ġexplosives": 20732,
  "ĠOutside": 22151,
  "igning": 38944,
  "444": 30272,
  "ĠEddie": 19478,
  "Ġ9": 860,
  "ĠZoom": 40305,
  "inelli": 44076,
  "Ġsophistication": 44809,
  "acements": 28613,
  "itan": 18642,
  "ĠFirefly": 40374,
  "####": 4242,
  "ĠBirds": 27124,
  "Ġlod": 19527,
  "Ġlayers": 11685,
  "ãĥĩãĤ£": 40629,
  "Ġforeskin": 49877,
  "ahah": 36225,
  "Ġgift": 6979,
  "Ġâĸł": 34252,
  "ĠStock": 10500,
  "ĠHuang": 31663,
  "Church": 46686,
  "Ġindemn": 47846,
  "Ġideology": 12959,
  "ĠLovecraft": 37655,
  "PT": 11571,
  "âĸĪâĸĪâĸĪâĸĪ": 20503,
  "Ġdistribute": 14983,
  "Ġfinite": 27454,
  "n": 77,
  "ĠKling": 28638,
  "ĠFriday": 3217,
  "Ġuncond": 31776,
  "Ġlodging": 42906,
  "ĠSpl": 13341,
  "vance": 19259,
  "Â½": 23141,
  "ĠCrane": 38376,
  "Ġbalk": 48776,
  "ĠPrices": 29431,
  "\"]": 8973,
  "assian": 46091,
  "MQ": 49215,
  "ĠBase": 7308,
  "geons": 16297,
  "ammed": 10573,
  "Repe": 47541,
  "Ġspectacle": 27519,
  "Ġinvoked": 24399,
  "UGC": 31179,
  "asca": 42688,
  "Ġrepet": 46152,
  "Ġ1880": 34865,
  "Ġsorted": 23243,
  "Ġ178": 27368,
  "poor": 36672,
  "Ġmachinery": 20230,
  "ĠArrows": 43946,
  "Ġs": 264,
  "ĠIndividual": 18629,
  "ENS": 16938,
  "Ġmoist": 13394,
  "ĠColonel": 21636,
  "Ġ196": 28817,
  "sat": 49720,
  "ĠLyn": 10350,
  "bole": 45693,
  "acus": 48628,
  "Thanks": 9690,
  "1996": 22288,
  "Ġdrives": 10182,
  "ancing": 5077,
  "ĠCats": 28997,
  "ĠPresence": 46523,
  "Ġensures": 19047,
  "riages": 16451,
  "Ġpositioning": 22097,
  "Sus": 30746,
  "ublic": 841,
  "eworld": 38136,
  "ological": 2770,
  "ĠEgyptians": 32658,
  "Ġsunrise": 40048,
  "luck": 46708,
  "ighters": 6261,
  "Ġbreaking": 7163,
  "imer": 22723,
  "Ġbell": 8966,
  "pring": 12667,
  "Ġcounting": 14143,
  "Ġmainland": 22779,
  "Ġspouses": 30250,
  "ĠEnabled": 37344,
  "rising": 22610,
  "ĠNT": 24563,
  "Ġbookmark": 44007,
  "://": 1378,
  "Ġarriving": 14820,
  "ĠPulitzer": 44127,
  "amph": 28474,
  "ĠSpringfield": 27874,
  "Z": 57,
  "105": 13348,
  "ĠHindus": 33735,
  "Another": 6610,
  "ĠDirty": 32052,
  "Ġcounties": 14683,
  "Ġmeshes": 48754,
  "ĠSil": 4243,
  "CS": 7902,
  "ORK": 14670,
  "ĠCyber": 15101,
  "Ġmerchant": 20729,
  "ĠJonas": 40458,
  "iana": 7484,
  "Ġleaked": 14109,
  "ĠCandle": 44973,
  "Ġwal": 6514,
  "ĠSneak": 49475,
  "fried": 25520,
  "ĠVis": 6911,
  "ĠGarden": 11652,
  "Labor": 42230,
  "ĠStrauss": 42971,
  "ĠUniv": 40429,
  "ĠSubmission": 42641,
  "Ġsore": 19597,
  "Ġaftermath": 16280,
  "Ġaspir": 18808,
  "Ġpublish": 7715,
  "ĠMatt": 4705,
  "Ġauthent": 8323,
  "ĠStories": 18152,
  "Ġguiding": 26727,
  "Ġ1938": 28017,
  "Ġinteracts": 44020,
  "Ġchancellor": 30006,
  "Sand": 18471,
  "ĠBlues": 15261,
  "Ġperipheral": 25514,
  "ĠMos": 5826,
  "Ġgraded": 44545,
  "Ġbiotech": 47693,
  "Ġsnaps": 23429,
  "Ġdeviations": 47060,
  "ĠClause": 28081,
  "deep": 22089,
  "TIT": 49560,
  "Ġhighways": 27239,
  "ĠBasin": 32666,
  "Ġthroat": 13589,
  "Ġbroader": 11622,
  "ĠBenson": 33940,
  "Ġ||": 8614,
  "ĠGH": 24739,
  "ĠFeatures": 17571,
  "Ġassembly": 10474,
  "reck": 11402,
  "ĠMew": 36010,
  "itivity": 11365,
  "ĠFlyers": 30652,
  "Ġexhib": 7316,
  "ĠCont": 2345,
  "Ġgit": 17606,
  "ĠAviv": 28890,
  "Ġworrisome": 48367,
  "Ġsmokers": 24109,
  "ĠBaghd": 18706,
  "Ġfolded": 24650,
  "ĠTroll": 28037,
  "Ġjoins": 15449,
  "anuts": 37555,
  "Kim": 26374,
  "ĠKart": 32872,
  "ĠactionGroup": 34027,
  "185": 21652,
  "ĠBoy": 6387,
  "803": 43564,
  "stone": 6440,
  "Rem": 8413,
  "eal": 2287,
  "330": 26073,
  "240": 16102,
  "amon": 16487,
  "Ġbuilding": 2615,
  "Ġharmful": 13568,
  "verning": 13974,
  "Ġsuperf": 21176,
  "ĠDancing": 31799,
  "umbered": 26584,
  "Ġvariations": 13991,
  "Scan": 33351,
  "322": 37283,
  "inoa": 40564,
  "Ġmurky": 39574,
  "ĠBa": 8999,
  "rar": 20040,
  "023": 45310,
  "ĠDefinitive": 46634,
  "ĠBoh": 44366,
  "ĠRumble": 42888,
  "Ġexhibit": 15866,
  "threat": 19971,
  "Ġechoes": 30346,
  "Ġpuppies": 37793,
  "Ġenriched": 35601,
  "Ġloaf": 40134,
  "aday": 43593,
  "sha": 26270,
  "Ġinst": 916,
  "Ġlegacy": 10655,
  "Watch": 10723,
  "Ġdeclaring": 18684,
  "ĠAla": 42682,
  "Ġexposed": 7362,
  "ĠCasual": 43508,
  "Ġheat": 4894,
  "Ġnow": 783,
  "amate": 36754,
  "ĠNim": 27168,
  "ĠYog": 31604,
  "Ġbluntly": 44514,
  "Ġdecap": 44736,
  "mingham": 17737,
  "ĠEmpires": 35102,
  "Ġsaving": 8914,
  "Ġpornographic": 47642,
  "Ġquestioning": 14085,
  "ĠAF": 12341,
  "Ġcontra": 25736,
  "Social": 20636,
  "urious": 16421,
  "ĠObserver": 27058,
  "Ġnationality": 29835,
  "Ġattends": 32743,
  "Ġcells": 4778,
  "AC": 2246,
  "Political": 35443,
  "Ġdwind": 30692,
  "Ġtoward": 3812,
  "Ġlob": 6804,
  "ressing": 11697,
  "Ġdrainage": 37664,
  "Ġqueens": 38771,
  "ĠEmerson": 41886,
  "Ġphysical": 3518,
  "Ġcorrelation": 16096,
  "Ġletter": 3850,
  "ĠVaults": 21314,
  "Ġbooted": 48696,
  "reality": 46290,
  "=#": 46249,
  "Ġwarped": 43062,
  "VOL": 44558,
  "Ġobnoxious": 43283,
  "Ġsubsection": 8371,
  "ĠJudiciary": 22351,
  "ĠUE": 27595,
  "Ġclassy": 48486,
  "ĠSchumer": 26107,
  "estation": 27364,
  "ĠCONTROL": 49833,
  "Ġmutants": 39456,
  "ido": 17305,
  "Ġlistener": 24783,
  "Ġpad": 14841,
  "ĠSheikh": 30843,
  "Ġenz": 26365,
  "ĠER": 13793,
  "Ġstarters": 19896,
  "Ġgrenade": 26168,
  "Ġpubs": 46972,
  "Ġfactor": 5766,
  "Ġspur": 26724,
  "Ġovarian": 45546,
  "Ġmodernization": 49400,
  "gc": 36484,
  "Ġimmune": 10900,
  "Ġdro": 3102,
  "Ġhttps": 3740,
  "ĠAux": 47105,
  "argo": 9448,
  "y": 88,
  "Ġsmallest": 18197,
  "Ġslots": 17314,
  "Ġemployer": 9749,
  "Ġadhere": 26325,
  "Listen": 23061,
  "App": 4677,
  "Ġuphold": 24963,
  "Ġcounter": 3753,
  "Attribute": 33682,
  "Ġevolved": 12572,
  "ĠTun": 13932,
  "Ġvisuals": 27329,
  "armed": 12026,
  "Ġ9000": 50138,
  "ĠMountains": 21124,
  "ĠClever": 42486,
  "Ġstreetcar": 49552,
  "Ġshorth": 39147,
  "Ġmotor": 5584,
  "Wow": 22017,
  "Ġfals": 27807,
  "MK": 33907,
  "Ġrepeatedly": 7830,
  "Thumbnail": 35523,
  "och": 5374,
  "ners": 2741,
  "Ġclaim": 1624,
  "Ġargued": 7189,
  "Ġhero": 4293,
  "Ġsign": 1051,
  "age": 496,
  "Ã±": 12654,
  "ctive": 14070,
  "ĠCherry": 23165,
  ".......": 25780,
  "417": 38547,
  "ĠWaiting": 39669,
  "Ġwelcomed": 15846,
  "ĠColumn": 29201,
  "Ġvitamin": 14411,
  "ãĥ¼ãĤ¯": 42869,
  "615": 47007,
  "amia": 49442,
  "Ġdeparted": 24057,
  "ĠSebast": 22787,
  "ĠFB": 13186,
  "Ġmonument": 17757,
  "Ġinternationally": 19765,
  "ĠSau": 23167,
  "ĠMoss": 19935,
  "ĠHolt": 28330,
  "466": 42199,
  "Ġreiter": 19291,
  "birds": 32002,
  "Ġcompletion": 11939,
  "rown": 2053,
  "print": 4798,
  "Ġsilhou": 33123,
  "emp": 45787,
  "reach": 16250,
  "seed": 28826,
  "Ġplanting": 26630,
  "gap": 43554,
  "Ġrecoil": 30476,
  "Ġvulner": 6222,
  "Ġaqu": 14839,
  "Late": 26302,
  "field": 3245,
  "Ġsupported": 4855,
  "Ġbureau": 10583,
  "Ġassumed": 9672,
  "ifles": 16063,
  "ĠReid": 16095,
  "Score": 26595,
  "ĠWatts": 27555,
  "Get": 3855,
  "Ġadequ": 9939,
  "lich": 33467,
  "heon": 37060,
  "Amy": 40797,
  "atonin": 44248,
  ".):": 47308,
  "Ġfacing": 6476,
  "ĠIro": 47927,
  "Ġfacult": 45101,
  "ĠSent": 11352,
  "Ġenc": 2207,
  "Ly": 31633,
  "Ġbroadband": 18729,
  "Ġemit": 27588,
  "uration": 3924,
  "Ġpulling": 10427,
  "panel": 35330,
  "ĠRacial": 42318,
  "ĠTHEM": 44788,
  "ĠHolocaust": 18661,
  "Ġheard": 2982,
  "ãĥĪ": 13298,
  "ĠSherman": 23198,
  "nis": 21361,
  "ĠCay": 28335,
  "gamer": 36515,
  "atical": 39056,
  "Ġlaughs": 22051,
  "Ġbody": 1767,
  "ĠDiss": 35305,
  "ample": 1403,
  "Ġshuts": 44854,
  "unky": 28898,
  "Ġfanatic": 43631,
  "jection": 29192,
  "Ġsweets": 42402,
  "LD": 11163,
  "Ġbrewed": 40163,
  "Ġhur": 6990,
  "Ġmitochond": 25387,
  "girlfriend": 45189,
  "fold": 11379,
  "ĠSpurs": 18353,
  "Ġregenerate": 43519,
  "ãĥĨãĤ£": 44431,
  "Č": 200,
  "ĠFourth": 15692,
  "Ġglutamate": 48402,
  "Ġteachings": 19564,
  "ĠKeystone": 29055,
  "eric": 35626,
  "Ġpaternity": 50064,
  "ĠOnline": 7467,
  "Tool": 25391,
  "ĠMPH": 43822,
  "ĠCarn": 19659,
  "GROUP": 46846,
  "ĠTE": 13368,
  "audio": 24051,
  "Ġdrank": 24070,
  "ĠBrooke": 46459,
  "%);": 49563,
  "LAN": 25697,
  "ction": 596,
  "Ġelectrom": 26629,
  "ĠâĶľ": 33468,
  "ĠMiller": 7920,
  "future": 37443,
  "ĠSasha": 32151,
  "ĠIter": 40806,
  "Crash": 47598,
  "igh": 394,
  "breaking": 13395,
  "Ġproportions": 23250,
  "Ġtheatre": 21421,
  "Ġlooph": 24307,
  "ĠParam": 25139,
  "Ġsocietal": 26877,
  "Ġ4090": 48908,
  "ĠÃľ": 49363,
  "Ġfps": 32977,
  "ĠDeals": 38299,
  "Ġlegitimately": 36491,
  "Ġeveryone": 2506,
  "inations": 7352,
  "Ġcoupon": 34990,
  "574": 46900,
  "NR": 24723,
  "765": 29143,
  "ront": 4298,
  "Ġtoken": 11241,
  "bad": 14774,
  "Ret": 9781,
  "ĠChloe": 29476,
  "genre": 35850,
  "ĠBishop": 16559,
  "ĠGreenberg": 46702,
  "Ġpolitical": 1964,
  "Ġpenn": 22429,
  "ĠMLS": 13981,
  "Rad": 15546,
  "Ġrandom": 4738,
  "Ġlets": 8781,
  "Ġappreciation": 19163,
  "Ġlasts": 20374,
  "ĠPaste": 23517,
  "UTE": 37780,
  "Ġrebirth": 43446,
  "Ġdimin": 12110,
  "Ġwhe": 483,
  "ĠTwain": 49824,
  "ĠSafari": 23298,
  "anton": 23026,
  "Ġmamm": 13418,
  "ĠKR": 29430,
  "idis": 29207,
  "ĠLAPD": 44776,
  "Ġexcitement": 14067,
  "ractions": 37810,
  "MENTS": 28957,
  "Ġadvocacy": 15364,
  "remove": 28956,
  "358": 31128,
  "Recommended": 36171,
  "Ġsoftened": 41534,
  "Ġjour": 30068,
  "Ġtearing": 24447,
  "Ġsurvived": 11803,
  "ĠNOTICE": 28536,
  "Ġgluc": 14182,
  "Ġdiff": 814,
  "///": 20379,
  "olkien": 31052,
  "Ġcastle": 16669,
  "ĠChandler": 28346,
  "Ġnet": 2010,
  "ĠNi": 11556,
  "Ġcasino": 21507,
  "ĠSeed": 23262,
  "ĠCrist": 24568,
  "henko": 30161,
  "998": 34808,
  "uated": 6605,
  "escription": 7260,
  "Ġ<": 1279,
  "izational": 22684,
  "Ġwaterproof": 35158,
  "ĠMald": 37490,
  "Ġregrets": 30090,
  "whatever": 39664,
  "Ġhopped": 45230,
  "Ġ347": 43292,
  "Ġ41": 6073,
  "Ġidentifies": 21079,
  "ĠHolder": 24210,
  "Ġfrontier": 27580,
  "Ġcompressor": 49395,
  "Ġdisgr": 19329,
  "ĠMusk": 20119,
  "ĠDil": 29328,
  "Ġinformants": 50254,
  "Ġobservable": 42550,
  "ĠHighest": 41864,
  "ĠHD": 5572,
  "ĠJoint": 16798,
  "lean": 13087,
  "Ġgiants": 20178,
  "ĠArtemis": 36137,
  "Ġtimetable": 40021,
  "Ġeb": 36649,
  "Italian": 45696,
  "Ġbribes": 39926,
  "mand": 22249,
  "ĠDeadpool": 40448,
  "Ġprope": 44408,
  "Nearly": 27927,
  "Ġfinished": 5201,
  "Ġcircumference": 38447,
  "ĠPubMed": 32131,
  "ĠSAS": 35516,
  "Ġcentimeters": 48829,
  "rius": 48969,
  "Ġsurfaced": 23786,
  "Making": 23874,
  "clear": 20063,
  "ĠPoc": 39375,
  "Ġdoors": 8215,
  "ĠOP": 13349,
  "Ġpraises": 40221,
  "Ġhairc": 37363,
  "Ġstatistically": 19941,
  "Ġwritten": 3194,
  "Ġcollectors": 26668,
  "ĠJou": 45538,
  "ĠTik": 46338,
  ",,": 9832,
  "alter": 47653,
  "ìĿ": 35975,
  "en": 268,
  "Jewish": 28240,
  "Ġaud": 2709,
  "pattern": 33279,
  "Ġessence": 12799,
  "ĠSIG": 33993,
  "Ġnoun": 23227,
  "Ġactivation": 14916,
  "364": 26780,
  "Ġhorr": 12731,
  "Ġprobable": 17939,
  "ĠUp": 3205,
  "Ġseldom": 25129,
  "endars": 44942,
  "Ġsouven": 45043,
  "Ġtrad": 2083,
  "ĠCheck": 6822,
  "asus": 40895,
  "Ġbest": 1266,
  "Ġcatalogue": 34614,
  "Sab": 39646,
  "ĠHur": 10077,
  "Ġkeeper": 28356,
  "iola": 30292,
  "Ġlin": 9493,
  "Ġdebilitating": 41378,
  "Ġfragrance": 36860,
  "Ġthirst": 24613,
  "Ġspikes": 27198,
  "esa": 49183,
  "Ġlegions": 44395,
  "ĠElementary": 25335,
  "ĠAff": 6708,
  "ĠMeow": 42114,
  "Ġlowly": 49587,
  "Ġcurv": 46171,
  "Ġbike": 7161,
  "counter": 24588,
  "ĠNational": 2351,
  "Ġtranslations": 25231,
  "ventory": 17158,
  "ĠâĸĪ": 23287,
  "ĠPressure": 30980,
  "Command": 21575,
  "Sold": 33873,
  "ĠPolicies": 42283,
  "VL": 47468,
  "Ġkitchens": 48184,
  "ĠHist": 5590,
  "Ġchildren": 1751,
  "vet": 16809,
  "Ġcrowds": 15779,
  "webkit": 43648,
  "ĠTP": 24525,
  "ĠEPS": 47013,
  "ĠPad": 15744,
  "Ġcontro": 1246,
  "Ġbroadcaster": 26661,
  "ĠExper": 8170,
  "Ġmentions": 15802,
  "Pak": 29675,
  "Ġtart": 35842,
  "ĠIntegrity": 39348,
  "ittle": 1206,
  "Ġcard": 2657,
  "ĠCoke": 34723,
  "ĠCannes": 50158,
  "ournament": 5138,
  "sports": 32945,
  "ĠEric": 7651,
  "Ġsubord": 21267,
  "agree": 49221,
  "ĠKings": 10578,
  "Ġ236": 34044,
  "Ġsketch": 17548,
  "There": 1858,
  "Ġportrait": 18560,
  "Ġrum": 7440,
  "pa": 8957,
  "owder": 34656,
  "section": 5458,
  "Ġrestrict": 4239,
  "ĠSic": 28799,
  "Ġperformers": 23827,
  "Ġmovie": 3807,
  "piring": 12987,
  "Ġtranqu": 31882,
  "Ġtotaling": 37066,
  "ĠOpposition": 29560,
  "Ġtides": 46128,
  "Ġsound": 2128,
  "avorite": 19227,
  "ajo": 34944,
  "Ġ(_": 44104,
  "Ġsides": 5389,
  "ãģ®å®": 49149,
  "erick": 41556,
  "Ġofficial": 1743,
  "enos": 28380,
  "cape": 36435,
  "ako": 25496,
  "ĠFav": 34395,
  "ĠPepper": 24346,
  "ITE": 12709,
  "Ġdisenfranch": 41307,
  "Ġblaming": 24630,
  "ĠFairfax": 33514,
  "ttle": 23296,
  "ĠPain": 15627,
  "ee": 1453,
  "verett": 33395,
  "ography": 4867,
  "Ġdestruction": 8166,
  "ĠMiscellaneous": 46253,
  "Ġdiscontin": 19936,
  "ĠBET": 38651,
  "icester": 26382,
  "''": 7061,
  "Ġwoman": 2415,
  "Ġbaths": 49076,
  "ĠSullivan": 18501,
  "?'\"": 26989,
  "Ġnewcomers": 29661,
  "Ġcrou": 33838,
  "zyk": 46355,
  "Ġloaded": 9639,
  "Ġtower": 10580,
  "Ġsorely": 50103,
  "ĠBaseType": 31783,
  "ĠCitizen": 22307,
  "412": 39226,
  "Ġphenomena": 19428,
  "odge": 9728,
  "ĠScouts": 30456,
  "ĠSlovakia": 36839,
  "ACTION": 44710,
  "ĠAU": 27548,
  "Ġathletics": 35691,
  "Ġcomputers": 9061,
  "Ð¼": 43108,
  "Ġovers": 10753,
  "ĠPV": 31392,
  "Ġbreaths": 45576,
  "Ġbackground": 4469,
  "Ġgrandparents": 28571,
  "ĠBro": 2806,
  "Aren": 43199,
  "Ġ2013": 2211,
  "ĠLeaving": 38068,
  "Great": 13681,
  "Ġ\"#": 25113,
  "ame": 480,
  "Ġdeserving": 34685,
  "ii": 4178,
  "ĠTel": 12088,
  "Ġ``(": 11592,
  "violent": 24498,
  "Ġmembrane": 25019,
  "Ġbud": 3600,
  "Ġpause": 14985,
  "ON": 1340,
  "yo": 8226,
  "Ġflashes": 29227,
  "Ġhp": 27673,
  "otonin": 29613,
  "heit": 29361,
  "terday": 6432,
  "ĠTechnologies": 21852,
  "Ġlegalization": 23050,
  "Ġgimm": 33135,
  "ĠBruno": 31045,
  "Ġspeedy": 35564,
  "apest": 35746,
  "alon": 40755,
  "Ġ377": 42163,
  "ĠPenguin": 34424,
  "Ġleg": 1232,
  "Ġvery": 845,
  "ĠLis": 28546,
  "Present": 34695,
  "Ġlicking": 43390,
  "ĠCheese": 27601,
  "creator": 45382,
  "lation": 7592,
  "ĠStrongh": 38653,
  "slice": 48369,
  "ĠAssociation": 5396,
  "ĠTRAN": 48213,
  "Ġmultiplying": 48816,
  "hem": 4411,
  "Ġhollow": 20596,
  "Ġpolitely": 34313,
  "434": 47101,
  "Ġgigs": 42299,
  "Ġbarg": 12828,
  "Judge": 29511,
  "inx": 28413,
  "ĠRecreation": 34285,
  "ĠAless": 47319,
  "Ġ2021": 33448,
  "ĠExpansion": 25042,
  "itol": 11650,
  "Ġrabbits": 33043,
  "aration": 10186,
  "ĠRestoration": 36155,
  "sen": 6248,
  "Ġtimed": 28805,
  "ĠOsiris": 40925,
  "ĠTina": 35903,
  "aret": 8984,
  "baby": 40252,
  "ĠCheng": 27692,
  "186": 25096,
  "Ġnight": 1755,
  "uld": 32926,
  "ĠBen": 3932,
  "ĠDX": 19393,
  "Ġpanels": 13043,
  "Ġrecognize": 7564,
  "ĠReef": 34151,
  "Ġ129": 20248,
  "Ġtimes": 1661,
  "ĠSkydragon": 38250,
  "Craig": 40441,
  "ĠDurham": 30928,
  "Ġsudo": 21061,
  "Ġlaboratory": 14010,
  "Ġrudimentary": 47381,
  "uggets": 26550,
  "ĠVanguard": 31507,
  "Ġnominate": 40376,
  "Mr": 5246,
  "Ġbow": 9563,
  "ITED": 22061,
  "Wallet": 47152,
  "Ġsurvive": 7866,
  "Ġarguably": 15242,
  "Ġsquirrel": 33039,
  "ĠGiven": 11259,
  "ĠHarriet": 48805,
  "Ġembell": 47399,
  "Ġtreasure": 14068,
  "poons": 27575,
  "Ġdisapp": 3786,
  "left": 9464,
  "ĠÂ»": 13355,
  "ysc": 28349,
  "Ġtentative": 38358,
  "ual": 723,
  "Ġendorsed": 17441,
  "pee": 39463,
  "ĠLines": 26299,
  "Ġ6000": 39064,
  "ĠClover": 41154,
  "cture": 48715,
  "ĠConfederation": 47186,
  "virt": 48940,
  "ĠSass": 48572,
  "Ġtournaments": 18130,
  "ĠPradesh": 25945,
  "Ġweaponry": 28479,
  "Ġstereotypical": 46112,
  "Ġball": 2613,
  "ĠTech": 9634,
  "ivering": 35598,
  "ĠKris": 27748,
  "Ġq": 10662,
  "Ġcompos": 18882,
  "Ġduplicate": 23418,
  "Ġretiring": 29040,
  "ĠGuinness": 41559,
  "Ġsup": 7418,
  "Ġphases": 21164,
  "Royal": 41861,
  "ĠAlly": 43039,
  "Ġpotency": 35950,
  "universal": 40082,
  "uper": 48568,
  "john": 30686,
  "closed": 20225,
  "Ġattracts": 33174,
  "IDER": 41237,
  "ĠPCI": 17976,
  "Ġaffection": 17696,
  "ISA": 22312,
  "Ġ134": 22352,
  "Ġchase": 15505,
  "Ġ1400": 36641,
  "Ġpounding": 33919,
  "osition": 3507,
  "Share": 11649,
  "ĠAmend": 32218,
  "ĠZerg": 37509,
  "Ġdeployment": 14833,
  "Ġà¨": 42314,
  "ĠJakarta": 49251,
  "Ġindirect": 12913,
  "Grant": 45431,
  "Ġconfidence": 6628,
  "Ġpension": 13553,
  "hound": 39047,
  "hey": 20342,
  "ĠGall": 7096,
  "ionic": 26523,
  "ï¿½": 4210,
  "Ġdrowning": 32249,
  "Ġstri": 2338,
  "ĠSalmon": 43956,
  "press": 8439,
  "Ġgrocery": 16918,
  "funded": 18246,
  "Ġlength": 4129,
  "ETA": 20892,
  "Ġ219": 30453,
  "ĠBlu": 12391,
  "ĠKan": 14248,
  "Ġnightmares": 33301,
  "Sadly": 36725,
  "Ġ['": 37250,
  "Ġ1870": 37667,
  "33": 2091,
  "Ġfavoured": 38931,
  "Ġloader": 40213,
  "ĠThieves": 40392,
  "Ġref": 1006,
  "ĠNom": 21198,
  "Ġfamily": 1641,
  "ĠStartup": 40472,
  "Ġjourney": 7002,
  "Ġreactors": 28502,
  "ancy": 3883,
  "Ġdepressed": 19095,
  "Ġoverlooked": 21655,
  "Ġsupply": 5127,
  "volt": 37764,
  "Ġenslaved": 39216,
  "596": 45734,
  "ĠLivingston": 47717,
  "Known": 29870,
  "cultural": 30844,
  "oscopic": 48228,
  "ĠLove": 5896,
  "Ġfunding": 4918,
  "ĠSchwartz": 28672,
  "ĠWh": 854,
  "Publisher": 46471,
  "iblical": 16897,
  "Ġident": 1852,
  "Ġamongst": 12077,
  "Ġforcibly": 30522,
  "terness": 34697,
  "Ġ[âĢ¦]": 23834,
  "Ġinland": 37874,
  "Ġcomrade": 47998,
  "metal": 28469,
  "Ġorphans": 50213,
  "ĠASC": 25400,
  "Ġapologize": 16521,
  "Ġglam": 27240,
  "STEP": 42135,
  "ĠOrder": 8284,
  "ĠBegins": 48139,
  "ĠMix": 15561,
  "Ġscapego": 42374,
  "Ġbeneficiary": 33867,
  "Ġdecades": 4647,
  "liter": 17201,
  "Ġmassac": 34622,
  "Ġiteration": 24415,
  "Ġoperative": 28609,
  "Ġsurged": 36061,
  "asa": 15462,
  "ĠGiov": 36089,
  "ĠPrinciple": 40921,
  "ĠSlime": 30448,
  "ĠIw": 44316,
  "ort": 419,
  "Ġhar": 3971,
  "Ġcontributors": 20420,
  "actually": 37739,
  "ĠCrowd": 29452,
  "Ġjustifies": 45628,
  "ĠOLED": 47463,
  "712": 49517,
  "antam": 49653,
  "Suddenly": 38582,
  "dll": 12736,
  "ĠHotel": 12696,
  "ĠBlessed": 33398,
  "Ġdri": 1454,
  "Ġtestified": 15463,
  "Ġastonishing": 21994,
  "lif": 36195,
  "Ġrespond": 3031,
  "AMA": 25087,
  "Ġpim": 49319,
  "Ħ": 226,
  "ĠPf": 38477,
  "Three": 12510,
  "Ġhundreds": 5179,
  "Ġsampling": 19232,
  "Ġlash": 46967,
  "elcome": 9571,
  "ĠFood": 7318,
  "Ġchemistry": 16585,
  "float": 22468,
  "esp": 9774,
  "ĠRoma": 29600,
  "ĠConsumers": 45103,
  "Push": 49222,
  "orian": 22618,
  "ĠLann": 39004,
  "Ġopen": 1280,
  "Ġcontacted": 11237,
  "enes": 18719,
  "Ġov": 19643,
  "Ġcomplied": 35413,
  "Ð¾": 15166,
  "yeah": 43669,
  "Ġcollapsing": 30792,
  "osa": 8546,
  "nex": 12413,
  "PN": 13137,
  "Character": 27275,
  "ĠIt": 632,
  "Ġneighborhoods": 14287,
  "ĠÏ": 18074,
  "Ġreveals": 10069,
  "xt": 742,
  "ĠFuck": 25617,
  "ĠBain": 33126,
  "Ġmk": 33480,
  "Ġresources": 4133,
  "Ġrepresentatives": 10826,
  "ĠVir": 16310,
  "Ġinterven": 14118,
  "ĠWrestling": 29662,
  "ĠCognitive": 38655,
  "ĠYiannopoulos": 39214,
  "Pocket": 45454,
  "Ġnerds": 47088,
  "ĠAugustus": 48339,
  "Ġang": 3550,
  "Ġ1990": 6303,
  "ĠTro": 8498,
  "ĠWW": 13505,
  "taining": 7339,
  "ĠRally": 27752,
  "ies": 444,
  "éļ": 49694,
  "ĠSteve": 6542,
  "race": 16740,
  "Ġspont": 18324,
  "Ġproverbial": 47327,
  "riger": 18096,
  "Ġdel": 1619,
  "ĠFitz": 16703,
  "mes": 6880,
  "ĠWriter": 26606,
  "ĠFn": 37481,
  "Ġresearch": 2267,
  "Ġdolphin": 44136,
  "Ġdecorative": 39798,
  "Gen": 13746,
  "iard": 42425,
  "Callback": 47258,
  "ĠBaird": 48503,
  "usk": 17990,
  "ARA": 24401,
  "ously": 3481,
  "Ġprecept": 40550,
  "Ġdisinfect": 48511,
  "ĠChilean": 48014,
  "ĠDevil": 10489,
  "rators": 18942,
  "ĠDisp": 36060,
  "Ġathletic": 15177,
  "chrom": 28663,
  "Ġatoms": 23235,
  "Ġmoth": 44400,
  "Ġdiffering": 28742,
  "ĠRaz": 38058,
  "ox": 1140,
  "ario": 4982,
  "elvet": 32667,
  "Ġdesignate": 32781,
  "Ġcomplains": 41165,
  "Ġdetectives": 24304,
  "wing": 5469,
  "usions": 15880,
  "ĠEle": 15987,
  "Ġdin": 16278,
  "ĠISIS": 7768,
  "ĠStevenson": 38681,
  "Ġprincipals": 44998,
  "ĠSmartstocks": 32437,
  "erential": 33369,
  "Ġconquered": 29346,
  "Ġneurotrans": 39307,
  "Ġconfounding": 43849,
  "Ġlosses": 9089,
  "/.": 11757,
  "WARE": 33746,
  "ĠHighway": 14914,
  ",âĢĶ": 34976,
  "parency": 11944,
  "ĠChal": 30529,
  "Ġhide": 7808,
  "rav": 4108,
  "role": 18090,
  "Ġextraord": 9946,
  "irrel": 22793,
  "Ġhatched": 49353,
  "Ġthreaded": 40945,
  "Ġrouters": 41144,
  "Ġcloves": 45025,
  "ĠIPv": 25961,
  "KA": 25123,
  "would": 19188,
  "ĠDar": 7491,
  "Haw": 33055,
  "Originally": 22731,
  "ĠRed": 2297,
  "row": 808,
  "Ġabbre": 28873,
  "Ġbandwidth": 19484,
  "Ġretarded": 34445,
  "ĠFact": 19020,
  "Ġpiano": 19132,
  "inflammatory": 32272,
  "Ġcarbohydrates": 32328,
  "consider": 44353,
  "Ġcoverage": 5197,
  "ĠSean": 11465,
  "urgy": 38140,
  "Ġsettles": 43684,
  "Ġtopics": 10233,
  "Ġherald": 28783,
  "Ġmutually": 26519,
  "Ġlun": 14678,
  "ĠChennai": 47678,
  "ISON": 39960,
  "Robert": 19156,
  "Ġwarp": 25825,
  "ĠTerr": 38859,
  "ĠBlend": 41198,
  "sterdam": 22506,
  "useum": 6744,
  "~~~~~~~~~~~~~~~~": 27156,
  "Ġblessing": 20027,
  "Ġvandal": 26271,
  "ind": 521,
  "Ġdescendant": 45923,
  "Ġuniqueness": 49650,
  "chart": 40926,
  "Stud": 13007,
  "Ġproponent": 42461,
  "Ġclone": 17271,
  "168": 14656,
  "ĠKara": 34856,
  "Ġhug": 16225,
  "ĠGig": 19525,
  "steam": 21465,
  "Ġarticulate": 32154,
  "460": 34716,
  "}:": 38362,
  "Bro": 15783,
  "ensional": 37176,
  "Ġfuels": 18017,
  "Ġboosting": 27611,
  "Ġendlessly": 33903,
  "govern": 47866,
  "riot": 36671,
  "Ġshops": 12437,
  "Ġdaily": 4445,
  "ĠANY": 15529,
  "shoot": 30408,
  "Ġeuth": 35008,
  "ĠCivil": 7511,
  "Ġmap": 3975,
  "cil": 2856,
  "Ġchat": 8537,
  "media": 11431,
  "Ġtasked": 23052,
  "ĠAthletic": 29007,
  "azor": 17725,
  "Print": 18557,
  "Ġexploiting": 29440,
  "Tonight": 43783,
  "ĠSplash": 45275,
  "Ġheaders": 24697,
  "URRENT": 39237,
  "ĠâĢĵ": 784,
  "tern": 759,
  "Ġhierarchy": 18911,
  "ĠView": 3582,
  "Ġhorizontal": 16021,
  "Ġsecession": 43314,
  "Ġmanure": 48577,
  "capitalist": 49970,
  "BR": 11473,
  "ĠFiles": 13283,
  "Ġexcerpts": 39146,
  "ooting": 12494,
  "Ġrenaissance": 48917,
  "Ġtranslator": 33417,
  "Previously": 36837,
  "ĠMarina": 35321,
  "Ġmargins": 20241,
  "Ġstunts": 49772,
  "Zero": 28667,
  "Via": 30754,
  "paralle": 37083,
  "Ġ1": 352,
  ")--": 42944,
  "java": 12355,
  "Ġbitcoins": 22690,
  "Ġrivals": 14987,
  "Ġnarcissistic": 48502,
  "ĠSard": 46997,
  "åĲ": 28938,
  "ĠHeader": 48900,
  "èĢ": 32003,
  "Ġmembr": 19890,
  "Ġunion": 6441,
  "Ġgained": 8618,
  "Ġglim": 16323,
  "Ġ1942": 22458,
  "KY": 31159,
  "thia": 31079,
  "adr": 41909,
  "ĠKelvin": 46577,
  "Roaming": 27352,
  "hess": 33979,
  "ĠDD": 20084,
  "Ġdomestic": 5928,
  "Ġshouts": 34757,
  "phot": 38611,
  "Ġefforts": 4040,
  "Ġproc": 13834,
  "ĠChrome": 13282,
  "ĠAlchemy": 43987,
  "rape": 13484,
  "SIGN": 46224,
  "Ġtack": 6331,
  "tesy": 27090,
  "ĠClayton": 32108,
  "ĠGentle": 25066,
  "Ġ227": 30989,
  "itate": 12027,
  "ases": 1386,
  "levard": 22123,
  "Ġstatutes": 24895,
  "ĠLAW": 38675,
  "ĠErit": 43349,
  "573": 48638,
  "Ġignited": 40442,
  "ulators": 24325,
  "Ġgeometry": 22939,
  "ĠGABA": 47046,
  "Ġbrunt": 48850,
  "AAF": 38540,
  "abba": 48910,
  "omsky": 37093,
  "Ġurinary": 38628,
  "Ġfallacy": 39104,
  "ĠMobil": 45951,
  "iologist": 31599,
  "Ġassociate": 11602,
  "ott": 1252,
  "Ġlaud": 28907,
  "Ġintruder": 48927,
  "ĠJesus": 5803,
  "Ġleased": 40352,
  "Ġconcent": 5280,
  "ĠMonsters": 21464,
  "ĠTaken": 30222,
  "pect": 806,
  "ĠEyes": 18301,
  "Ġliter": 4187,
  "ĠLanc": 21534,
  "Ġ1989": 11104,
  "Ġtapped": 22499,
  "Ġapologise": 39012,
  "ãĥķãĤ¡": 41939,
  "ĠPlot": 28114,
  "Ġgrabbing": 23256,
  "Ġpine": 20161,
  "Ġsignage": 46924,
  "aga": 8126,
  "ĠConversion": 44101,
  "ĠMc": 1982,
  "Ġstandpoint": 22116,
  "Ġprosperous": 32757,
  "moderate": 47189,
  "Ġcomparatively": 31188,
  "aul": 2518,
  "Ġcompensated": 34304,
  "ĠMana": 17493,
  "Ġraven": 37735,
  "101": 8784,
  "Ġbankrupt": 13158,
  "ivan": 13809,
  "Moh": 38443,
  "ĠWyr": 45988,
  "ĠDupl": 49821,
  "Ġast": 6468,
  "ĠMidnight": 27960,
  "ĠWhitney": 34701,
  "Ġlottery": 22098,
  "Ġaltru": 37677,
  "Ġunprepared": 45102,
  "Ġcritic": 4014,
  "Ġpotatoes": 18821,
  "524": 48057,
  "Ġunhealthy": 27942,
  "Ġfluct": 19180,
  "ĠTechnical": 20671,
  "achus": 9523,
  "Gu": 8205,
  "ĠPipeline": 37709,
  "Ġcurb": 20799,
  "Ġindexed": 41497,
  "arning": 4228,
  "Ġwolf": 17481,
  "Ġcoordination": 19877,
  "Ġmastermind": 41353,
  "ĠSIL": 47551,
  "ĠCW": 24006,
  "mir": 10793,
  "Palest": 32570,
  "flat": 38568,
  "Ġarisen": 42091,
  "Ġdebugging": 28769,
  "industrial": 31130,
  "ĠMonica": 23240,
  "Â°": 7200,
  "aments": 12604,
  "graded": 21791,
  "aja": 27792,
  "ĠStructure": 32522,
  "Ġclad": 38186,
  "Ġbuilds": 12188,
  "Ġaccompan": 10600,
  "okers": 18698,
  "icator": 26407,
  "\\\\\\\\": 13426,
  "115": 15363,
  "Ġun": 555,
  "Ġ82": 9415,
  "ĠSurvey": 13084,
  "Ġne": 497,
  "George": 20191,
  "Audio": 21206,
  "ĠCrash": 23653,
  "ĠHudson": 19995,
  "ĠEverything": 11391,
  "ĠVs": 31280,
  "ĠBulgar": 26163,
  "Ġsummed": 32794,
  "ĠRIGHT": 33621,
  "Ġdead": 2636,
  "Ġdecimal": 32465,
  "ĠNigerian": 36430,
  "590": 36993,
  "ãĥ»": 4707,
  "Ġupward": 18644,
  "Configuration": 38149,
  "ĠSun": 3825,
  "Ġwanting": 10291,
  "Ġtrader": 31791,
  "producing": 36866,
  "å": 161,
  "Ġpath": 3108,
  "Ġintroduced": 5495,
  "ĠSeason": 7369,
  "Ġstroke": 14000,
  "chan": 3147,
  "ĠWATCH": 16518,
  "Ġ273": 38549,
  "pole": 36869,
  "ĠWARNING": 39410,
  "rito": 39834,
  "ĠWinners": 42754,
  "ãĤĤ": 43266,
  "ĠJenn": 9777,
  "Ġunderpin": 42185,
  "ĠTexture": 44409,
  "ĠShards": 46464,
  "çĦ": 47078,
  "OF": 19238,
  "Ġcomprises": 28800,
  "Ġunwillingness": 47836,
  "ĠAuthentication": 48191,
  "Ġmalnutrition": 49290,
  "Ġpancreat": 47767,
  "Ġonly": 691,
  "inion": 23971,
  "ordable": 16819,
  "Ġ1967": 15904,
  "Ġborrowers": 31617,
  "!!!!": 13896,
  "Du": 35660,
  "rug": 2143,
  "Ġordering": 16216,
  "Ġnexus": 45770,
  "Î½": 26180,
  "INGS": 20754,
  "Ġsuperintendent": 32958,
  "ĠRidge": 20614,
  "ĠBod": 26285,
  "Ġrestruct": 27596,
  "Ġamber": 36505,
  "Ġorbit": 13066,
  "::::": 24022,
  "ĠGoat": 40423,
  "Ġwears": 17326,
  "ĠDietary": 40767,
  "Ġrotting": 44494,
  "Ġpet": 4273,
  "Ġairflow": 45771,
  "igraph": 45920,
  "*:": 47026,
  "Ġcatapult": 48786,
  "Matthew": 25372,
  "Ġskillet": 41306,
  "ĠDiver": 50137,
  "commun": 10709,
  "Static": 45442,
  "His": 6653,
  "Ġannouncing": 16428,
  "orset": 49590,
  "world": 6894,
  "ĠBreak": 12243,
  "ĠREST": 30617,
  "spread": 43639,
  "ĠJindal": 49816,
  "Kevin": 23865,
  "quet": 21108,
  "Ġ84": 9508,
  "Ġenergetic": 26758,
  "Ġupdating": 19698,
  "intendent": 21075,
  "ĠRats": 44164,
  "Ġpals": 39898,
  "atson": 13506,
  "ĠSoros": 27900,
  "ĠMarkets": 30251,
  "rs": 3808,
  "ealing": 26919,
  "Ġpoked": 47320,
  "ww": 1383,
  "ĠProdu": 21522,
  "Ġcandle": 26839,
  "ĠData": 6060,
  "ĠMourinho": 28689,
  "hew": 6391,
  "Ġdisag": 7969,
  "Ġelaborate": 15962,
  "lli": 15516,
  "ĠFailed": 22738,
  "haps": 2772,
  "sync": 27261,
  "915": 40248,
  "ĠMOT": 42982,
  "Ġprincipled": 48070,
  "Ġpregnant": 10423,
  "ĠOsw": 30317,
  "RAM": 24115,
  "Ġastronauts": 26835,
  "Ġincentives": 16538,
  "Ġtells": 4952,
  "Book": 10482,
  "Ġassigning": 38875,
  "jandro": 47983,
  "ĠBill": 3941,
  "Ġtransactions": 8945,
  "Ġprescription": 15077,
  "ĠÎ±": 26367,
  "Ġguards": 10942,
  "ĠSubject": 15540,
  "Ma": 21467,
  "Provider": 29495,
  "ĠKilling": 25536,
  "ĠMayer": 33996,
  "Ġimplementing": 15427,
  "Ġplatforms": 9554,
  "ĠPompe": 36103,
  "yip": 39666,
  "Ġalas": 47156,
  "MAT": 41636,
  "ĠRL": 45715,
  "icist": 48187,
  "ĠCanaveral": 49433,
  "×Ķ": 38269,
  "Ġvaccine": 12319,
  "ĠBoston": 6182,
  "ĠDeveloper": 23836,
  "itates": 38654,
  "Ġinvest": 1325,
  "Ġdescrib": 2225,
  "Ġidentity": 5369,
  "Ġpolite": 23507,
  "Mouse": 39643,
  "ĠCor": 2744,
  "ĠIslands": 12010,
  "ĠWed": 3300,
  "ĠAmendment": 8441,
  "ables": 2977,
  "Oh": 5812,
  "CON": 10943,
  "hunter": 37488,
  "Ġplumbing": 40199,
  "Ġhorny": 42014,
  "square": 23415,
  "ocusing": 45743,
  "âĸĦ": 45786,
  "ĠSomerset": 46123,
  "Ġpiracy": 30955,
  "Ġbark": 21405,
  "Ġceremonies": 27340,
  "ahar": 37325,
  "chy": 29658,
  "Ġvolcan": 17516,
  "Ġstitch": 24695,
  "Ġbat": 7365,
  "Ġremotely": 19863,
  "oct": 38441,
  "-+-+": 27097,
  "Gal": 26552,
  "ĠSno": 42578,
  "å°": 22887,
  "%)": 4407,
  "Ġslapped": 31213,
  "Ġenrolled": 18724,
  "asant": 8775,
  "Ġclient": 5456,
  "Ġresilient": 30738,
  "Ġtwists": 30953,
  "Ġwart": 32943,
  "Ġregimen": 37086,
  "fitted": 38631,
  "ĠOsaka": 42429,
  "756": 38219,
  "v": 85,
  "ĠCf": 43216,
  "Ġfam": 1145,
  "Ġweaker": 17642,
  "Ġintimidate": 34903,
  "ãĤ®": 43899,
  "Chem": 41829,
  "Ġinfall": 48124,
  "ĠCzech": 16639,
  "ĠReligion": 21741,
  "ĠPepe": 49761,
  "ĠMHz": 19805,
  "523": 49803,
  "Common": 17227,
  "ĠBran": 33628,
  "Ġwants": 3382,
  "Ġshifted": 14869,
  "onz": 13569,
  "pex": 24900,
  "hao": 23778,
  "Ġdefenseman": 32246,
  "ĠUPDATE": 35717,
  "Ġorigin": 8159,
  "Instruct": 43993,
  "Ġmechanically": 47878,
  "Ġmotherboard": 32768,
  "Ġthrew": 9617,
  "Ġadventure": 8855,
  "Ġmild": 11607,
  "Ġsailors": 29996,
  "Ġmicrowave": 27000,
  "ĠFight": 10480,
  "Su": 5606,
  "Ġworkshops": 25982,
  "Ġrespectable": 27721,
  "Ġcarefully": 7773,
  "ĠFedora": 32245,
  "ĠRandomRedditorWithNo": 36174,
  "Ġze": 41271,
  "ult": 586,
  "obe": 5910,
  "Ġdramatic": 10092,
  "ĠPersonal": 15644,
  "USH": 27143,
  "Ġeconomists": 16816,
  "ĠRabbit": 25498,
  "Ġearlier": 2961,
  "ĠAnglo": 27525,
  "atti": 34891,
  "ĠMcMaster": 42284,
  "Ġinhal": 40982,
  "Ġglacier": 44539,
  "ĠRyzen": 45042,
  "ĠEnter": 6062,
  "otide": 45608,
  "WHERE": 47357,
  "Ġstricken": 47455,
  "Supporters": 49422,
  "Â»": 17730,
  "Ġoverdose": 27357,
  "fff": 20972,
  "Hours": 39792,
  "Ġ52": 6740,
  "ĠFuji": 43694,
  "Ġlistening": 8680,
  "ord": 585,
  "Ġse": 384,
  "Ġcondemn": 15402,
  "Wind": 8731,
  "monster": 39050,
  "ĠInquiry": 39138,
  "ĠMobile": 12173,
  "Ġrefin": 50170,
  "Ġstand": 1302,
  "Ġepic": 12191,
  "Ġwitnessing": 31121,
  "Jr": 50123,
  "Orig": 11610,
  "Ġpur": 1308,
  "Ġbecomes": 4329,
  "Ġbald": 28273,
  "ĠiCloud": 42076,
  "Ġclaimed": 4752,
  "Ġnominating": 48833,
  "ization": 1634,
  "Ġ306": 37255,
  "ĠED": 8392,
  "Ġsurprisingly": 12362,
  "ļé": 21253,
  "Ġdefiance": 35287,
  "anned": 3577,
  "ĠCG": 29925,
  "Radio": 26093,
  "anian": 38336,
  "Ġyelled": 22760,
  "Ġgist": 50057,
  "angular": 21413,
  "lem": 10671,
  "ĠHoldings": 31681,
  "ĠScion": 49632,
  ".âĢĶ": 13402,
  "Ġcannibal": 39904,
  "Ġrecommendation": 15602,
  "behind": 42200,
  "Ġtwelve": 14104,
  "Represent": 40171,
  "ĠCollins": 14006,
  "osis": 5958,
  "Ġinfer": 13249,
  "istically": 16772,
  "ĠGaia": 37471,
  "ĠGott": 39451,
  "Ġheirs": 40862,
  "issors": 32555,
  "Ġ1863": 47072,
  "Ġlectures": 25917,
  "gaming": 48616,
  "Ġflows": 15623,
  "Ġtrillion": 12989,
  "261": 30057,
  "nu": 28803,
  "Ġassimil": 36659,
  "Ġenforcement": 5394,
  "Ġattic": 46113,
  "ĠGM": 6951,
  "ĠGuys": 29899,
  "ĠPapa": 42328,
  "ĠSyrian": 6318,
  "Ġsufficient": 6751,
  "Ġprost": 11825,
  "ĠAoE": 39703,
  "Ġaging": 14736,
  "Ġrestricts": 47075,
  "Ġinfinite": 15541,
  "Ġlimits": 7095,
  "ĠCovenant": 25489,
  "Ġsoftly": 26625,
  "Ġhighs": 28227,
  "itu": 34272,
  "Sah": 32194,
  "Ġtyranny": 29977,
  "enez": 11437,
  "esville": 19641,
  "Ġattainment": 40375,
  "ĠMolly": 30236,
  "Ġascent": 37137,
  "Ġundesirable": 38117,
  "Honestly": 40817,
  "ĠEleanor": 45566,
  "apego": 40561,
  "Ġspun": 26843,
  "ĠMare": 36989,
  "ĠNost": 48150,
  "Ġgenes": 10812,
  "Companies": 49111,
  "Ġ421": 49294,
  "ĠBuff": 8792,
  "ĠMessage": 16000,
  "play": 1759,
  "ĠSim": 3184,
  "Ġtransported": 18665,
  "ĠExplicit": 11884,
  "ECTION": 24565,
  "ĠShepard": 28606,
  "names": 14933,
  "existence": 41084,
  "Ġanalog": 15075,
  "Ġamph": 30139,
  "âĺĨ": 35283,
  "ĠHik": 39790,
  "Ġbreach": 13694,
  "Ġstartled": 36249,
  "Ġnovelist": 37986,
  "160": 14198,
  "ĠWag": 21309,
  "Ġinsults": 27819,
  "Ġusur": 39954,
  "Ġstarvation": 32143,
  "ĠPumpkin": 36724,
  "rank": 43027,
  "ĠJPMorgan": 43318,
  "Ġeverlasting": 45697,
  "bek": 47083,
  "atal": 10254,
  "urga": 45098,
  "Ġtransformer": 47385,
  "Ġ430": 35090,
  "ĠAngeles": 5652,
  "Ġcostume": 16569,
  "Ġwrecked": 44770,
  "ema": 19687,
  "Ðµ": 16843,
  "adjust": 23032,
  "ĠSHA": 25630,
  "ch": 354,
  "ĠSciences": 13473,
  "Ġinvesting": 14771,
  "ĠMcGu": 33902,
  "ĠMecca": 35247,
  "irt": 2265,
  "Ġeternal": 15851,
  "Ġdove": 38862,
  "Ġbet": 731,
  "ĠMacron": 31362,
  "ĠNYU": 48166,
  "ions": 507,
  "ĠWally": 50117,
  "ĠComm": 1520,
  "ĠElixir": 42652,
  "Ġpermit": 8749,
  "==": 855,
  "ĠTransfer": 20558,
  "ĠLE": 12509,
  "Ev": 15200,
  "Ġcostly": 16378,
  "Ġantim": 37802,
  "ancer": 8250,
  "Study": 39841,
  "Ġpeppers": 31804,
  "ĠGrammy": 42235,
  "Ġseam": 15787,
  "Ġbehalf": 8378,
  "Ġextremists": 20674,
  "Ġdude": 18396,
  "ĠClinical": 21234,
  "ĠNak": 22255,
  "Ġshattered": 23273,
  "---------------": 24305,
  "NF": 21870,
  "sem": 43616,
  "rored": 34640,
  "igrated": 38769,
  "ĠNB": 41354,
  "ĠMane": 42736,
  "Ġenvironments": 12493,
  "ĠWalsh": 24104,
  "Ġsatell": 8983,
  "0": 15,
  "Ġunaffected": 35290,
  "Ġoxidative": 37736,
  "clair": 27659,
  "ickets": 15970,
  "Template": 30800,
  "Ġbenign": 32293,
  "ĠWichita": 45526,
  "ĠBoards": 48606,
  "Ġvitri": 48950,
  "ĠUnless": 17486,
  "inv": 16340,
  "safety": 44708,
  "Ġseeks": 12932,
  "rentice": 20098,
  "Ġoffset": 11677,
  "Ġdisgrace": 27690,
  "Ġtools": 4899,
  "Ġdistort": 30867,
  "Ġerror": 4049,
  "Ġnumber": 1271,
  "Ġreviewed": 11765,
  "Ġsubscribers": 18327,
  "AFP": 17449,
  "Ġshrew": 44551,
  "ĠColleges": 49727,
  "ĠSquad": 11630,
  "caster": 17970,
  "Ġacquire": 12831,
  "Ġannihil": 36572,
  "Ġminions": 22811,
  "Ġsons": 11989,
  "Ġabsurdity": 41793,
  "England": 39163,
  "Ġassurances": 35568,
  "Ġbusiness": 1597,
  "ĠFilter": 25853,
  "ĠJaguars": 28392,
  "Ġmethodological": 47935,
  "Ġdemonstrators": 25016,
  "aurus": 22302,
  "Ġtechnically": 14497,
  "Mini": 39234,
  "Ġcondom": 33791,
  "Ġprosecuted": 23086,
  "Ġdiagnostic": 23584,
  "Ġpigment": 43385,
  "ĠReign": 29297,
  "tw": 4246,
  "Ġrarity": 32823,
  "ussen": 35951,
  "Ġsensed": 39243,
  "ĠVera": 44413,
  "Ġrenovations": 44481,
  "Ġmo": 6941,
  "Language": 32065,
  "practice": 39541,
  "ĠPromise": 34920,
  "COLOR": 46786,
  "799": 45455,
  "217": 24591,
  "ĭ": 233,
  "utions": 3508,
  "Ġfro": 8400,
  "Ġlingu": 20280,
  "Ġdefaults": 26235,
  "ĠThroughout": 24581,
  "Ġ159": 26422,
  "âĵĺ": 45563,
  "Ġovershadow": 35562,
  "Ġsystematic": 17895,
  "------------": 10541,
  "Ġmaj": 16486,
  "Ġadventurers": 36843,
  "ĠHazel": 42805,
  "Samsung": 32334,
  "Ġscreening": 14135,
  "deen": 39060,
  "ĠDeposit": 44158,
  "YL": 45448,
  "Ġwondering": 11263,
  "Ġrelation": 8695,
  "star": 7364,
  "ĠRate": 14806,
  "ĠCivilization": 31755,
  "?).": 29865,
  "ĠLie": 12060,
  "Ġyearly": 24169,
  "ĠStaff": 9983,
  "Ġfamously": 20524,
  "ĠArchives": 22275,
  "adding": 26872,
  "Ġswore": 37964,
  "uggage": 29672,
  "ĠGest": 44641,
  "ando": 25440,
  "787": 41019,
  "ĠGor": 19097,
  "ĠJP": 21331,
  "oots": 13880,
  "thumbnails": 18670,
  "Ġwildlife": 15599,
  "163": 24136,
  "349": 27371,
  "Ġconstitutional": 9758,
  "ĠLl": 18315,
  "Ġvolunteered": 32730,
  "ĠFavorite": 33992,
  "2500": 44688,
  "ĠPitt": 10276,
  "Ġfrequency": 8373,
  "begin": 27471,
  "Critics": 36623,
  "Ġreviewers": 30702,
  "ĠNeighborhood": 37914,
  "zes": 12271,
  "igue": 15212,
  "ĠRussians": 13234,
  "ĠSociety": 7023,
  "Ġconsolidate": 38562,
  "Ġasks": 7893,
  "white": 11186,
  "Ġspheres": 34126,
  "ĠKappa": 39553,
  "most": 1712,
  "Ġembryos": 39966,
  "ĠTranscript": 42978,
  "Ġepis": 48177,
  "iasco": 40025,
  "Ġtelescopes": 42067,
  "ĠPyongyang": 21614,
  "Ġelegant": 19992,
  ",)": 35751,
  "ariat": 21621,
  "ĠNoticed": 15362,
  "ĠDonovan": 31565,
  "Ġrelying": 17965,
  "Ġwhiskey": 29219,
  "Ġdesperate": 12111,
  "pta": 32283,
  "sounding": 39686,
  "pots": 40793,
  "Ġgreedy": 31828,
  "CAN": 44565,
  "Ġexpulsion": 38812,
  "Ġmanpower": 44803,
  "Ġtexts": 13399,
  "Ġmemorable": 18078,
  "Ġyet": 1865,
  "hm": 23940,
  "hattan": 12904,
  "ĠNDP": 20392,
  "Ġbegging": 26732,
  "Ba": 34458,
  "ĠBlood": 7235,
  "Ġsister": 6621,
  "Ġtalented": 12356,
  "Ġcages": 37933,
  "ãĥ¼ãĥĨ": 44326,
  "Ġmakeshift": 34064,
  "Ġcurly": 45731,
  "Ġinterviewed": 12299,
  "ĠAreas": 38662,
  "Ġsteroids": 31397,
  "notation": 38983,
  "Ġsteroid": 40762,
  "ĠFrieza": 48080,
  "Ġfrequent": 10792,
  "ilitarian": 43900,
  "Ġharshly": 43123,
  "Ġrequired": 2672,
  "Ġslideshow": 48828,
  "sc": 1416,
  "Ġadvancing": 19988,
  "Ġwaking": 23137,
  "RS": 6998,
  "Ġpin": 6757,
  "Ġirrig": 29344,
  "rition": 10168,
  "ĠMathemat": 30535,
  "Early": 20457,
  "Ġobvious": 3489,
  "Ġdiscussion": 5114,
  "ĠActor": 27274,
  "Ġpatented": 34824,
  "585": 38905,
  "Ġexplanatory": 44742,
  "yrights": 49158,
  "Ġinsur": 49741,
  "ĠPik": 26025,
  "Ġours": 16903,
  "Ġgearing": 40592,
  "Elect": 19453,
  "ĠCombine": 29176,
  "ishops": 21863,
  "Ġspends": 16887,
  "riks": 39370,
  "Ġsolicitation": 47770,
  "Ġcarrier": 11920,
  "Ġannually": 13844,
  "Ġwriting": 3597,
  "Ġcereal": 33158,
  "otomy": 38385,
  "ĠEight": 18087,
  ",''": 14004,
  "ĠJump": 15903,
  "Ġgraffiti": 28530,
  "ĠMbps": 41022,
  "Nick": 23609,
  "Ġgrants": 11455,
  "unt": 2797,
  "Ġhike": 18390,
  "Ġreplaces": 24020,
  "ĠMerlin": 32918,
  "Ġalgorithm": 11862,
  "ĠMcL": 18365,
  "Ġreinforce": 19594,
  "ĠHipp": 33812,
  "ĠShelby": 35053,
  "Ġmethamphetamine": 39278,
  "Russian": 16220,
  "Ġeaves": 42174,
  "ont": 756,
  "ĠDevils": 26199,
  "Ġdenied": 6699,
  "ĠGraphic": 43029,
  "ĠBoss": 15718,
  "ĠBash": 15743,
  "ĠBeg": 47479,
  "Ġlovely": 14081,
  "Ġdx": 44332,
  "Ġbaptized": 40357,
  "Ġ1996": 8235,
  "ied": 798,
  "ĠCoach": 16393,
  "Ġborderline": 38422,
  "Ġrevoke": 39041,
  "Sources": 21188,
  "ĠMEN": 41597,
  "Ġcomprehension": 35915,
  "ĠPRODUCT": 41458,
  "Ġcommenting": 26387,
  "ĠRooms": 42043,
  "540": 35005,
  "Ġnickname": 21814,
  "Ġslamming": 39603,
  "561": 47915,
  "Ġeffect": 1245,
  "Ġtoug": 14427,
  "Ġbee": 20697,
  "ĠWan": 33242,
  "ĠPAY": 38444,
  "ient": 1153,
  "ĠOff": 3242,
  "Ġdeficit": 11807,
  "ĠLocation": 13397,
  "ĠPap": 14185,
  "ĠBowling": 44748,
  "Ġconfronted": 16675,
  "ĠPromotion": 42868,
  "Ġwealth": 5129,
  "553": 48096,
  "arr": 3258,
  "doing": 19631,
  "Ġdoorstep": 41594,
  "Ġpractices": 6593,
  "ĠMali": 29599,
  "Ġbureaucr": 13515,
  "Ġelephant": 20950,
  "agency": 40955,
  "ĠDetection": 46254,
  "Ġ62": 8190,
  "Ġhover": 20599,
  "Ġbrood": 50167,
  "acity": 4355,
  "ĠWiFi": 24904,
  "Removed": 45975,
  "Ġdeserted": 36043,
  "steen": 42580,
  "ICLE": 31419,
  "Ġblames": 34061,
  "655": 35916,
  "Ġincl": 13358,
  "FAULT": 38865,
  "str": 2536,
  "Ġka": 38387,
  "ĠCong": 2908,
  "ĠNone": 6045,
  "ĠSiri": 34461,
  "Ġfactual": 27234,
  "Thankfully": 48387,
  "Ġfull": 1336,
  "oko": 16044,
  "Blue": 14573,
  "Ġcomplaining": 18705,
  "bomb": 27657,
  "Ġmasked": 29229,
  "anding": 27225,
  "Ġblind": 7770,
  "Ġ1888": 49584,
  "eca": 31047,
  "Ġerased": 33588,
  "ĠHou": 33790,
  "ĠGuard": 4932,
  "ĠAren": 9843,
  "Ġsomeone": 2130,
  "Ġprosecutors": 11947,
  "ĠWash": 22892,
  "Ġcharcoal": 33512,
  "ĠEvaluation": 34959,
  "Ġbond": 6314,
  "Ġamuse": 26072,
  "Ġreconciliation": 27515,
  "jack": 19650,
  "Ġgrind": 20078,
  "ĠHM": 25904,
  "ĠMemory": 14059,
  "Better": 28971,
  "ĠNPCs": 28167,
  "Ġtelev": 22884,
  "slow": 38246,
  "ĠLeader": 10540,
  "izable": 13821,
  "WAR": 16279,
  "ĠSniper": 24146,
  "Ġmelan": 34963,
  "525": 39088,
  "ippy": 41214,
  "Ġcruising": 44339,
  "Ġspare": 13952,
  "ĠDry": 22408,
  "Ġ1923": 37272,
  "itudes": 10455,
  "canon": 49883,
  "ÃĥÃĤÃĥÃĤ": 5815,
  "Happy": 25082,
  "Ġcabal": 47548,
  "Ġfolly": 43411,
  "ĠHey": 14690,
  "Ġsold": 2702,
  "ancies": 16183,
  "ĠTinker": 46316,
  "Ġwaiting": 4953,
  "Ġpleas": 21289,
  "Ġalso": 635,
  "Ġthan": 621,
  "ause": 682,
  "Ġ15": 1315,
  "34": 2682,
  "ĠMT": 19308,
  "lace": 27077,
  "miah": 35029,
  "Ġinhibitors": 40272,
  "rices": 45977,
  "Ġcrush": 19813,
  "Ġraft": 31812,
  "Ġnodding": 47583,
  "Ġaddon": 48557,
  "Ġ33": 4747,
  "Cas": 35155,
  "intage": 14630,
  "Ġacted": 13134,
  "ĠðŁ": 12520,
  "Ġcryptocurrencies": 29760,
  "ĠMedina": 41946,
  "Ġexped": 13604,
  "terror": 14007,
  "Ġgeographical": 27465,
  "ĠA": 317,
  "Ġpresume": 36059,
  "Ġmeltdown": 37824,
  "Ġlimp": 42102,
  "Skin": 42455,
  "Ġrejecting": 26734,
  "UB": 10526,
  "ĠDanish": 20849,
  "psc": 27566,
  "Ġcongregation": 28862,
  "ĠFabric": 37759,
  "ĠAdamant": 42565,
  "Ġsmartest": 44730,
  "Ġrub": 6437,
  "Ġhikers": 47961,
  "ĠLed": 22964,
  "Ġnegate": 44328,
  "benefit": 48649,
  "amily": 5993,
  "ĠRainbow": 19909,
  "venth": 20987,
  "gold": 24267,
  "Ġcoating": 26749,
  "rahim": 26922,
  "gram": 4546,
  "Cube": 29071,
  "aez": 47246,
  "itton": 47304,
  "Ġbuttocks": 50193,
  "Ġcivil": 3026,
  "Ġstealing": 16568,
  "ĠUndead": 31326,
  "ĠFocus": 17061,
  "Ġsimultaneous": 29526,
  "Ġguitarist": 32705,
  "Ġfru": 12658,
  "ĠMaximum": 22246,
  "ãĥĦ": 41115,
  "ĠEMS": 41363,
  "uphem": 45640,
  "ĠWinc": 35898,
  "Doc": 23579,
  "Ġstreamed": 35377,
  "inking": 8040,
  "otropic": 46084,
  "Ġgeological": 41917,
  "coat": 31434,
  "ĠFULL": 34958,
  "ĠVeg": 8427,
  "gang": 28284,
  "ĠPaso": 39245,
  "Ġnull": 9242,
  "ĠDome": 31390,
  "hitting": 48320,
  "Ġknots": 33620,
  "Ġbonus": 7202,
  "Are": 8491,
  "Mis": 31281,
  "_____": 29343,
  "ĠCalled": 34099,
  "ographic": 6826,
  "ĠUV": 22033,
  "ĠGuest": 22358,
  "addons": 39996,
  "Ġdominion": 43866,
  "Http": 43481,
  "Ġadminister": 21766,
  "Ġstringent": 32791,
  "Ġhol": 6039,
  "Ġcleans": 20658,
  "Ġassures": 45837,
  "Ġfrustrating": 16655,
  "but": 4360,
  "Ġpeer": 12720,
  "Ġimprov": 37080,
  "cker": 15280,
  "ĠACE": 40488,
  "Ġeas": 1396,
  "Ġperpetuate": 43874,
  "ĠProposition": 44056,
  "Ġgenerously": 42088,
  "ĠOxford": 13643,
  "itaire": 26627,
  "Ġcombust": 27500,
  "dt": 28664,
  "Ġsv": 38487,
  "Ġproclamation": 39862,
  "Ġdeferred": 28651,
  "ĠBoard": 5926,
  "Â±": 22519,
  "ĠRah": 18655,
  "ĠFaculty": 35262,
  "Ġcorrosion": 41677,
  "Ġoccurs": 8833,
  "Ġdives": 46638,
  "Ġbystanders": 46652,
  "Ġmend": 47618,
  "ãĥĳ": 32546,
  "chair": 16337,
  "UCK": 16696,
  "ĠMillion": 23425,
  "Ġmeanwhile": 15066,
  "African": 43032,
  "Ġinvolving": 7411,
  "ranging": 32319,
  "fig": 5647,
  "ĠValue": 11052,
  "ĠRegina": 38739,
  "Beg": 24586,
  "rent": 1156,
  "hal": 14201,
  "ĠFo": 19434,
  "Ġcommem": 19512,
  "ĠAbedin": 39562,
  "Mania": 45844,
  "âģ": 46256,
  "inity": 6269,
  "Train": 44077,
  "Java": 29584,
  "lesi": 36027,
  "ĠMans": 18580,
  "Ġsnack": 26906,
  "Ġabout": 546,
  "ming": 2229,
  "ĠUsing": 8554,
  "ĠJe": 3852,
  "rolet": 33087,
  "oak": 15877,
  "ĠCarol": 5074,
  "Ġburst": 11173,
  "ĠGuantanamo": 34378,
  "izations": 4582,
  "Ep": 13807,
  "Ġopaque": 32191,
  "Ġbir": 35122,
  "anth": 29313,
  "Ġneighbour": 12250,
  "Ġsovereign": 18901,
  "Ġsimulator": 35375,
  "bitcoin": 35395,
  ">]": 37981,
  "Ġparaph": 38624,
  "85": 5332,
  "ĠGord": 39592,
  "Ġreinforcing": 40991,
  "ĠDelay": 42698,
  "represent": 15603,
  "Ġwaited": 13488,
  "ĠFib": 41566,
  "ĠSubjects": 43815,
  "Ġcircled": 48149,
  "imes": 999,
  "Ġempire": 13735,
  "Ġcardboard": 26819,
  "ĠRuk": 49037,
  "ĠWashington": 2669,
  "Fle": 47669,
  "ĠKurdish": 14845,
  "Ġ[];": 25787,
  "Ġ166": 26753,
  "ĠEnemies": 24364,
  "ĠZionism": 48394,
  "Ġthroughout": 3690,
  "Race": 35157,
  "ĠOccupy": 25551,
  "letter": 9291,
  "ĠUltimate": 11165,
  "ĠFerry": 42609,
  "ĠDriver": 12434,
  "Ġleases": 38522,
  "Ġsphere": 16558,
  "Ġfurthe": 46186,
  "Ġappeal": 5198,
  "Really": 26392,
  "Ġhairy": 43873,
  "lers": 8116,
  "ĠMalaysian": 30031,
  "Ġvoid": 7951,
  "Ġathletes": 10856,
  "Ġconsume": 15000,
  "Ġepit": 21240,
  "That": 2504,
  "Ġhallway": 23959,
  "CBC": 29208,
  "Ġaccepting": 12598,
  "ĠJudgment": 36969,
  "ĠDudley": 37198,
  "ĠRae": 41155,
  "ed": 276,
  "Ġtrop": 14673,
  "Ġordained": 36777,
  "ĠGal": 5027,
  "af": 1878,
  "Ġsung": 23568,
  "Ġtraditionally": 16083,
  "Ġ348": 44084,
  "Ġvalues": 3815,
  "Ġincre": 1253,
  "Ġpathological": 42306,
  "chief": 17351,
  "ĠInfo": 14151,
  "Ġblunt": 19861,
  "Ġneutrality": 20723,
  "gypt": 6022,
  "ĠFI": 18930,
  "ĠUNCLASSIFIED": 46222,
  "ĠUseful": 49511,
  "ĠSNP": 25632,
  "UNCH": 47461,
  "Ġbount": 49937,
  "Ġbedroom": 14043,
  "Put": 11588,
  "yrinth": 21324,
  "Ġdement": 24251,
  "Ġflowers": 12734,
  "Ġ;": 2162,
  "Ġobese": 20779,
  "Ġcalculate": 15284,
  "aunder": 21118,
  "ottest": 24879,
  "Ġpossessed": 17273,
  "Ġusable": 24284,
  "Ġsoldiers": 5795,
  "eu": 12496,
  "Ġpumped": 29104,
  "istration": 33397,
  "Ġinvoking": 39744,
  "aged": 1886,
  "ĠSend": 16290,
  "Lo": 27654,
  "Flash": 30670,
  "Ġanimals": 4695,
  "Ġshards": 39991,
  "Ġfluorescent": 42309,
  "Ġwiki": 22719,
  "Ġoun": 16103,
  "Ġdoes": 857,
  "orship": 11094,
  "1997": 21498,
  "ĠBean": 26510,
  "Ġtemptation": 29062,
  "Ġgam": 9106,
  "Ġdangerously": 33247,
  "Additionally": 23216,
  "rights": 28046,
  "ILY": 33340,
  "atham": 37520,
  "ĠPlayer": 7853,
  "ĠFuller": 31863,
  "FH": 44602,
  "ĠUltr": 46487,
  "ĠIssa": 47410,
  "Ġadvisory": 20852,
  "doors": 19559,
  "phthal": 48118,
  "Ġdwar": 15594,
  "Ġunanimous": 28085,
  "Ġdepartment": 5011,
  "seekers": 47971,
  "ique": 2350,
  "Ġnetworking": 19140,
  "ÃĥÃĤÃĥÃĤÃĥÃĤÃĥÃĤÃĥÃĤÃĥÃĤÃĥÃĤÃĥÃĤÃĥÃĤÃĥÃĤÃĥÃĤÃĥÃĤÃĥÃĤÃĥÃĤÃĥÃĤÃĥÃĤ": 23090,
  "Disclaimer": 19618,
  "ĠRitual": 35179,
  "ics": 873,
  "Introduced": 37143,
  "ĠMagicka": 44546,
  "ĠLenovo": 40269,
  "Ġgcc": 49582,
  "Ġdemocracy": 7996,
  "heric": 15011,
  "Ġouter": 12076,
  "Ġmodifying": 30620,
  "Ġoverwhelming": 9721,
  "Power": 13434,
  "ĠLeather": 27715,
  "Ġ\\(": 16792,
  "586": 29796,
  "ĠPurs": 34089,
  "Ġopting": 37529,
  "Hour": 43223,
  "Ġoverflowing": 43347,
  "Ġweigh": 10164,
  "ĠTenth": 44519,
  "ĠShang": 45797,
  "ided": 1384,
  "ivist": 30944,
  "âĹ¼": 48366,
  "Live": 18947,
  "Ġreck": 12482,
  "month": 8424,
  "ĠPanzer": 46294,
  "Hyp": 49926,
  "ThumbnailImage": 39142,
  "ĠShoot": 17011,
  "ĠSalv": 20332,
  "Ġgifts": 13201,
  "ĠSea": 6896,
  "ment": 434,
  "Ġscrut": 12054,
  "Ġpanic": 13619,
  "Ġdisappointing": 17185,
  "ortmund": 34876,
  "ĠBrick": 28347,
  "Ġglyphosate": 38329,
  "Ġfoil": 25501,
  "ĠWhatever": 15935,
  "Ġsums": 21784,
  "stadt": 38863,
  "oped": 19458,
  "Ġhomework": 26131,
  "Ġdeepening": 46539,
  "Ġtamp": 47039,
  "Ġsemantics": 33815,
  "ĠTokens": 47365,
  "Ġfooting": 32687,
  "aunting": 20706,
  "////////": 16150,
  "Os": 16748,
  "XXXX": 24376,
  "ĠAK": 15837,
  "aaaa": 24794,
  "ĠInnovation": 27724,
  "eligible": 31595,
  "Ġhamstring": 36744,
  "GO": 11230,
  "ĠTiger": 17030,
  "ategy": 4338,
  "ĠRav": 28146,
  "ĠChak": 46620,
  "Ġmultiplied": 33096,
  "×ŀ": 49168,
  "ĠSimilar": 11014,
  "Ġsending": 7216,
  "Ġagency": 4086,
  "ĠIM": 8959,
  "ĠFashion": 30958,
  "Loc": 33711,
  "going": 5146,
  "ĠSeverus": 41343,
  "ĠBrees": 46373,
  "Ġreceiver": 9733,
  "Ġpuzzles": 24367,
  "ĠPon": 50210,
  "Ġinteractive": 14333,
  "Ġnasal": 40829,
  "ĠKorea": 4969,
  "perhaps": 28998,
  "Ġemphasis": 12476,
  "ĠRaqqa": 30391,
  "Ġearth": 4534,
  "inspired": 24194,
  "ĠPAC": 16741,
  "ĠDiabetes": 39569,
  "internet": 37675,
  "Ġsimplistic": 35010,
  "Ġoffered": 4438,
  "Ġinequ": 11082,
  "Ġtrains": 13404,
  "Ġbanking": 11754,
  "<?": 47934,
  "Ġannexed": 49181,
  "Ġnested": 28376,
  "ĠRouge": 27478,
  "oat": 15073,
  "ĠCPUs": 32340,
  "ĠStat": 5133,
  "ĠAncients": 46966,
  "posts": 24875,
  "Ġprud": 25220,
  "Ġsher": 15059,
  "ĠAck": 36031,
  "Ġdiced": 48898,
  "berto": 32371,
  "ĠModi": 14637,
  "Ġcourier": 48934,
  "ĠSpeaker": 14931,
  "ĠGoodell": 41648,
  "ifle": 8316,
  "supported": 15999,
  "Ġinexper": 31830,
  "Ġgrowth": 3349,
  "Ġinterested": 4609,
  "Ġpitches": 22421,
  "needed": 27938,
  "ĠDeck": 20961,
  "Ġreturning": 8024,
  "vc": 28435,
  "Allen": 39989,
  "Ġsalad": 20698,
  "Ġopium": 40299,
  "athi": 44202,
  "call": 13345,
  "ĠCHR": 32567,
  "Ġot": 30972,
  "pport": 4926,
  "Ġrobbery": 18609,
  "Ġresisting": 28943,
  "Ġcoffin": 30834,
  "Ġscratched": 37468,
  "annel": 4276,
  "ĠQuÃ©": 46345,
  "ĠSPI": 49091,
  "Ġproport": 7601,
  "Ġaxes": 34197,
  "Ġscanning": 21976,
  "ĠScrew": 42147,
  "ĠReader": 25342,
  "{": 90,
  "Ġadaptation": 16711,
  "Rule": 31929,
  "Ġdearly": 46379,
  "inge": 11912,
  "Chuck": 44324,
  "Ġpolymorph": 34196,
  "uctions": 20847,
  "×": 147,
  "ĠID": 4522,
  "answer": 41484,
  "Ġdictatorship": 26457,
  "Ġpaper": 3348,
  "scape": 6794,
  "Ġcum": 10973,
  "ĠLair": 15067,
  "ãģ¦": 28134,
  "Ġsidel": 33614,
  "Ġ329": 42141,
  "ĠHash": 21059,
  "ĠDonn": 48007,
  "ĠCollider": 50253,
  "Ġcolumn": 5721,
  "Ġdi": 2566,
  "hh": 12337,
  "access": 15526,
  "major": 22478,
  "Ġfue": 37911,
  "Hon": 29478,
  "amine": 9862,
  "ĠEternity": 33410,
  "Ġintended": 5292,
  "FL": 3697,
  "Ġprocessing": 7587,
  "Ġashore": 45817,
  "ĠðŁĺ": 30325,
  "cutting": 29753,
  "ĠLaurel": 43442,
  "ĠDish": 33275,
  "Ġcombined": 5929,
  "ĠPatty": 42417,
  "Ġworth": 2861,
  "Ġaccuser": 43738,
  "ington": 9557,
  "Ġposition": 2292,
  "kg": 10025,
  "Ġcelebration": 14395,
  "ĠHos": 30789,
  "Ġexplains": 6688,
  "gel": 25280,
  "ĠSemi": 35525,
  "ĠHenri": 44485,
  "ĠCharg": 14797,
  "ĠMeasure": 24291,
  "Ġvariance": 24198,
  "886": 44980,
  "Ġfrontline": 44956,
  "Ġnan": 15709,
  "Ġlight": 1657,
  "election": 14300,
  "rouse": 46494,
  "Ġhopping": 47153,
  "ensible": 27339,
  "Ġgal": 9426,
  "Ġhacker": 23385,
  "Ġsinful": 44858,
  "Ġdiameter": 14753,
  "Ġthis": 428,
  "ety": 2963,
  "Ġconvey": 13878,
  "Ø§": 12919,
  "ĠProv": 7518,
  "Ġlam": 30592,
  "Rank": 27520,
  "Arch": 19895,
  "ĠActivate": 33120,
  "Ġimpairment": 23992,
  "Ġtossing": 37432,
  "kus": 45614,
  "ZI": 48926,
  "ugh": 6724,
  "Ġpsychologists": 30842,
  "Ġturbine": 36489,
  "ĠEF": 33685,
  "ĠGary": 10936,
  "Ġcyber": 10075,
  "ptr": 20692,
  "Ġremake": 28763,
  "ĠPARK": 42358,
  "OG": 7730,
  "ĠBruce": 11088,
  "STRUCT": 46126,
  "Ġwording": 26814,
  "licted": 17823,
  "Ġinterruption": 41728,
  "ĠPryor": 45350,
  "Ġcorrectional": 49187,
  "ĠTiffany": 40928,
  "ĠGermans": 16064,
  "Ġweakest": 34968,
  "ĠDirectX": 37017,
  "erver": 18497,
  "Ġsearching": 10342,
  "Ġselling": 6301,
  "Charges": 36970,
  "Ġshouting": 19642,
  "Ġways": 2842,
  "Ġopioid": 23039,
  "ĠRhodes": 25656,
  "Ġfailed": 4054,
  "Ġxp": 36470,
  "mits": 24883,
  "Ġdissertation": 46793,
  "Ġconsent": 8281,
  "'": 6,
  "Lie": 47918,
  "ĠRip": 29496,
  "Ġsocioeconomic": 34406,
  "Ġaur": 45714,
  "office": 31810,
  "mson": 24996,
  "Ġfram": 5346,
  "Ġassessing": 24171,
  "ĠMou": 49902,
  "Sweet": 36087,
  "ĠServe": 35557,
  "ĠScandinav": 29410,
  "Tes": 36504,
  "Ġvascular": 39495,
  "ĠCLIENT": 45148,
  "Ġappointed": 9899,
  "Ġinitial": 4238,
  "Ġdelicious": 12625,
  "ĠEnc": 14711,
  "ĠHearts": 20592,
  "sudo": 24032,
  "ademic": 49113,
  "Ġholiday": 9912,
  "erences": 4972,
  "Ġartic": 17251,
  "ll": 297,
  "PO": 16402,
  "().": 22446,
  "Visit": 31141,
  "Ġillegitimate": 41368,
  "Ġfees": 6642,
  "Ġfatalities": 30091,
  "Ġcomprom": 8382,
  "OUN": 19385,
  "Ġmileage": 33935,
  "ĠWarning": 15932,
  "Ġaccusing": 19786,
  "episode": 38668,
  "Ġfactors": 5087,
  "Ġcolonization": 40337,
  "Ġlady": 10846,
  "fecture": 36637,
  "ĠShar": 15465,
  "Ġsucceeds": 31137,
  "Ġencounter": 8791,
  "ĠOrange": 11942,
  "ĠDaesh": 40935,
  "Ġsche": 3897,
  "Ġnothing": 2147,
  "ø": 180,
  "ĠMad": 4627,
  "Ġkeynote": 37332,
  "ĠProcessing": 28403,
  "ĠYus": 41749,
  "meier": 49468,
  "arer": 11258,
  "Ġdifferentiate": 28754,
  "Ġyielded": 26403,
  "ĠFresno": 39927,
  "!'": 13679,
  "ĠSparkle": 41614,
  "ĠClojure": 43848,
  "itability": 34147,
  "ĠTape": 40849,
  "ohl": 48988,
  "Ġbuildings": 6832,
  "ĠJohnny": 15470,
  "ĠFord": 8092,
  "ĠCavaliers": 29411,
  "Ġbrethren": 29644,
  "ĠiPhones": 33845,
  "Conn": 37321,
  "Ġunbelievable": 24479,
  "Ġframeworks": 29251,
  "EY": 22348,
  "Ġretention": 21545,
  "Thread": 16818,
  "ĠCompanion": 30653,
  "ĠBalt": 9035,
  "Ġdefiant": 36219,
  "machine": 30243,
  "Tr": 2898,
  "ĠDun": 5648,
  "ĠProgressive": 25852,
  "Ġclen": 38566,
  "friends": 36154,
  "abeth": 9407,
  "quire": 29782,
  "ĠCable": 20249,
  "Ġ+#": 43053,
  "ense": 1072,
  "ĠAnti": 12297,
  "anna": 7697,
  "otent": 33715,
  "ĠModule": 19937,
  "estyle": 10992,
  "nr": 48624,
  "ĠPhilipp": 9844,
  "Listener": 33252,
  "olan": 16617,
  "Ġconcept": 3721,
  "lymp": 6760,
  "Ġ>>": 9609,
  "Ġæ": 10545,
  "Ġpuzzle": 15027,
  "Ġfide": 43340,
  "Ġmastering": 45116,
  "ysical": 15380,
  "Ġpython": 21015,
  "ĠSuit": 28871,
  "what": 10919,
  "Ġfisher": 17685,
  "*": 9,
  "Ġutilize": 17624,
  "ĠCS": 9429,
  "ĠAsk": 16981,
  "itled": 7803,
  "ĠSilicon": 18210,
  "Ġbreeds": 29580,
  "Ġbloggers": 30357,
  "Ġsetting": 4634,
  "atile": 12610,
  "Ġrotating": 24012,
  "ored": 1850,
  "ĠHumans": 27411,
  "ĠMale": 12674,
  "ĠLenin": 22899,
  "Ġinactive": 28621,
  "ĠVand": 35464,
  "Und": 31319,
  "Ġlikeness": 35674,
  "Recomm": 24898,
  "Ġbackups": 35872,
  "Ġnotorious": 18192,
  "ĠPicard": 36614,
  "ĠArchbishop": 36746,
  "Ġimmersed": 37970,
  "Accept": 38855,
  "ä½ľ": 43291,
  "Ġpractically": 14547,
  "ĠShy": 36838,
  "heny": 47413,
  "Ïģ": 33643,
  "k": 74,
  "HAEL": 47452,
  "Ġnumbering": 47622,
  "ĠYouth": 17582,
  "warming": 48133,
  "Ġcherish": 48303,
  "ĠRaj": 13308,
  "Ġships": 7937,
  "IED": 19767,
  "ĠReneg": 41261,
  "ĠMuller": 47508,
  "Ġsettlements": 18573,
  "Ġtransferring": 26140,
  "Äĩ": 38325,
  "Ġcryptography": 45898,
  "pointers": 47809,
  "029": 48891,
  "ĠYing": 38833,
  "Ġredemption": 26831,
  "Ġretain": 12377,
  "Ġtotaled": 39398,
  "ĠJoseph": 7212,
  "ĠBiological": 32827,
  "ĠActivision": 40723,
  "super": 16668,
  "Ġpremier": 18256,
  "ĠCOMP": 24301,
  "Ye": 35543,
  "Ġassessed": 15276,
  "ĠProduction": 19174,
  "Ġassisting": 26508,
  "ĠFounding": 44593,
  "Ġ@": 2488,
  "Ġcenterpiece": 44595,
  "ĠOilers": 35004,
  "Ġflexible": 12846,
  "Ġrabbi": 47326,
  "ĠSheila": 49627,
  "lihood": 11935,
  "Ġcircular": 18620,
  "Ġconfessed": 25623,
  "ĠConcert": 39220,
  "ĠPrepar": 38397,
  "ĠQuint": 33405,
  "ĠMickey": 27232,
  "IES": 11015,
  "257": 28676,
  "aled": 3021,
  "59": 3270,
  "Ġadults": 6490,
  "exe": 13499,
  "many": 21834,
  "Ġdripping": 37472,
  "me": 1326,
  "ĠNiet": 28428,
  "ĠBalk": 29643,
  "OM": 2662,
  "Ġexclaim": 48775,
  "ĠOM": 32468,
  "ĠDestroyer": 30414,
  "Ġswitches": 18225,
  "Cook": 28937,
  "ĠGuru": 38749,
  "vious": 1442,
  "Ġramifications": 36093,
  "Ġstockpile": 45360,
  "Ġwebpage": 35699,
  "Ġpilgr": 23177,
  "Ġstir": 11240,
  ")*": 27493,
  "ĠLil": 16342,
  "romeda": 32291,
  "JC": 34382,
  "ĠFemin": 25832,
  "ĠBaldwin": 26402,
  "TPP": 31435,
  "crew": 42276,
  "Ġextracts": 32139,
  "Ġcafeteria": 43075,
  "Ġpayments": 7524,
  "Ġsteals": 28052,
  ">,": 22330,
  "Ġsystemd": 31490,
  "Ġelementary": 19823,
  "ĠMario": 10682,
  "Ġbooked": 21765,
  "otos": 14163,
  "ĠMysteries": 28298,
  "egal": 39839,
  "428": 40173,
  "Ġwarrant": 8084,
  "beck": 27343,
  "often": 28950,
  "ĠLTD": 42513,
  "ua": 6413,
  "phy": 6883,
  "Ġuses": 3544,
  "Client": 11792,
  "Ġskate": 22647,
  "ĠEating": 37537,
  "Ġtherapists": 39395,
  "Ġshedding": 39543,
  "Ġcares": 16609,
  "Ġgran": 19468,
  "ageddon": 33054,
  "ĠInform": 45255,
  "ĠSocket": 47068,
  "ĠPROT": 48006,
  "ĠGron": 40214,
  "ĠWeld": 45156,
  "ĠRNC": 37570,
  "ĠEntry": 21617,
  "ractive": 35587,
  "Ġaversion": 41608,
  "Ġdetermine": 5004,
  "PRESS": 32761,
  "ĠAS": 7054,
  "Republicans": 28455,
  "ikawa": 40398,
  "ociate": 47615,
  "ĠFIR": 23703,
  "akh": 11322,
  "Ġmedia": 2056,
  "ĠMesa": 26670,
  "Ġbro": 1379,
  "ĠIvy": 27386,
  "align": 31494,
  "Ġexporting": 39133,
  "ensable": 33447,
  "ĠAthe": 27751,
  "409": 29416,
  "ĠOlsen": 39148,
  "Hung": 39505,
  "Ġforth": 6071,
  "Ġbudding": 44194,
  "washer": 45146,
  "ext": 2302,
  "initial": 36733,
  "Ġincub": 25543,
  "Ġpiping": 48426,
  "Wikipedia": 48845,
  "etheus": 36916,
  "Mur": 23830,
  "ADS": 47149,
  "Ġ10000": 33028,
  "Ġaph": 49812,
  "ottesville": 23806,
  "Ġcomet": 31733,
  "Reloaded": 36726,
  "Material": 17518,
  "berman": 34591,
  "Ġplaque": 35127,
  "Ġcascade": 44847,
  "rared": 25122,
  "Ġtable": 3084,
  "Ġoutl": 41528,
  "ĠSkin": 17847,
  "Ġbracket": 19096,
  "ĠMetall": 35616,
  "antasy": 34921,
  "ĠLafayette": 41388,
  "Ġspurious": 49062,
  "ĠAfric": 3295,
  "ollar": 13228,
  "TT": 15751,
  "Ġempower": 17549,
  "Ġindie": 19907,
  "yers": 21200,
  "Streamer": 28696,
  "02": 2999,
  "Ġdistricts": 12815,
  "Six": 21447,
  "ĠDept": 28786,
  "Ġrevoked": 30809,
  "ĠNoise": 30964,
  "icycle": 35298,
  "Spec": 22882,
  "ĠCoin": 16312,
  "ĠSomehow": 36651,
  "Ġreceiving": 6464,
  "rons": 12212,
  "Their": 14574,
  "ĠTottenham": 24272,
  "Ġrapp": 29106,
  "Ġdime": 37062,
  "Ġbehaves": 39341,
  "Ġoccasions": 12432,
  "Ġautomate": 43511,
  "Ġpo": 745,
  "Ġkeeping": 5291,
  "att": 1078,
  "ĠChase": 16346,
  "Federal": 24099,
  "ĠSher": 6528,
  "Ġreusable": 42339,
  "edar": 44226,
  "Ġrestraints": 45369,
  "Ġless": 1342,
  "Production": 35027,
  "ĠSuzanne": 45587,
  "attacks": 38458,
  "Ġmenu": 6859,
  "Ġconclud": 5392,
  "Ġarcane": 34362,
  "Ġoffsets": 49005,
  "Ġsacrificing": 32698,
  "Ġ372": 46633,
  "Ġnesting": 46282,
  "Ġcolor": 3124,
  "tt": 926,
  "Ġinherently": 20108,
  "Ġsoon": 2582,
  "Ġindex": 6376,
  "Ġ1890": 31982,
  "Ġheavy": 4334,
  "ĠShows": 25156,
  "Ġaccident": 5778,
  "na": 2616,
  "Ġrelatively": 5365,
  "IT": 2043,
  "ĠChicken": 16405,
  "rophic": 18191,
  "ĠAbstract": 27741,
  "Ġcircumvent": 33256,
  "Ġrevert": 34052,
  "Ġmicroscope": 36396,
  "fax": 23560,
  "į": 235,
  "OD": 3727,
  "Ġcubic": 27216,
  "Ġ+---": 40703,
  "ĠInquisitor": 46741,
  "ĠSagan": 49381,
  "Ġstrengthens": 49286,
  "Ġscourge": 50185,
  "52": 4309,
  "Ġdenounced": 26443,
  "Ġanticipated": 14486,
  "omm": 2002,
  "ĠMedical": 8366,
  "ĠCollections": 50004,
  "Ġpoisoned": 29419,
  "ĠJuno": 49458,
  "ĠPJ": 44941,
  "Ġbanished": 43926,
  "1969": 38391,
  "Ġgroup": 1448,
  "session": 29891,
  "Ġmunicip": 11076,
  "Ġconstitution": 11784,
  "Ġcavern": 33932,
  "Isa": 39443,
  "ĠCooper": 10382,
  "Ġawe": 25030,
  "--------------": 26171,
  "Ġgulf": 41593,
  "Store": 22658,
  "Ġshame": 10195,
  "Ġsecret": 3200,
  "Ġliberties": 22008,
  "ishment": 17862,
  "ĠRay": 7760,
  "Ġabroad": 10522,
  "ĠPartners": 14205,
  "Ġderogatory": 44094,
  "oston": 5744,
  "ĠCinema": 31535,
  "Ġrevelations": 19111,
  "blocking": 41938,
  "Normally": 43625,
  "Ġproduce": 4439,
  "hetic": 6587,
  "Ġmonitoring": 9904,
  "Ġwrest": 10419,
  "Ġpromotional": 18767,
  "Ġeccentric": 29303,
  "endo": 31110,
  "/)": 34729,
  "Ġmoratorium": 41772,
  "ĠEsper": 42083,
  "ĠPutting": 39956,
  "Ġrich": 5527,
  "rast": 5685,
  "ITT": 22470,
  "Ġbailout": 29928,
  "Ġtipping": 31639,
  "Ġessays": 27126,
  "paces": 43076,
  "Ġadventurous": 39770,
  "(-": 32590,
  "Ġcanoe": 47434,
  "ol": 349,
  "lled": 3353,
  "ĠCrown": 12223,
  "Ġintricate": 28746,
  "iminary": 38429,
  "Ġplung": 41904,
  "ordan": 7350,
  "Ġtaco": 47884,
  "Ġcooked": 15847,
  "ĠZhao": 29436,
  "Ġcolorful": 20239,
  "ĠMeasures": 45040,
  "ĠResp": 10328,
  "Ġmeg": 17243,
  "Ġ2": 362,
  "Ġpulled": 5954,
  "country": 19315,
  "Ġcites": 23474,
  "ĠORDER": 38678,
  "Ġgrip": 11762,
  "Ñ": 141,
  "Ġfutures": 25650,
  "ynam": 4989,
  "Ġcrisp": 23453,
  "Ġparach": 31852,
  "Ġadolescence": 37258,
  "Ġheavyweight": 32489,
  "Ġsweater": 35685,
  "Given": 15056,
  "311": 36244,
  "ĠVer": 4643,
  "lication": 10142,
  "ĠTraditional": 29065,
  "Ġinspect": 10104,
  "Ġdiagnosis": 13669,
  "Ġenters": 14170,
  "Ġindigenous": 17673,
  "Ġcou": 2284,
  "ouston": 6526,
  "ĠEngel": 46073,
  "Ġtook": 1718,
  "Ġsq": 19862,
  "ĠCrowley": 35332,
  "soType": 39803,
  "flag": 32109,
  "Ġfortune": 15807,
  "afety": 27925,
  "ĠExperimental": 32286,
  "ĠAvenger": 45270,
  "ĠsrfAttach": 43065,
  "Ġsolo": 12199,
  "Ġshutting": 25136,
  "Ġtempted": 26194,
  "largest": 28209,
  "Rev": 18009,
  "1982": 30763,
  "Ġaesthetics": 35431,
  "Ġpersuasion": 41784,
  "Ġagriculture": 14510,
  "Ġ29": 2808,
  "Ġnitrogen": 23417,
  "ĠCareer": 32619,
  "Fort": 21926,
  "ĠGovernments": 40343,
  "Ġhom": 3488,
  "amy": 14814,
  "Ġintegrity": 11540,
  "ĠTreat": 11217,
  "Ġranged": 17929,
  "202": 19004,
  "Ġplaintiffs": 21880,
  "asser": 24929,
  "ĠScrolls": 28859,
  "Ġconvenience": 15607,
  "ĠFore": 4558,
  "Ġachievements": 16970,
  "VERS": 28884,
  "ĠWM": 30376,
  "Ġtechnicians": 33519,
  "ĠAshes": 34143,
  "What": 2061,
  "Ġgenius": 15632,
  "Ã¨": 14064,
  "ĠBuffy": 27438,
  "ĠCory": 28785,
  "Any": 7149,
  "Ġdoor": 3420,
  "ary": 560,
  "Ġaccum": 10507,
  "Ġsunglasses": 36251,
  "ĠUTC": 18119,
  "ITIES": 30383,
  "ĠBlanc": 37544,
  "pun": 35512,
  "ĠGrant": 12181,
  "Ġfir": 37979,
  "Ġremind": 7101,
  "Ġcontemplating": 38048,
  "ĠOwl": 37007,
  "ĠTrails": 40076,
  "Ġrepay": 20152,
  "Ġ325": 29524,
  "Ġ630": 44505,
  "Ġindices": 36525,
  "Ġconvoluted": 47370,
  "ĠRx": 49715,
  "Ġlaps": 24590,
  "tr": 2213,
  "insula": 16495,
  "ĠExplore": 41401,
  "anche": 6362,
  "SQL": 17861,
  "ĠGong": 47142,
  "ĠVenezuelan": 34497,
  "ĠJr": 7504,
  "ĠMH": 20752,
  "ĠGET": 17151,
  "Ġhandwriting": 44396,
  "ĠSurvivors": 45998,
  "Ġzoo": 26626,
  "Ġshar": 13986,
  "acco": 8679,
  "galitarian": 39907,
  "ĠScourge": 43238,
  "Ġsubstituted": 31601,
  "urances": 31741,
  "Ġfined": 22643,
  "ĠDems": 32123,
  "LC": 5639,
  "Ġmandate": 14598,
  "IFT": 32297,
  "oss": 793,
  "Ġmask": 9335,
  "Ġidentification": 11795,
  "Ġtablets": 17255,
  "Ġstrengths": 18929,
  "Ġlisting": 13487,
  "Ġthief": 25906,
  "Ġgrief": 18522,
  "auts": 17712,
  "Ġspe": 693,
  "isle": 20919,
  "ĠCathedral": 32536,
  "KK": 16601,
  ")]": 15437,
  "ĠGF": 34977,
  "DOC": 38715,
  "apist": 41690,
  "Ent": 14539,
  "ountain": 18635,
  "ishable": 31785,
  "ĠDusk": 42553,
  "Ġrailways": 45247,
  "natural": 11802,
  "Blake": 37849,
  "Ġcous": 13233,
  "Ġupholding": 46004,
  "Ġadjusts": 46094,
  "pheus": 46421,
  "Exactly": 47173,
  "Ġevict": 49397,
  "Ġsheltered": 49448,
  "ĠAo": 27378,
  "span": 12626,
  "ĠSel": 15300,
  "ĠYosemite": 43188,
  "yssey": 23784,
  "ĠMult": 7854,
  "ĠSpike": 26309,
  "atively": 9404,
  "noticed": 31696,
  "Ġbumper": 32228,
  "Ġfacts": 6419,
  "Ġflourishing": 46240,
  "00007": 44808,
  "Ġ/**": 42638,
  "Ġestablishes": 30742,
  "ĠGuides": 48770,
  "eder": 5702,
  "Ġfisheries": 41440,
  "Ġ[-": 25915,
  "Ġproverb": 36950,
  "Ġbuddies": 35548,
  "software": 43776,
  "ĠTransactions": 46192,
  "Ġtrainer": 21997,
  "Ê": 134,
  "ĠLegend": 9883,
  "omo": 17902,
  "ĠCongressman": 30700,
  "))": 4008,
  "SN": 15571,
  "Ġembed": 11525,
  "shit": 16211,
  "ĠFinding": 27063,
  "ĠPrison": 16999,
  "Ġteased": 35380,
  "ĠGors": 34926,
  "Ġmocking": 31202,
  "Kay": 37247,
  "ĠNorse": 38419,
  "Ġcanopy": 39418,
  "ĠE": 412,
  "ĠAlpha": 12995,
  "Ġrede": 21459,
  "Ġreleg": 24542,
  "asper": 32981,
  "Ġmodelling": 38591,
  "ĠCout": 40253,
  "userc": 43298,
  "mini": 45313,
  "ĠSiberia": 41515,
  "Ġgloomy": 46400,
  "Ġaccounting": 14317,
  "ĠKind": 14927,
  "Ġ[&": 49082,
  "Georg": 33428,
  "Ġban": 3958,
  "Combat": 38667,
  "ĠConsolid": 43419,
  "write": 13564,
  "ĠClaims": 36880,
  "ora": 5799,
  "Ġengaged": 7953,
  "Russia": 16347,
  "Ġunless": 4556,
  "ĠAffect": 36931,
  "ĠKeeping": 33311,
  "query": 22766,
  "avascript": 16098,
  "ricanes": 24881,
  "Ġcourageous": 34010,
  "ĠJames": 3700,
  "ĠGul": 23472,
  "ãģ¾": 30159,
  "Ġhugs": 40657,
  "Ġtransistor": 49176,
  "Ġconflicts": 12333,
  "Cash": 35361,
  "ĠZam": 38343,
  "ĠLobby": 35068,
  "ĠGovernor": 10807,
  "ĠTang": 18816,
  "Ġoptional": 11902,
  "Ġsimultaneously": 11640,
  "Ġrunning": 2491,
  "\\\\\\\\\\\\\\\\": 21807,
  "_{": 23330,
  "autions": 28766,
  "Ġregarding": 5115,
  "Ġloosely": 28845,
  "brother": 37343,
  "Ġstabil": 14349,
  "ĠStar": 2907,
  "Ġinconvenient": 37513,
  "igree": 41233,
  "Fif": 44403,
  "Ġbeats": 17825,
  "Ġmundane": 30741,
  "Ġjuicy": 35075,
  "Inst": 6310,
  "infect": 27816,
  "Ġgrounds": 9384,
  "Ġmisinterpret": 40882,
  "Ġmissing": 4814,
  "handed": 13638,
  "Ġparticulars": 45596,
  "ittal": 39979,
  "Through": 15046,
  "ĠLenn": 28423,
  "Ġimpecc": 45707,
  "âĢĶâĢĶ": 4500,
  "Ġpresc": 10859,
  "renheit": 34032,
  "Ġmultif": 43543,
  "Ġunrest": 17093,
  "Ġdirected": 7924,
  "Ġacross": 1973,
  "ĠSug": 13691,
  "initialized": 17532,
  "ECT": 9782,
  "Ġmotions": 25530,
  "Ġcollide": 46592,
  "itri": 49510,
  "Ġsubmarines": 34031,
  "aff": 2001,
  "Ġinterval": 16654,
  "Ġplots": 21528,
  "Ġdaytime": 32899,
  "ĠTrey": 36085,
  "ĠScarlet": 26620,
  "Ġadorned": 41860,
  "Developer": 45351,
  "odan": 45561,
  "Ġtroopers": 38817,
  "Ġanatomical": 48631,
  "Ġexpected": 2938,
  "ĠNEXT": 39726,
  "Ġemailed": 24315,
  "Ġdecent": 7709,
  "Ingredients": 41222,
  "ĠHarding": 45732,
  "pub": 12984,
  "Ġdeveloping": 5922,
  "Ġundoubtedly": 17713,
  "Ġnavig": 20436,
  "omez": 30010,
  "NVIDIA": 38021,
  "Ġvetoed": 49581,
  "Ġphilos": 5622,
  "Ġassumes": 18533,
  "similar": 38610,
  "Ġpulse": 19445,
  "ĠPin": 13727,
  "game": 6057,
  "Ġprincipally": 41889,
  "EStreamFrame": 43177,
  "Ġrestructuring": 32324,
  "Ġsaid": 531,
  "Ġeagle": 31176,
  "foo": 21943,
  "ĠCrim": 9822,
  "Email": 15333,
  "ĠSally": 25737,
  "Ġstorefront": 45527,
  "ĠCanyon": 22099,
  "Forward": 39746,
  "Ġreligion": 5737,
  "isible": 12843,
  "eking": 18754,
  "piracy": 8703,
  "Ġemphasized": 20047,
  "Ġpod": 24573,
  "Ġ2050": 32215,
  "Ġretard": 42964,
  "!\".": 48220,
  "holders": 10476,
  "ĠFerdinand": 44312,
  "nery": 35865,
  "Ġcarp": 39465,
  "Ġturn": 1210,
  "allow": 12154,
  "Ġasylum": 13142,
  "gement": 16025,
  "ĠTwice": 41217,
  "arts": 5889,
  "Ġ2006": 4793,
  "ĠSexual": 19536,
  "Ġpaternal": 38082,
  "Ġunsafe": 21596,
  "Ġsubtract": 34128,
  "Ġcontemporary": 11811,
  "Bet": 13056,
  "Ġbe": 307,
  "Ġlol": 19462,
  "uggle": 33498,
  "ĠWas": 8920,
  "Ġlavish": 38957,
  "WH": 12418,
  "demand": 28550,
  "ĠValkyrie": 23620,
  "Ġresponsibilities": 15171,
  "istrate": 28534,
  "Ġobjects": 5563,
  "classes": 37724,
  "ĠAbdullah": 26804,
  "TL": 14990,
  "ynasty": 19488,
  "sts": 6448,
  "Ġendpoint": 36123,
  "Ġentert": 14472,
  "ĠBorg": 29004,
  "Administ": 41862,
  "Ġhovering": 33627,
  "ussy": 14650,
  "Battle": 24064,
  "Ġmitigate": 24237,
  "949": 48581,
  "Ġbox": 3091,
  "Ġpromised": 8072,
  "mberg": 47369,
  "ĠDivision": 7458,
  "ĠGods": 15391,
  "157": 18458,
  "Ġmind": 2000,
  "ĠGriff": 12222,
  "uzz": 4715,
  "Ġcmd": 23991,
  "Ġcorruption": 9253,
  "ĠIk": 32840,
  "Phil": 18673,
  "ĠMilton": 30979,
  "Ġcompiling": 33393,
  "ordial": 31223,
  "Ġrecounted": 34187,
  "Ġcontestants": 37851,
  "ĠTheme": 26729,
  "paragraph": 20360,
  "ĠBert": 22108,
  "ahead": 38204,
  "abbling": 47883,
  "Bug": 25624,
  "ĠLater": 11450,
  "ĠWellington": 30597,
  "Start": 10434,
  "Ġbriefs": 50011,
  "greg": 9903,
  "withstanding": 20701,
  "Ãį": 38638,
  "skinned": 41412,
  "Ġdivide": 14083,
  "Ġreproduce": 22919,
  "htaking": 34148,
  "Moore": 40049,
  "Ġsoap": 19533,
  "Ġbreaker": 46408,
  "427": 42363,
  "?": 30,
  "Ġmag": 2153,
  "Ġknowing": 6970,
  "ĠAnalysis": 14691,
  "Ġproteins": 15568,
  "ri": 380,
  "Ġshootings": 17690,
  "ç": 163,
  "Ġcontrol": 1630,
  "ĠKenny": 22102,
  "195": 22186,
  "ĠEdward": 10443,
  "ocolate": 9140,
  "Ġtorture": 11543,
  "ĠVAT": 32313,
  "Ġautobi": 33136,
  "Com": 5377,
  "Ġaccusations": 14227,
  "ĠManning": 15281,
  "ĠKa": 11611,
  "Ġformations": 30648,
  "ormonal": 33792,
  "Ġthing": 1517,
  "Ġprey": 15974,
  "arded": 10676,
  "ĠAltern": 13243,
  "omer": 12057,
  "Ġaugmented": 30259,
  "oos": 16426,
  "_-_": 31386,
  "Ġdisabling": 34909,
  "ĠConsult": 21651,
  "ĠMixed": 35250,
  "Ġintim": 10683,
  "ĠYears": 13212,
  "Ġ1987": 12923,
  "ĠPortal": 25663,
  "ĠGiles": 37538,
  "ĠAttention": 47406,
  "Ġintensify": 47697,
  "Ġslams": 45846,
  "Ġflaming": 39518,
  "Ġevident": 10678,
  "Ġacqu": 4078,
  "ĠCommerce": 16127,
  "Ġironic": 25304,
  "ixie": 39291,
  "Ġmelancholy": 47886,
  "Cs": 32274,
  "Ġversus": 9051,
  "Ġnoticeably": 33752,
  "ĠBoise": 38830,
  "ĠOption": 16018,
  "locked": 24162,
  "omorphic": 46374,
  "ometry": 15748,
  "Ġtrusted": 13467,
  "ĠPikachu": 38755,
  "Short": 16438,
  "Ġtouched": 12615,
  "éŃĶ": 20804,
  "Tree": 27660,
  "ainment": 37091,
  "ĠPatton": 40929,
  "ĠHutchinson": 43792,
  "ĠQuote": 19879,
  "ORT": 9863,
  "Ġnominees": 26456,
  "Ġprotect": 1805,
  "ste": 4169,
  "782": 46519,
  "of": 1659,
  "ĠBriggs": 44630,
  "interpret": 27381,
  "ĠShaman": 34805,
  "Ġpleasures": 35396,
  "Ġwors": 24476,
  "Ġplayful": 34264,
  "Ġstating": 12316,
  "ĠHue": 31788,
  "ĠLA": 9131,
  "Ġmonkey": 21657,
  "528": 49351,
  "ĠEaton": 48471,
  "Availability": 29841,
  "Feel": 35114,
  "ĠTsu": 23459,
  "Ġestablishments": 33228,
  "Ġcounters": 21154,
  "Hill": 36369,
  "åĨ": 37863,
  "Ġsubjective": 19088,
  "Ġflat": 6228,
  "ĠDamage": 8995,
  "Ġcensus": 21649,
  "Ġpenetrated": 41847,
  "arget": 7641,
  "Aust": 15160,
  "using": 3500,
  "ĠScient": 9898,
  "ĠPorter": 20890,
  "275": 23195,
  "ĠLeonard": 20131,
  "Ġyacht": 43207,
  "ĠDroid": 46546,
  "Ġvocals": 25355,
  "Ġvicinity": 25980,
  "Ġuser": 2836,
  "Ġ27": 2681,
  "Ġtransgender": 10637,
  "Ġcultures": 13817,
  "Ġnotifications": 19605,
  "resistant": 26128,
  "Ġmenace": 36292,
  "Clark": 43250,
  "ĠGetty": 7136,
  "ersed": 20204,
  "Ġacknow": 5571,
  "Ġexplorers": 45531,
  "Defense": 27300,
  "ĠLoot": 29970,
  "Ġguarantees": 19026,
  "ĠOrganizations": 41846,
  "ĠRuler": 31808,
  "Ġunstable": 21354,
  "aku": 8719,
  "Ġviolet": 45725,
  "cur": 22019,
  "Every": 6109,
  "Ġfant": 5113,
  "Ġchatting": 32046,
  "Ġpuls": 22271,
  "ĠFake": 33482,
  "ĠKes": 40679,
  "ĠFighter": 15411,
  "ansson": 44038,
  "ELS": 37142,
  "ĠAVG": 35224,
  "Ġsustainable": 13347,
  "Ġaggregate": 19406,
  "Ġshaped": 14292,
  "Ġgum": 27142,
  "ĠGeneric": 42044,
  "isin": 45763,
  "Ġavail": 29107,
  "Ġproofs": 39197,
  "Ġinqu": 7949,
  "ĠCowboys": 16535,
  "Ġbowling": 33564,
  "rossover": 23954,
  "Ġwatershed": 42640,
  "Jam": 30380,
  "strength": 41402,
  "Ġminus": 20208,
  "Specific": 32419,
  "ĠUnch": 34867,
  "ise": 786,
  "ĠSuper": 3115,
  "jury": 21871,
  "kee": 11035,
  "ĠTr": 833,
  "Ġentertain": 8204,
  "Ġpopul": 16595,
  "Ġ1900": 21489,
  "makers": 6620,
  "Ġclever": 14169,
  "Ġsrc": 12351,
  "Ġpremiere": 19245,
  "Ġapologized": 22893,
  "Grand": 23581,
  "Stats": 29668,
  "IFF": 29267,
  "aptop": 45007,
  "Ġship": 4074,
  "ĠDevi": 47509,
  "ĠQuincy": 46884,
  "ĠClimate": 13963,
  "Ġnefarious": 42079,
  "Ġenough": 1576,
  "oon": 2049,
  "58": 3365,
  "Ġplag": 19640,
  "Ġhandguns": 38060,
  "Ġresignation": 18525,
  "ĠLegions": 48534,
  "Ġspat": 15246,
  "Ġcompulsory": 31967,
  "ĠIsn": 25110,
  "register": 30238,
  "uton": 32894,
  "ĠLunar": 31947,
  "ocado": 33441,
  "Ġfoundations": 19369,
  "Ġsays": 1139,
  "ĠWin": 7178,
  "ibl": 10506,
  "Ġdownturn": 34540,
  "sectional": 44330,
  "ĠDaly": 43692,
  "Ġvillain": 16687,
  "Ġtrack": 2610,
  "Daniel": 19962,
  "uster": 5819,
  "Ġarchaic": 40435,
  "Ġdec": 875,
  "Ġcommodities": 24392,
  "Ġnationally": 18845,
  "ĠAlto": 34317,
  "ĠCurry": 20920,
  "Ġripped": 19551,
  "Ġvalue": 1988,
  "cling": 8493,
  "Ġresolve": 10568,
  "aunted": 20227,
  "anches": 12140,
  "Ġunofficial": 27220,
  "Ġmailbox": 37282,
  "Ġcamouflage": 37353,
  "uid": 27112,
  "PAR": 27082,
  "Ġnor": 4249,
  "ĠDemocratic": 4390,
  "Ġtemporary": 8584,
  "heastern": 18160,
  "ĠCVE": 24640,
  "ĠSasuke": 37527,
  "ĠEconomist": 36619,
  "Stephen": 24920,
  "Ian": 37776,
  "Ġclauses": 31485,
  "Ġresults": 2482,
  "Ġshelves": 20726,
  "Ġtuna": 38883,
  "chin": 24658,
  "Ġunde": 44192,
  "Ġdetox": 44674,
  "ĠCNN": 8100,
  "ĠDual": 20446,
  "Ã¥": 29090,
  "lang": 17204,
  "mn": 10295,
  "ĠPere": 17229,
  "Ġcannon": 21202,
  "Need": 23037,
  "Ġcapturing": 21430,
  "Ġclick": 3904,
  "Ġcy": 3075,
  "Ġappear": 1656,
  "ĠGreg": 8547,
  "ĠJay": 9180,
  "ĠMagical": 22294,
  "jin": 18594,
  "ĠGrowth": 19045,
  "Ġgrenades": 28850,
  "once": 27078,
  "Services": 31007,
  "Stan": 32140,
  "ĠNg": 34786,
  "758": 38569,
  "ori": 10145,
  "ĠLouis": 5593,
  "Ġhumanoid": 34870,
  "Located": 43525,
  "ĠMFT": 43910,
  "outher": 44262,
  "Ġ525": 45719,
  "ĠVoy": 23020,
  "Cola": 28635,
  "Electric": 44132,
  "busters": 30181,
  "Ġhunt": 12601,
  "ĠJarvis": 46595,
  "ĠCouch": 48225,
  "Ġhint": 9254,
  "ĠCher": 19305,
  "Ġrain": 6290,
  "eff": 14822,
  "ĠAlic": 34745,
  "Mut": 41603,
  "DW": 42955,
  "×¨": 37778,
  "Ġchopped": 20720,
  "Ġworlds": 11621,
  "awar": 48841,
  "fortune": 37359,
  "ĠSecurities": 22971,
  "Ġbo": 1489,
  "Ġmechanics": 12933,
  "Ġmethyl": 27664,
  "Ġmisconception": 43122,
  "iat": 5375,
  "ĠPotter": 14179,
  "Ġshields": 21132,
  "Ġspiritually": 45319,
  "ĠZup": 45672,
  "Ġmilitant": 18614,
  "Ġdelet": 28128,
  "Ġmere": 5019,
  "confirmed": 36349,
  "Ġmattered": 33343,
  "Ġarrang": 9020,
  "Value": 11395,
  "Ġattendance": 14858,
  "tower": 36170,
  "Ġmoss": 42853,
  "Ġcontext": 4732,
  "Ġtarn": 40851,
  "ĠRound": 10485,
  "OVER": 41983,
  "ĠConduct": 28579,
  "Ġwhisper": 31992,
  "Ġpeaks": 25740,
  "ĠChapters": 42448,
  "icro": 2500,
  "Ġfired": 6294,
  "Ġorb": 15769,
  "treatment": 42487,
  "ĠEarth": 3668,
  "Ġft": 10117,
  "Ġdesks": 44301,
  "Ġsurgeon": 23923,
  "Ġja": 45091,
  "ĠNeural": 47986,
  "Ġregard": 2754,
  "559": 38605,
  "label": 18242,
  "Ġcampaigning": 22264,
  "AW": 12298,
  "ĠCPI": 42103,
  "Ġrecords": 4406,
  "ĠNeed": 10664,
  "ĠWHAT": 25003,
  "Ġhardware": 6890,
  "ĠYi": 26463,
  "ĠSoup": 34011,
  "Ġfriend": 1545,
  "Ġpassion": 7506,
  "place": 5372,
  "ĠInformation": 6188,
  "Ġdriving": 5059,
  "Ġmeaningful": 11570,
  "Ġlethal": 17769,
  "Ġriots": 23766,
  "ĠAllah": 11475,
  "ĠKerr": 32879,
  "utor": 38409,
  "Ġcontribution": 10156,
  "ĠHau": 49696,
  "ĠISO": 19694,
  "balance": 20427,
  "Ġcens": 12428,
  "Ġunnoticed": 33755,
  "Ġguilt": 14934,
  "adoes": 46368,
  "erman": 2224,
  "Ġscorp": 47394,
  "Ġdisaster": 9336,
  "Ġdrop": 4268,
  "outing": 13660,
  "Ġruins": 20073,
  "Ġspeaker": 10834,
  "ĠTommy": 19919,
  "iless": 30608,
  "Ġdedication": 22445,
  "Ġreboot": 20149,
  "Ġdemeanor": 40309,
  "ĠComb": 14336,
  "bra": 16057,
  "Ġstrongh": 26733,
  "ĠPlayed": 33101,
  "×ª": 42064,
  "Ġconstituents": 22573,
  "infeld": 47187,
  "ĠMus": 2629,
  "ixty": 19404,
  "ĠAng": 2895,
  "idents": 3231,
  "Ġstandards": 5423,
  "Ġcontingent": 25477,
  "Ġcondition": 4006,
  "Ġrejo": 30668,
  "Native": 31272,
  "ĠJ": 449,
  "rade": 27585,
  "ĠAntar": 20290,
  "\\\",": 34607,
  "ĠSupport": 7929,
  "Firstly": 49709,
  "ĠDoes": 8314,
  "ĠStates": 1829,
  "borough": 17913,
  "vered": 21917,
  "Ġadmired": 29382,
  "Ġphenomenal": 28187,
  "Ġmurdered": 12864,
  "perate": 30052,
  "isson": 30927,
  "ĠCond": 9724,
  "Ġphotographs": 12566,
  "Discussion": 34255,
  "da": 6814,
  "Ëľ": 41185,
  "device": 25202,
  "åĮ": 44293,
  "Ġgore": 46835,
  "Ġentrance": 10384,
  "eller": 12368,
  "ĠPs": 33610,
  "enstein": 37975,
  "oscope": 40326,
  "Ġrelatives": 12772,
  "ĠLady": 11182,
  "6": 21,
  "ĠWitches": 44910,
  "cule": 23172,
  "Ġath": 5782,
  "ĠAlexandra": 44075,
  "Ġmeasure": 3953,
  "ĠLiver": 45036,
  "623": 46872,
  ")\\": 19415,
  "ĠFlint": 21660,
  "Ġjuvenile": 21904,
  "ĠCONTR": 27342,
  "Ġghost": 10905,
  "ĠWarner": 14469,
  "ione": 7935,
  "Ġstretches": 23687,
  "Ġmatters": 6067,
  "ounce": 8652,
  "otherapy": 18952,
  "ascist": 31968,
  "Side": 24819,
  "Ġpsychedel": 27477,
  "Ġtheoretically": 26787,
  "Ġelong": 39696,
  "Ġdiploma": 41220,
  "][": 7131,
  "Ġnational": 2260,
  "HT": 6535,
  "ĠExtended": 24204,
  "iosis": 42960,
  "ros": 4951,
  "Ġretracted": 47360,
  "Ġblur": 23671,
  "ĠWra": 27323,
  "Ġwithdrawals": 43939,
  "ĠKle": 15983,
  "ĠMedicine": 11558,
  "Ġcompatible": 11670,
  "Ġoste": 32674,
  "ĠBrad": 8114,
  "ĠAlmost": 16699,
  "Ġtickets": 8587,
  "Ġum": 23781,
  "uous": 5623,
  "ality": 1483,
  "Ġproblem": 1917,
  "olicy": 21424,
  "phasis": 28432,
  "azaki": 32276,
  "Ġsomebody": 8276,
  "ĠMonroe": 26249,
  "ĠWolverine": 34307,
  "Ġtrailers": 33122,
  "840": 40675,
  "Fu": 41133,
  "ĠMonk": 28854,
  "Ġresultant": 43440,
  "ĠTRANS": 44069,
  "ĠAki": 48663,
  "mode": 14171,
  "agon": 1840,
  "Ġdiagram": 16362,
  "ĠChes": 28250,
  "Ġinsecure": 31955,
  "Ġfullback": 49570,
  "Ġtagging": 49620,
  "Ġtroubling": 20294,
  "ĠHoy": 49873,
  "Ġfactories": 17590,
  "Finally": 11158,
  "Harris": 41589,
  "Ġlev": 23145,
  "Ġportraying": 42458,
  "Sub": 7004,
  "ĠArch": 5579,
  "IO": 9399,
  "ĠVirtue": 39662,
  "ĠSylvia": 45425,
  "irable": 13194,
  "Ġreviewing": 17217,
  "?\"": 1701,
  "Ġethos": 39676,
  "rous": 7596,
  "Ġdice": 17963,
  "Ġgreen": 4077,
  "ĠEnhance": 32999,
  "ificate": 22460,
  "Ġcontingency": 38820,
  "Ġpedal": 26667,
  "ĠGMO": 35945,
  "Ġaggress": 15786,
  "Ġannot": 24708,
  "ĠHarvard": 11131,
  "Ġpounds": 8059,
  "Ġ...\"": 35713,
  "Ġ(>": 45160,
  "ĠColon": 14049,
  "Ġviol": 1935,
  "height": 17015,
  "rients": 18491,
  "Ġsneak": 20528,
  "Ġlistens": 35019,
  "ĠMLA": 43265,
  "Ġoccupy": 22265,
  "OLOG": 33462,
  "physical": 42854,
  "ĠRequ": 9394,
  "='": 11639,
  "Ġpacif": 47617,
  "ertain": 1425,
  "ocol": 4668,
  "ĠJess": 12707,
  "Ġbid": 8406,
  "Ġhunters": 21490,
  "bm": 20475,
  "insert": 28463,
  "7601": 42752,
  "agra": 45429,
  "odcast": 7107,
  "ĠmL": 36226,
  "Ġintra": 23422,
  "ĠGrayson": 42657,
  "Ġbil": 47027,
  "Ġmum": 25682,
  "Ġparsed": 44267,
  "Ġpersecution": 22839,
  "Ġindustries": 11798,
  "Ġindoctr": 41201,
  "Ġprotocols": 19565,
  "ĠAngela": 17799,
  "Ġreconstruct": 31081,
  "ĠDos": 43976,
  "scroll": 48728,
  "uh": 7456,
  "ĠQuarterly": 36082,
  "Ġdepri": 15659,
  "THER": 21250,
  "ucer": 48915,
  "Ġstreaming": 11305,
  "ĠDemocrat": 9755,
  "ĠWhile": 2893,
  "ĠME": 11948,
  "l": 75,
  "Ġlegs": 7405,
  "Ġdivisive": 29656,
  "tell": 33331,
  "Ġsled": 46822,
  "Ġblacklist": 38810,
  "Ġmany": 867,
  "Ġprep": 3143,
  "Ġenlightenment": 35957,
  "Ġbeer": 6099,
  "atchewan": 29736,
  "ĠMusical": 33375,
  "Ġcorrected": 19267,
  "Ġhappy": 3772,
  "Ġcal": 2386,
  "Ġbroadcasting": 22978,
  "Ġunheard": 36511,
  "ĠExcellence": 42525,
  "iants": 17883,
  "Ġvows": 36605,
  "Ġdefeats": 29234,
  "ĠCove": 39534,
  "ĠAngular": 28147,
  "Ġlights": 7588,
  "ĠFrames": 36291,
  "Ġsubmitting": 24353,
  "Ġscripture": 36739,
  "class": 4871,
  "UCT": 18415,
  "Manchester": 40744,
  "Ġconflict": 5358,
  "Ġmicroscopic": 41858,
  "Ġparting": 44823,
  "ĠKamp": 45327,
  "Ġplush": 46336,
  "Ġemitting": 48143,
  "Ġaxis": 16488,
  "Ġof": 286,
  "ulton": 37944,
  "ĠTunisia": 33972,
  "ĠSales": 17329,
  "ĠSundays": 32714,
  "ãģĤ": 40948,
  "Ġsensitivity": 14233,
  "Ġindicators": 21337,
  "kies": 43724,
  "rient": 8289,
  "Ġhurdle": 36633,
  "Ġlabel": 6167,
  "itbart": 17868,
  "ĠAdjust": 20292,
  "Ġroofs": 42251,
  "299": 22579,
  "iciency": 19777,
  "Ġfracking": 25441,
  "ĠBenedict": 28697,
  "Ġobserves": 34526,
  "Ġhumane": 31533,
  "ĠSUM": 35683,
  "stack": 25558,
  "ĠVista": 25160,
  "ĠPricing": 45030,
  "ĠAfter": 2293,
  "Ġmelt": 16867,
  "Ġhappier": 23030,
  "activ": 15791,
  "Coun": 31053,
  "ĠOpen": 4946,
  "Mo": 16632,
  "wash": 34670,
  "ĠRoland": 29761,
  "ĠBarth": 44414,
  "ateral": 10534,
  "Girls": 41044,
  "izu": 47775,
  "ĠPul": 21624,
  "ĠBut": 887,
  "WARNING": 31502,
  "Ġprocedure": 8771,
  "Hop": 23483,
  "Ġgul": 47161,
  "Ġrank": 4279,
  "ĠAri": 6069,
  "ĠZ": 1168,
  "ĠFortress": 25213,
  "Men": 10418,
  "ĠKob": 23403,
  "Whit": 43617,
  "Ġincompet": 22929,
  "ĠSloven": 30694,
  "ĠPROGRAM": 46805,
  "Ġcrew": 5462,
  "Ġachieved": 8793,
  "ĠLIFE": 36821,
  "ĠUSC": 18928,
  "Pan": 15730,
  "Ġrentals": 39457,
  "puters": 41510,
  "Ġfindings": 6373,
  "Ġcommons": 36523,
  "ĠRd": 20769,
  "Cho": 22164,
  "ĠBav": 37313,
  "essert": 20335,
  "Ġgold": 3869,
  "ā": 189,
  "ĠIncre": 10791,
  "Ġnonsense": 18149,
  "ĠEDITION": 39219,
  "Ġfeeds": 21318,
  "nette": 48115,
  "Ġthickness": 20735,
  "REP": 35316,
  "Ġmascul": 18498,
  ")))": 22305,
  "akespe": 20621,
  "ĠNiger": 23731,
  "Ġtheory": 4583,
  "Ġdavid": 21970,
  "213": 26427,
  "Ġinjured": 6686,
  "Light": 15047,
  "ĠCOR": 23929,
  "young": 35465,
  "Ġactivating": 35795,
  "Improve": 47531,
  "ĠPierre": 21204,
  "Ġinvoke": 26342,
  "Requ": 16844,
  "apeake": 49528,
  "Ġfunctional": 10345,
  "Ġboun": 31283,
  "cc": 535,
  "ĠLess": 12892,
  "ĠRNA": 25897,
  "ĠBranch": 20551,
  "hetto": 35619,
  "Ġgoverning": 15030,
  "Ġflavors": 17361,
  "rypted": 15109,
  "ĠUncommon": 36770,
  "ĠFahrenheit": 35935,
  "Ġbookstore": 44346,
  "Ġbreathe": 18044,
  "Detect": 47504,
  "Ġcalls": 3848,
  "Ġshitty": 32574,
  "Ġmull": 35024,
  "yellow": 36022,
  "ĠCASE": 42001,
  "Ġaccording": 1864,
  "ĠAth": 13548,
  "ĠNewcastle": 22410,
  "269": 26276,
  "Ġtyrann": 44315,
  "ĠMIN": 20625,
  "ĠGroup": 4912,
  "Ġobe": 45653,
  "ĠSolomon": 22912,
  "Ġpublicly": 7271,
  "Self": 24704,
  "Ġimproved": 6596,
  "Ġstra": 3534,
  "ĠHorror": 22732,
  "Ġuphill": 35256,
  "ĠGamergate": 37337,
  "ĠTick": 46093,
  "Ġ(!": 22759,
  "ĠSett": 41479,
  "pped": 1496,
  "Ġingredients": 9391,
  "ĠLONG": 44533,
  "Ġ168": 23378,
  "ĠPelicans": 48206,
  "ĠMed": 2019,
  "breakers": 49295,
  "headers": 50145,
  "launch": 35681,
  "ifacts": 37199,
  "Ġè£ı": 6438,
  "Ġmoment": 2589,
  "anky": 39556,
  "decl": 32446,
  "Ġsuck": 10110,
  "Ġvideos": 5861,
  "ĠFraz": 36914,
  "Ġstreamlined": 39673,
  "ĠLouisiana": 13340,
  "Ġawkward": 13006,
  "Ġsooner": 14556,
  "Ġsimulations": 27785,
  "api": 15042,
  "Ã¶r": 30570,
  "development": 31267,
  "ĠGen": 5215,
  "Ġba": 26605,
  "Imp": 26950,
  "Ġconcussion": 27502,
  "made": 9727,
  "448": 31115,
  "ĠCame": 32653,
  "Ġhor": 3076,
  "artment": 1823,
  "eda": 18082,
  "Ġpicking": 10868,
  "Donnell": 24853,
  "Ġannouncement": 8009,
  "Spons": 43522,
  "Ġfentanyl": 47804,
  "ception": 4516,
  "Ġfiasco": 49023,
  "Ġworry": 5490,
  "Ġaesthetic": 19713,
  "ĠResponse": 18261,
  "Ġdrivers": 6643,
  "ville": 4244,
  "ĠChristianity": 13624,
  "json": 17752,
  "Ġprojection": 20128,
  "ĠDemocracy": 20265,
  "Sir": 22788,
  "Sal": 19221,
  "Ġcred": 2600,
  "ĠHeal": 24923,
  "Sync": 28985,
  "Ġunrealistic": 31363,
  "hemat": 10024,
  "Ġfingerprints": 34290,
  "Ġpartition": 18398,
  "Ġinitiated": 16862,
  "Ġconserv": 4055,
  "male": 22606,
  "Ġmin": 949,
  "Ġpreliminary": 15223,
  "Hen": 26055,
  "flation": 33521,
  "ĠExhibit": 35880,
  "Ġket": 22354,
  "Ġorbits": 37015,
  "Ġabsor": 8256,
  "Ġ1280": 37674,
  "ĠHuff": 14721,
  "Ġoppos": 38642,
  "disable": 40223,
  "pled": 10137,
  "idences": 44845,
  "ĠNumerous": 45261,
  "antic": 5109,
  "Ø¹": 44690,
  "Ġpointers": 32007,
  "Ġrepaid": 48417,
  "ĠStarts": 50181,
  "ixir": 32345,
  "Ġtox": 8293,
  "earchers": 16604,
  "Ġarri": 2914,
  "Ġ----------------------------------------------------------------": 16529,
  "Ġjur": 8174,
  "CRIP": 36584,
  "Ġintertwined": 45905,
  "ĠDB": 20137,
  "dro": 22285,
  "!--": 28112,
  "ĠSeal": 26975,
  "Ġthor": 41899,
  "Ġsecretion": 42432,
  "mA": 42646,
  "URI": 47269,
  "Ġnormative": 46219,
  "Ġhow": 703,
  "ĠStandards": 20130,
  "Ġdecreased": 11832,
  "ĠAur": 15412,
  "ava": 4170,
  "Ġdislike": 23109,
  "etime": 8079,
  "Ġushered": 47098,
  "ĠLevine": 38294,
  "ync": 13361,
  "Ġfumble": 41405,
  "Technology": 44893,
  "Semitic": 28753,
  "Ġcollecting": 13157,
  "Ġpartnered": 29806,
  "Tre": 31055,
  "Ġwearer": 35958,
  "acters": 19858,
  "Ġdefund": 47613,
  "cluded": 10341,
  "ushi": 17731,
  "Ġbinding": 12765,
  "ĠProducts": 18675,
  "ĠCurrency": 20113,
  "æĢ": 45250,
  "ĠTHERE": 34702,
  "Ġtropes": 43275,
  "ighed": 12570,
  "ĠOccup": 15227,
  "ĠAFTER": 36050,
  "issy": 36419,
  "Ġanalyst": 12499,
  "Ġchemicals": 12910,
  "ĠWitness": 21440,
  "Ġencounters": 16925,
  "Ġrebuke": 45830,
  "Ġcalled": 1444,
  "Ġcitrus": 35405,
  "uine": 8327,
  "ĠCrypt": 15126,
  "income": 12519,
  "ub": 549,
  "Ġredeem": 26509,
  "Ġmessenger": 31228,
  "release": 20979,
  "ĠXer": 44264,
  "ĠSpears": 45978,
  "ifying": 4035,
  "perties": 18200,
  "psych": 23947,
  "unct": 16260,
  "par": 1845,
  "Ġunden": 26712,
  "policy": 30586,
  "Ġgoodness": 20437,
  "hent": 6925,
  "run": 5143,
  "Ġstraightforward": 15836,
  "Ġcliff": 19516,
  "Ġeight": 3624,
  "Ġgoodies": 39863,
  "Ġ14": 1478,
  "Ġparse": 21136,
  "ĠJA": 41722,
  "Ġpige": 32372,
  "asury": 11579,
  "Ġdirty": 11841,
  "Ġcriticized": 12318,
  "Ġreads": 9743,
  "Ġclouds": 15114,
  "Ġtheories": 10946,
  "Ġcommenters": 43807,
  "Ġclerks": 44115,
  "Ġtrendy": 44493,
  "pires": 17833,
  "ĠGim": 41123,
  "ĠGrip": 40298,
  "aeus": 46052,
  "Ġreptiles": 46617,
  "Ġforeclosure": 41400,
  "ĠECO": 39031,
  "516": 47493,
  "Ġprofessionals": 11153,
  "ĠSheridan": 47813,
  "Ġexclusively": 11541,
  "Ġcorp": 24614,
  "Ġerroneous": 35366,
  "rir": 29283,
  "Ġredundancy": 49052,
  "Ġnotebooks": 43935,
  "absolute": 48546,
  "Ġcorner": 5228,
  "ĠSac": 9295,
  "gam": 28483,
  "Ġovere": 43656,
  "ĠguiActive": 18472,
  "ĠPHI": 48121,
  "Ġswinging": 25635,
  "rench": 3532,
  "Ġsummoning": 40292,
  "ĠSki": 38809,
  "ag": 363,
  "Charl": 24453,
  "Nar": 40059,
  "Ġvariant": 15304,
  "Returns": 35561,
  "ĠTheory": 17003,
  "Ġcaliber": 28139,
  "Ġaltercation": 38880,
  "Ġcomprehend": 24772,
  "handled": 38788,
  "Ġtactics": 10815,
  "Ġsquares": 24438,
  "ĠReserved": 33876,
  "Ġdipped": 35300,
  "Ġdictionary": 22155,
  "Ġkh": 44081,
  "ETHOD": 36252,
  "ĠWAR": 11837,
  "Ġintending": 38939,
  "æī": 33699,
  ">.": 28401,
  "orpor": 31150,
  "isky": 34041,
  "Ġâī¡": 38243,
  "offensive": 45055,
  "Ġpromptly": 19268,
  "Ġtopped": 20633,
  "Bul": 33481,
  "ĠDot": 22875,
  "ĠTB": 23799,
  "bet": 11181,
  "ttp": 29281,
  "ĠBlizzard": 20206,
  "ĠJungle": 26411,
  "Ġstopped": 5025,
  "Save": 16928,
  "arrow": 6018,
  "Ġlatitude": 32477,
  "Ġbullpen": 35093,
  "Ġharassment": 10556,
  "ĠHPV": 32395,
  "Ġ8000": 38055,
  "inav": 26802,
  "Ġintensive": 18590,
  "uchs": 37533,
  "ĠCyr": 40399,
  "363": 35447,
  "ĠDrift": 39819,
  "zl": 48274,
  "Ġpreviously": 4271,
  "VT": 36392,
  "ĠPassenger": 47239,
  "ĠCatholic": 7835,
  "ĠEconomy": 18493,
  "ĠRey": 24448,
  "Ġnowadays": 26760,
  "ory": 652,
  "icism": 11965,
  "ĠPension": 46391,
  "ĠStamp": 40694,
  "ĠMari": 29423,
  "Ġwomb": 31514,
  "Ġterminated": 23083,
  "Ġfollow": 1061,
  "ĠAether": 43966,
  "ĠCommentary": 45465,
  "ĠINCLUD": 47783,
  "ĠContributions": 49152,
  "Ġgrat": 14586,
  "ĠGran": 17113,
  "gb": 22296,
  "Ġinsign": 24191,
  "Ġobserving": 21769,
  "Ġdeceived": 40889,
  "Ġbiome": 48493,
  "Ġthefts": 49980,
  "Ġhyd": 7409,
  "flush": 25925,
  "Ġcarriers": 16651,
  "Ġdespite": 3805,
  "Ġdetermining": 13213,
  "ĠHundred": 40531,
  "Ġdome": 29500,
  "ĠMethod": 11789,
  "Ġstiffness": 49586,
  "ĠMyster": 12099,
  "ĠAfterwards": 39063,
  "Ġmus": 1928,
  "Ġfist": 18606,
  "ĠFallon": 36503,
  "Ġphp": 39347,
  "ĠDesmond": 41045,
  "Ġstarred": 31636,
  "Ġweighted": 26356,
  "Ġgoalt": 30896,
  "Ġhorrified": 32816,
  "Ġsuppressing": 41895,
  "ĠGrassley": 44050,
  "ĠMan": 1869,
  "æ°": 36365,
  "shadow": 19106,
  "Ġbishop": 24233,
  "Ġfare": 14505,
  "Ġcompanion": 15185,
  "Ġts": 40379,
  "TX": 29551,
  "ĠSat": 7031,
  "ĠXiaomi": 46726,
  "Ġluggage": 31488,
  "UM": 5883,
  "Ġquiet": 5897,
  "ĠSchl": 48467,
  "Ġconfidently": 37891,
  "Ġunderstands": 14759,
  "ld": 335,
  "VR": 13024,
  "ĠRadiant": 34145,
  "sb": 36299,
  "Ġrespect": 2461,
  "hel": 2978,
  "Ġfavorite": 4004,
  "report": 13116,
  "ĠBrothers": 16055,
  "Ġbarking": 48961,
  "Ġverge": 27373,
  "Conclusion": 21481,
  "ĠTests": 30307,
  "ĠBecky": 47882,
  "tro": 23528,
  "Ġmagic": 5536,
  "ĠCommodore": 48808,
  "Ġstudents": 2444,
  "Android": 25934,
  "Dun": 30128,
  "Ġreforming": 40446,
  "images": 17566,
  "ĠJulian": 18322,
  "666": 27310,
  "ĠLemon": 27252,
  "ĠGrimes": 49462,
  "496": 37747,
  "idal": 11624,
  "Yellow": 39499,
  "Ġelectronics": 17075,
  "ĠNicotine": 41090,
  "Ġinn": 3527,
  "75": 2425,
  "ĠNike": 23817,
  "ĠPanther": 30364,
  "itions": 1756,
  "Ġsmell": 8508,
  "onent": 3471,
  ".'": 2637,
  "hand": 4993,
  "Ġstronger": 7387,
  "Ġmerger": 24589,
  "Frame": 19778,
  "Ġwithdrew": 25518,
  "Ġpeople": 661,
  "abilities": 5738,
  "ĠComplex": 19157,
  ":\\": 7479,
  "ĠAbraham": 16660,
  "Ġpopulist": 26815,
  "Ġkindly": 26820,
  "ĠGujarat": 30311,
  "uman": 3778,
  "ĠArizona": 7943,
  "linear": 29127,
  "Ġcheering": 29732,
  "ĠMonaco": 31630,
  "ĠLal": 36683,
  "ouf": 37116,
  "Ġ298": 37576,
  "Ġkicker": 38297,
  "Ġparticle": 18758,
  "Ġrapport": 49498,
  "Ġcylinder": 24911,
  "ĠGotham": 30129,
  "auc": 14272,
  "Ġbeads": 36116,
  "gres": 34239,
  "Ġflew": 13112,
  "Ġ395": 42321,
  "involved": 44697,
  "ĠGarner": 37383,
  "052": 37841,
  "Ġcrafted": 18025,
  "Ġmarched": 23558,
  "inement": 21828,
  "Ġdropped": 5710,
  "akia": 21897,
  "ĠCity": 2254,
  "Ġpatriotic": 33453,
  "Ġwarmed": 38794,
  "Í": 137,
  "ghai": 20380,
  "Ġlows": 34119,
  "Ġprovide": 2148,
  "Ġstrongly": 7634,
  "Ġunity": 14111,
  "Ġliver": 14383,
  "Ġworst": 5290,
  "Ġseller": 18583,
  "Ġdispatch": 27965,
  "especially": 16480,
  "Occ": 29223,
  "Ġclassrooms": 32579,
  "ĠViolent": 35615,
  "Ġevoke": 44672,
  "Ġadding": 4375,
  "================": 4770,
  "andon": 5063,
  "GET": 18851,
  "Ġprote": 5915,
  "iency": 6160,
  "Ġlobbying": 17502,
  "Ġoppressive": 30983,
  "ability": 1799,
  "Ġconducted": 5952,
  "emet": 19261,
  "ĠLegislature": 20815,
  "Ġgrapp": 21338,
  "éĥ": 32849,
  "boards": 12821,
  "ĠHun": 5900,
  "hern": 2881,
  "Ġmast": 17288,
  "Ġdamning": 36706,
  "rh": 17179,
  "charging": 31498,
  "iership": 36689,
  "Ġmalf": 27750,
  "Ġfloats": 36016,
  "ĠTucson": 36805,
  "icient": 11373,
  "Ġgig": 12526,
  "Obs": 31310,
  "ppo": 16634,
  "Ġadded": 2087,
  "Ġgotten": 7891,
  "third": 17089,
  "Indust": 35848,
  "Ġoxid": 18762,
  "Ġbehold": 23700,
  "ĠSkinner": 42899,
  "AGE": 11879,
  "ãĥ£": 23131,
  "Ġdogs": 6844,
  ".:": 11207,
  "ctic": 11048,
  "prises": 18166,
  "Subject": 19776,
  "ĠUnderstanding": 28491,
  "ittance": 47912,
  "ĠTara": 37723,
  "Ġinteroper": 48817,
  "Ġhaste": 36797,
  "ĠQuit": 48887,
  "Ġtopple": 49377,
  "ĠiOS": 8969,
  "ocations": 20968,
  "Ġ1958": 24648,
  "442": 39506,
  "Ġdisclosing": 39916,
  "Ġsarcast": 36543,
  "Ġvaping": 42106,
  "setting": 33990,
  "é¾įå": 19049,
  "igible": 26032,
  "IUM": 41796,
  "ĠGillespie": 45078,
  "erer": 11882,
  "fox": 12792,
  "bird": 16944,
  "ĠLDS": 28377,
  "219": 28896,
  "@@": 12404,
  "fficiency": 35590,
  "idable": 23321,
  "Stars": 29366,
  "Feed": 18332,
  "Xbox": 43377,
  "ĠPOV": 44604,
  "ĠMIS": 50029,
  "ĠHelpful": 21656,
  "Ram": 33754,
  "tti": 35671,
  "ĠFlu": 34070,
  "Ġwaving": 25849,
  "ĠVaughn": 47151,
  "empt": 1791,
  "ĠROB": 36449,
  "Ġcontinue": 2555,
  "346": 30557,
  "Ġbasket": 7988,
  "rastructure": 6410,
  "Ġevasion": 30877,
  "anting": 20482,
  "ĠPulse": 25062,
  "Ġspider": 19230,
  "Ġstadiums": 37924,
  "Ġmound": 31446,
  "cycle": 13696,
  "340": 23601,
  "ishes": 5614,
  "Ġwardrobe": 35593,
  "Ġeverything": 2279,
  "Ġlag": 19470,
  "ĠStark": 20956,
  "341": 33660,
  "apult": 41387,
  "Ġmessages": 6218,
  "sac": 30584,
  "ĠShattered": 48330,
  "Ġhandlers": 32847,
  "heng": 31753,
  "Ġhand": 1021,
  "Clinton": 16549,
  "uality": 25775,
  "EMS": 39201,
  "ĠWonder": 12902,
  "Ġaccessory": 28207,
  "Ġcoordinated": 22080,
  "Ġmetast": 44678,
  "Ġexcessive": 13181,
  "Ġpattern": 3912,
  "Launch": 38296,
  "Ġaccusation": 25984,
  "Ġreinforcements": 38578,
  "Ġclause": 13444,
  "ĠDamn": 40146,
  "Ġlang": 42392,
  "ĠDenise": 43596,
  "ĠRouse": 44122,
  "ĠSt": 520,
  "comment": 23893,
  "Count": 12332,
  "ĠETF": 31112,
  "ĠMun": 12107,
  "ĠWikileaks": 35828,
  "Ġmagnets": 37446,
  "Ġintermedi": 30127,
  "Ġconstantly": 7558,
  "ĠMilitia": 48558,
  "Ġ383": 49814,
  "ĠDiagn": 31549,
  "Ġcounsel": 7739,
  "ĠLeap": 33927,
  "ĠPre": 3771,
  "ivered": 6396,
  "results": 43420,
  "ĠPetersburg": 27051,
  "Ġspam": 18084,
  "98": 4089,
  "Boot": 36476,
  "Ġyr": 42635,
  "ĠQue": 4670,
  "745": 50150,
  "ĠShal": 47974,
  "rick": 5557,
  "azed": 13865,
  "Ġbirthday": 10955,
  "ĠPanasonic": 46049,
  "Ġanswer": 3280,
  "ĠWelcome": 19134,
  "asters": 7060,
  "Ġcirculation": 19133,
  "util": 22602,
  "Ġimpover": 30956,
  "ĠImprove": 20580,
  "Ġthanked": 26280,
  "Ġdissemination": 44832,
  "Ġmayhem": 43744,
  "SE": 5188,
  "ĠCast": 5833,
  "Ġenlight": 19128,
  "Ġyea": 44642,
  "Ġonlook": 47747,
  "imura": 43817,
  "Ġreduce": 4646,
  "ĠBMW": 19339,
  "ĠHait": 19456,
  "ĠJazz": 21406,
  "ĠSAP": 48323,
  "!\",": 40754,
  "ĠSpa": 40208,
  "Ġviable": 13971,
  "ĠMerge": 39407,
  "Ġperched": 49264,
  "Ġzo": 40565,
  "Ġoz": 15649,
  "wcs": 12712,
  "Ġmysteries": 26045,
  "ĠCed": 25789,
  "Ġseemingly": 9775,
  "ĠBrave": 22813,
  "ĠSolidGoldMagikarp": 43453,
  "hya": 48812,
  "ĠNPC": 15888,
  "ias": 4448,
  "701": 41583,
  "Ġvalve": 22580,
  "Ġinitiative": 10219,
  "Ġcopied": 18984,
  "Ġglyph": 25874,
  "Ġmuc": 30322,
  "Ġdatabase": 6831,
  "ĠPorts": 30824,
  "Ġtravel": 3067,
  "Ġattended": 9141,
  "output": 22915,
  "ĠLeviathan": 32223,
  "ĠÂ£": 4248,
  "inces": 17386,
  "Aff": 35191,
  "ĠDiana": 25752,
  "ĠLastly": 36778,
  "Ġassassins": 44454,
  "Ġwarheads": 50046,
  "Ġmemorial": 17357,
  "Ġdestroyer": 41056,
  "century": 14792,
  "lords": 19673,
  "module": 21412,
  "ñ": 173,
  "pu": 19944,
  "Ġboat": 8848,
  "ĠBailey": 20330,
  "ĠSDK": 26144,
  "Ġalright": 23036,
  "Ġmana": 13149,
  "izzard": 16191,
  "igmat": 32441,
  "Ġles": 10287,
  "ĠAtmosp": 33276,
  "adult": 49922,
  "ĠInd": 1423,
  "Cur": 26628,
  "Ġent": 920,
  "ĠRent": 29832,
  "Ġ416": 38158,
  "Ġowl": 39610,
  "ipe": 3757,
  "Ġif": 611,
  "Ġromantic": 14348,
  "mods": 24122,
  "Ġdifferent": 1180,
  "Ġpathogens": 38366,
  "markets": 34162,
  "Ġdraws": 14293,
  "Ġgrunt": 45836,
  "Ġfootsteps": 27146,
  "ĠACL": 17382,
  "ĠCoff": 28584,
  "Ġsurrendered": 29209,
  "Ġcruiser": 35239,
  "ĠPrimal": 37712,
  "osponsors": 39500,
  "07": 2998,
  "otes": 6421,
  "Ġrent": 5602,
  "Ġveget": 7494,
  "Ġarbit": 9277,
  "Ġadvised": 13030,
  "Ġneck": 7393,
  "omaly": 24335,
  "Solar": 38825,
  "65": 2996,
  "Within": 22005,
  "Ġcarbohyd": 19476,
  "Ġinfinitely": 32264,
  "ĠRice": 13823,
  "Ġcollege": 4152,
  "Ġpersons": 6506,
  "Ġprojectile": 26489,
  "ĠAzerbai": 29830,
  "Enough": 47323,
  "ĠSync": 35908,
  "char": 10641,
  "ĠGn": 18509,
  "Ġbasketball": 9669,
  "urrencies": 28018,
  "Ġrapt": 38404,
  "South": 14942,
  "Ġelemental": 25601,
  "Ġstrawberries": 36973,
  "Ġpowering": 43067,
  "cade": 46395,
  "Ġinfertility": 47906,
  "Ġhawk": 48710,
  "Ġassault": 4641,
  "Â¢": 44359,
  "Ġinflamm": 14092,
  "Ġbatter": 4984,
  "Ġafterward": 20875,
  "ĠKurt": 20642,
  "Ġhistorically": 15074,
  "Ġexcluding": 23494,
  "heat": 25080,
  "Types": 31431,
  "ĠVegan": 34829,
  "Ġlobb": 14194,
  "Ġradi": 19772,
  "ĠDunk": 39303,
  "Ult": 16301,
  "ĠLeonardo": 38083,
  "Ġail": 31907,
  "ĠNunes": 42502,
  "Ġlodged": 31984,
  "Ġcannabis": 9499,
  "afer": 34659,
  "ĠAngola": 48968,
  "Ġabolition": 30480,
  "ĠSurv": 10954,
  "Ġpatron": 19686,
  "othing": 24834,
  "fter": 637,
  "Ġarrested": 5169,
  "gon": 14520,
  "ok": 482,
  "lit": 18250,
  "Ġviolently": 25856,
  "Ġassignment": 16237,
  "ilda": 27281,
  "Writer": 34379,
  "Ġpremiums": 21884,
  "Ġhel": 932,
  "ĠShad": 46961,
  "anders": 45070,
  "Ġbacterial": 23462,
  "IENT": 28495,
  "ĠMaterials": 24310,
  "ãĤ¦ãĤ¹": 34103,
  "Ġclar": 10212,
  "cher": 2044,
  "ĠEngels": 42532,
  "ĠAA": 15923,
  "CRIPTION": 40165,
  "sey": 4397,
  "Ġcabinets": 43064,
  "Ġimpaired": 22753,
  "Ġbalancing": 22486,
  "Ġpreach": 32950,
  "Ġhectares": 43025,
  "ĠKerry": 15981,
  "Ġpharmaceutical": 18423,
  "1989": 25475,
  "ĠItems": 17230,
  "Ġvaccinations": 46419,
  "ĠWeston": 46949,
  "brook": 19094,
  "Ġmotivations": 28140,
  "ceed": 2707,
  "icit": 3628,
  "Ġhorrifying": 31906,
  "ĠNek": 37167,
  "emia": 22859,
  "amiliar": 19968,
  "attled": 43535,
  "Ġcoast": 7051,
  "Ġ1800": 21431,
  ">>>>>>>>": 33717,
  "ĠLatvia": 35794,
  "Ġmutual": 13584,
  "Ġallied": 22034,
  "Ġassessments": 21837,
  "sten": 26400,
  "ĠNAFTA": 34747,
  "ĠExpress": 10604,
  "Ġberth": 45015,
  "ĠCBD": 27147,
  "Ġabbrevi": 37640,
  "Ġcan": 460,
  "Ġtab": 7400,
  "ĠNobel": 20715,
  "ĠHitman": 50245,
  "Ġ490": 45601,
  "ĠMerrill": 40418,
  "Ġcontinu": 11143,
  "Ġredundant": 30806,
  "\":\"": 2404,
  "ĠAz": 7578,
  "Ġunequal": 37334,
  "ĠEnsure": 48987,
  "ranged": 34457,
  "Ġconcluded": 8391,
  "ĠThought": 27522,
  "Ġgarrison": 45416,
  "Ġinquiry": 12069,
  "ĠTowards": 49953,
  "âķĲâķĲ": 31732,
  "Ġherein": 24028,
  "uming": 12595,
  "Ġkernel": 9720,
  "âĢ²": 17478,
  "Ġacknowledgment": 48182,
  "Ġreversible": 48287,
  "ĠFORM": 49144,
  "raft": 1617,
  "per": 525,
  "Ġdigit": 16839,
  "Ġdiscriminate": 28433,
  "ĠArtificial": 35941,
  "acking": 5430,
  "Screen": 23901,
  "Ġdisperse": 41273,
  "ĠFolk": 36111,
  "Ġunrel": 23232,
  "Ġtally": 26767,
  "cn": 31522,
  "Ġscheme": 7791,
  "Ġhep": 47585,
  "489": 35890,
  "ĠNS": 10896,
  "ĠUSA": 4916,
  "ĠSeas": 32306,
  "Ġtainted": 36912,
  "Ġastronomy": 37145,
  "Ġhysteria": 38893,
  "Ġ\\(\\": 40719,
  "Ġcompassionate": 32533,
  "Ġprolifer": 19873,
  "arl": 7063,
  "ĠLibrary": 10074,
  "Ġdup": 32597,
  "Ġdelays": 16119,
  "ĠTat": 29070,
  "Ġlest": 27380,
  "SAY": 27358,
  "306": 20548,
  "Ġobjective": 9432,
  "Ġwhistleblower": 34875,
  "Ġverbs": 41781,
  "ĠEncounter": 40998,
  "ĠM": 337,
  "Ġtorque": 26415,
  "Bang": 43984,
  "Ġadministrator": 18382,
  "ĠTerrit": 18968,
  "ĠDoodle": 45634,
  "tops": 35011,
  "017": 29326,
  "Ġbloss": 35107,
  "Ġbosses": 17317,
  "ĠValencia": 35773,
  "Ġmicrobiota": 42784,
  "ahl": 15668,
  "Ġadvocating": 24950,
  "Ġpremise": 18659,
  "astics": 24232,
  "br": 1671,
  "ĠPossibly": 43046,
  "iatus": 34704,
  "inducing": 48016,
  "ĠRecover": 49107,
  "pract": 29152,
  "Ġjumps": 18045,
  "Ġaber": 42499,
  "Tem": 12966,
  "Ġcultured": 45847,
  "doc": 15390,
  "Ùĩ": 29519,
  "Ġconfronts": 42650,
  "Ġframe": 5739,
  "ĠTOD": 16926,
  "ĠOdyssey": 28032,
  "Param": 22973,
  "Ġterminate": 23654,
  "ĠMahm": 31556,
  "730": 43916,
  "iuses": 44666,
  "ĠSta": 44919,
  "Ġproviders": 9549,
  "ĠTest": 6208,
  "ĠTWO": 35288,
  "ĠPleasant": 35469,
  "ĠCelt": 16333,
  "Ð¾Ð": 25443,
  "Ġencouragement": 27529,
  "ĠContainer": 43101,
  "ĠHess": 46305,
  "itÃ©": 43816,
  "ĠFinally": 9461,
  "Ġenraged": 37530,
  "Ġwarfare": 15611,
  "bage": 13866,
  "picture": 34053,
  "itionally": 8736,
  "ĠHighlights": 30776,
  "oted": 5191,
  "ĠTIM": 31742,
  "Ġenvisioned": 32295,
  "nah": 40909,
  "ĠCarb": 20453,
  "Ġspew": 38645,
  "axter": 40864,
  "rieg": 48429,
  "Ġcoun": 2289,
  "Ġroyalty": 29359,
  "280": 21033,
  "Ġoutlaw": 23716,
  "href": 33257,
  "Ġ601": 49231,
  "Unique": 40257,
  "Ġindications": 26496,
  "aba": 15498,
  "Ġpos": 1426,
  "ricane": 11551,
  "Ġhonors": 25279,
  "ĠPour": 39128,
  "ĠRU": 46432,
  "Ġsuggests": 5644,
  "Ġmeasures": 5260,
  "Ġderived": 10944,
  "CLASS": 31631,
  "cknowled": 33165,
  "OX": 48632,
  "Ġsilhouette": 41834,
  "Synopsis": 49771,
  "anch": 3702,
  "Ġpersisted": 33264,
  "ĠFres": 32732,
  "Ġwholly": 18174,
  "Ġdescent": 18598,
  "Ġusefulness": 37496,
  "ãĤ·ãĥ£": 39467,
  "car": 7718,
  "Ġconsists": 10874,
  "ĠQuan": 42312,
  "asured": 34006,
  "Narr": 45750,
  "Ġhijab": 48492,
  "prototype": 38124,
  "Ġflask": 42903,
  "Ġguy": 3516,
  "master": 9866,
  "Ġtotally": 6635,
  "324": 33916,
  "Ġrequisite": 37088,
  "Ġ900": 15897,
  "Ġtax": 1687,
  "ĠLyons": 43728,
  "Ġlanding": 9581,
  "Parser": 46677,
  "Ġmascara": 48430,
  "ĠWord": 9678,
  "eman": 8463,
  "Ġretaining": 26645,
  "Ġgrazing": 40470,
  "Ġconsidered": 3177,
  "ĠGlock": 45152,
  "ĠOS": 7294,
  "Ġscarce": 18549,
  "disk": 39531,
  "ĠWell": 3894,
  "ĠJapanese": 4960,
  "Ġsaves": 16031,
  "Ġbatting": 23761,
  "Ġrumours": 30427,
  "ĠCummings": 38154,
  "juven": 39427,
  "Ġredesign": 27135,
  "vati": 36868,
  "Ġ1935": 30704,
  "Ġdown": 866,
  "Ġdeclass": 42794,
  "roach": 28562,
  "ĠHybrid": 29481,
  "Ġpractise": 44811,
  "usb": 43319,
  "ises": 2696,
  "ĠGill": 12981,
  "Ġalternatives": 14693,
  "iHUD": 38370,
  "Ġdenotes": 43397,
  "elist": 46331,
  "Ġinciner": 48244,
  "Ġdisapprove": 48866,
  "Weapons": 41818,
  "ĠPence": 17339,
  "Ġsupport": 1104,
  "ches": 2052,
  "Ġtruth": 3872,
  "Ġchain": 6333,
  "Ġadvisor": 20685,
  "ĠAdvance": 25170,
  "ĠFreed": 38728,
  "Ġbench": 7624,
  "ĠLLC": 11419,
  "Ġmarginal": 14461,
  "ader": 5067,
  "ĠHodg": 37480,
  "ĠHurt": 42566,
  "ĠHannah": 26013,
  "Ġrepealed": 32933,
  "Ġdecipher": 42790,
  "Ġchild": 1200,
  "Ġastronomer": 47603,
  "sein": 20719,
  "oric": 8146,
  "ĠCertainly": 23631,
  "Ġheadsets": 44257,
  "Ġinstit": 6113,
  "798": 43240,
  "ĠFailure": 25743,
  "Ġpolitics": 4819,
  "778": 39761,
  "ĠRyan": 6047,
  "Ġshakes": 29959,
  "((": 19510,
  "Ġlends": 37733,
  "Ġacademia": 34326,
  "alis": 27315,
  "ĠAppearance": 43436,
  "hak": 43573,
  "Sent": 31837,
  "Ġbegged": 32946,
  "ÃĤ": 5523,
  "ain": 391,
  "legate": 34637,
  "Ü": 152,
  "stated": 21989,
  "Ġmajority": 3741,
  "oping": 15816,
  "ĠBeen": 36844,
  "Ġdoubled": 15229,
  "Ġgou": 50162,
  "Stock": 26207,
  "Dist": 20344,
  "Ġplanes": 13016,
  "ĠPersons": 32884,
  "Ġdocumentary": 11648,
  "ĠRedskins": 22038,
  "ĠTerms": 17637,
  "Ġunleashed": 28136,
  "Ell": 30639,
  "RW": 46747,
  "Ġ113": 17318,
  "Ġquieter": 43880,
  "Ġtrunc": 40122,
  "Lind": 43410,
  "557": 41948,
  "ĠTreasure": 20215,
  "ĠObs": 11086,
  "Ġactress": 14549,
  "Ġhelpers": 49385,
  "Ġsubtitles": 44344,
  "ĠACPI": 33465,
  "Ġincarcerated": 33946,
  "Ġformula": 10451,
  "inence": 18386,
  "ĠSchw": 20469,
  "Emb": 31567,
  "Ġire": 35918,
  "Ġcalves": 45889,
  "Ġadvancements": 47220,
  "Ġtails": 30514,
  "rows": 8516,
  "ondo": 22311,
  "Ġ510": 35148,
  "Ġliterally": 7360,
  "ĠHeads": 34838,
  "Ġpuzz": 15575,
  "Ġlucrative": 22958,
  "DD": 16458,
  "+(": 33747,
  "Fortunately": 31276,
  "ĠCarm": 17998,
  "Ġcritiques": 44329,
  "ĠDRM": 31400,
  "od": 375,
  "Ġbogus": 33418,
  "GH": 17511,
  "Ġdiscussing": 11142,
  "Ġstriker": 19099,
  "Ġemphasize": 21322,
  "Ġpse": 15838,
  "ĠNM": 28692,
  "Touch": 35211,
  "Ġagendas": 37611,
  "ĠHawth": 41457,
  "atters": 34387,
  "Ġtot": 2006,
  "GB": 4579,
  "Ġsatur": 17373,
  "\"...": 26214,
  "][/": 44926,
  "âĢĶâĢĶâĢĶâĢĶâĢĶâĢĶâĢĶâĢĶâĢĶâĢĶâĢĶâĢĶâĢĶâĢĶâĢĶâĢĶ": 30542,
  "Ġdragon": 10441,
  "Ġbusiest": 42745,
  "Ġrecy": 15092,
  "Ġeras": 49089,
  "Ġturnovers": 33888,
  "Ġpurposely": 39033,
  "channel": 17620,
  "ĠMON": 25000,
  "ĠDuterte": 25763,
  "ĠÃ¾": 40265,
  "ĠIndia": 3794,
  "aned": 22739,
  "Ġdistracting": 36441,
  "Ġexodus": 39524,
  "Ġobs": 10201,
  "ims": 12078,
  "sf": 28202,
  "isted": 6347,
  "Ġlessen": 40856,
  "ĠLuke": 11336,
  "Resource": 26198,
  "608": 28688,
  "ĠCaval": 21753,
  "oyer": 35301,
  "Ġhaircut": 45548,
  "notations": 30078,
  "ĠSam": 3409,
  "Ġweird": 7650,
  "Ġate": 15063,
  "aling": 4272,
  "Ġteachers": 7799,
  "ĠDes": 2935,
  "ĠDeg": 25905,
  "three": 15542,
  "UFC": 44534,
  "pocket": 31991,
  "Ġcush": 24736,
  "isition": 10027,
  "gomery": 20142,
  "Ġresembles": 22960,
  "ĠRegion": 17718,
  "Ġregeneration": 27597,
  "Ġslogans": 31139,
  "merce": 11647,
  "Ġwarr": 32207,
  "ĠPeng": 42341,
  "Ġtraded": 14018,
  "lab": 23912,
  "ridor": 44425,
  "ends": 2412,
  "Ġbottled": 34123,
  "Ġauthors": 7035,
  "Ġshit": 7510,
  "Ġmisery": 24672,
  "ĠRays": 36199,
  "Ġanthropology": 45424,
  "ĠHyundai": 47962,
  "Ġfrost": 21682,
  "KER": 42839,
  "Ġblog": 4130,
  "ĠChancellor": 19477,
  ",-": 12095,
  "Ġunp": 8593,
  "Ġpreventive": 37197,
  "\"[": 17912,
  "Ġrepressive": 44430,
  "ETH": 20702,
  "ĠCit": 15792,
  "laden": 35668,
  "Ġrealistic": 12653,
  "Ġbridge": 7696,
  "ĠPrel": 28887,
  "ĠGardner": 27911,
  "Ġwrestler": 34845,
  "Ġvomit": 44542,
  "Awesome": 49061,
  "ĠHS": 18070,
  "ĠOlympia": 45760,
  "scient": 25346,
  "Ġcute": 13779,
  "Ġcondemns": 49758,
  "ĠMotorsport": 49996,
  "bl": 2436,
  "Ġcoasts": 48598,
  "ĠPadres": 40188,
  "ĠLive": 7547,
  "Ġstepped": 10764,
  "Ġbusy": 8179,
  "1993": 24465,
  "Ġknee": 10329,
  "EF": 25425,
  "ĠLW": 38492,
  "Ġsac": 5360,
  "Ġfaster": 5443,
  "Ġvoters": 4446,
  "Among": 14311,
  "Ġcabinet": 13447,
  "IA": 3539,
  "Ġwest": 7421,
  "Screenshot": 34204,
  "ĠOld": 5706,
  "Modern": 31439,
  "Ġfreeing": 35800,
  "ĠTir": 39847,
  "osexual": 8542,
  "Ġerection": 42056,
  "Ġslices": 24314,
  "study": 44517,
  "fortunately": 6668,
  "ĠICO": 30674,
  "eers": 47619,
  "ĠSurface": 20321,
  "Ġsidelined": 39632,
  "ĠSignal": 26484,
  "Help": 22087,
  "Ġsupplemental": 34885,
  "ati": 7246,
  "ĠHuck": 33703,
  "Ġteaspoons": 47234,
  "Altern": 23081,
  "Ġwires": 19474,
  "Ġbu": 809,
  "Ġlack": 3092,
  "Ġbread": 8509,
  "Ġreminded": 14516,
  "Ġhath": 22027,
  "Ġautomatically": 6338,
  "elsen": 25328,
  "ador": 7079,
  "aah": 37500,
  "ĠROS": 48263,
  "ĠSad": 14668,
  "Ġ+/-": 29694,
  "Ġpharm": 10113,
  "Ġthousands": 4138,
  "Ġaccelerate": 22636,
  "ĠPione": 27507,
  "Ġexecute": 12260,
  "Ġprofessional": 4708,
  "Ġpivot": 30355,
  "Ġmicrobial": 36603,
  "adia": 29523,
  "ĠArbor": 30455,
  "Ġcrumbling": 37550,
  "Ġwaterways": 47518,
  "ĉ": 197,
  "ĠAustralia": 4505,
  "ĠJudges": 42495,
  "Ġelectors": 39259,
  "Ġfrivolous": 48461,
  "ĠRepair": 28912,
  "Ġstomach": 11384,
  "Ġtraff": 11878,
  "ĠApple": 4196,
  "one": 505,
  "ĠCamer": 8014,
  "Ġconce": 8571,
  "Ġwhoever": 16958,
  "Ġtyped": 25683,
  "ĠUCH": 34340,
  "Ġambulance": 22536,
  "Ġmagn": 7842,
  "arch": 998,
  "bean": 14289,
  "ĠJin": 17297,
  "Ġblessed": 18259,
  "rag": 22562,
  "ĠDana": 22937,
  "esthesia": 34811,
  "immer": 10957,
  "Ġclears": 37526,
  "Ġrushed": 13999,
  "ĠClassification": 40984,
  "ĠSUB": 28932,
  ")\",": 42501,
  "ugu": 45284,
  "ĠNewsweek": 39594,
  "Ġtriumphant": 44005,
  "lier": 2505,
  "]-": 45297,
  "Ġattentive": 45660,
  "Ġstitching": 48945,
  "Ġdissidents": 49913,
  "ĠImpossible": 38791,
  "Ġsanct": 25417,
  "Ġescal": 12221,
  "ĠIndustries": 20171,
  "Ġcryptographic": 40705,
  "insk": 35803,
  "ortunately": 4690,
  "ĠGaza": 11010,
  "ĠResearch": 4992,
  "igo": 14031,
  "Ġhardcore": 22823,
  "Ġmagazine": 7093,
  "ĠFuk": 22431,
  "emn": 37705,
  "ulnerability": 40920,
  "osuke": 45914,
  "ĠCant": 16821,
  "rap": 2416,
  "realDonaldTrump": 28024,
  "075": 46396,
  "Ġformer": 1966,
  "Ġvolcanic": 31513,
  "ploma": 35728,
  "Ġsubclass": 47611,
  "Orderable": 39655,
  "ĠAdjusted": 45624,
  "Ġengineer": 11949,
  "ĠDatabase": 24047,
  "olar": 6192,
  "los": 33280,
  "ĠAmber": 21896,
  "pg": 6024,
  "ĠSandy": 17581,
  "354": 32182,
  "missions": 8481,
  "ARD": 9795,
  "ĠStupid": 42930,
  "heads": 16600,
  "Ġ414": 45900,
  "æ©Ł": 49960,
  "ĠHort": 31693,
  "Ġsubst": 3293,
  "Ġredist": 17678,
  "Ġintertw": 39458,
  "Ap": 25189,
  "Ġlobster": 43657,
  "ĠGrande": 29073,
  "ĠPreviously": 29875,
  "ĠCecil": 32234,
  "Ġincluded": 3017,
  "Ġpussy": 18185,
  "Ġfriendships": 34596,
  "Ġadjusted": 12328,
  "ĠSri": 20872,
  "arted": 19112,
  "ĠHands": 22237,
  "Ġbeliever": 29546,
  "Ġlegislatures": 38081,
  "iger": 8254,
  "ĠDetroit": 8488,
  "ĠPuzzle": 23966,
  "ĠBom": 20403,
  "Ġbrid": 38265,
  "Scar": 44433,
  "ĠAlas": 45315,
  "rame": 28073,
  "Ġton": 5680,
  "igne": 48946,
  "Ġmyths": 22886,
  "ĠMk": 24798,
  "ĠPew": 21805,
  "Ġbilled": 33094,
  "Rect": 45474,
  "Ġcombining": 19771,
  "NV": 27159,
  "Ġfeel": 1254,
  "Ġseparating": 27259,
  "Shar": 40201,
  "upuncture": 42223,
  "reddit": 10748,
  "il": 346,
  "ĠHenry": 8616,
  "TF": 10234,
  "Ġdisable": 15560,
  "Ġprone": 17592,
  "Ġcuriosity": 20136,
  "OULD": 24010,
  "uki": 11308,
  "ãĤŃ": 25084,
  "ĠLiberation": 29235,
  "ĠdÃ©": 39073,
  "ĠJPM": 40145,
  "You": 1639,
  "æĸ¹": 43095,
  "Ġtriangles": 44360,
  "ĠACS": 48264,
  "UTF": 48504,
  "Ġschool": 1524,
  "Ġcocktails": 34281,
  "Ġheadset": 23492,
  "ifiable": 16823,
  "alt": 2501,
  "Ġhormones": 21311,
  "scribed": 47495,
  "Ġtentacles": 41192,
  "ĠShinzo": 43531,
  "aples": 28624,
  "Ġoptimization": 23989,
  "aman": 10546,
  "Ġdisposable": 32445,
  "Ġiceberg": 34849,
  "Ġexamine": 10716,
  "ĠProbably": 18578,
  "Ġwatchdog": 26856,
  "ĠÂ©": 10673,
  "Ġswitching": 15430,
  "Ġgalaxies": 27982,
  "Ġcryptocurrency": 20210,
  "Ġkeep": 1394,
  "Featured": 37948,
  "Ġvoter": 10765,
  "Ġascending": 41988,
  "Ġprompted": 12053,
  "Ġchanging": 5609,
  "gt": 13655,
  "ĠCluster": 38279,
  "Ġthesis": 21554,
  "Rachel": 44045,
  "Rocket": 50218,
  "Ġsubt": 13284,
  "ĠThree": 7683,
  "Ġrational": 9377,
  "Ġcolumnist": 22309,
  "iners": 21257,
  "Ġissu": 25731,
  "Ġ[+": 26076,
  "Ġimpetus": 43007,
  "ĠBray": 43050,
  "ĠCommissioner": 13270,
  "Ġattributed": 14183,
  "ĠTerror": 14915,
  "Ġ--------------------------------": 20368,
  "ĠCarlson": 33059,
  "strate": 23104,
  "Ġpolicies": 4788,
  "ĠGS": 26681,
  "does": 22437,
  "ilitation": 18194,
  "Ġinfuri": 35905,
  "Ġflash": 7644,
  "otypes": 13567,
  "continue": 43043,
  "Ġsacks": 23249,
  "Ġcallback": 23838,
  "Ġtrailing": 25462,
  "direction": 37295,
  "Ġprotracted": 44466,
  "ERY": 19664,
  "Ġquickest": 46264,
  "Ġequate": 45423,
  "Economic": 48307,
  "Ġbreaching": 46837,
  "Ġextrater": 42024,
  "Ę": 212,
  "Ġcompletes": 32543,
  "uced": 19513,
  "LU": 41596,
  "Premium": 36787,
  "Ġrecovered": 11911,
  "ĠSchwarz": 34835,
  "Ġindexes": 39199,
  "81": 6659,
  "Ġneuro": 7669,
  "Ġreeling": 45341,
  "ĠReport": 6358,
  "sembly": 5997,
  "Ġfeminism": 19394,
  "ĠGilbert": 24023,
  "ĠOw": 11960,
  "Skill": 35040,
  "Ġhazard": 15834,
  "ĠDrinking": 43963,
  "Ġexhibiting": 46017,
  "Ġ145": 20299,
  "Ġpatches": 16082,
  "ever": 964,
  "DR": 7707,
  "Ġcel": 18725,
  "Ġfrown": 22002,
  "Ġreporter": 9095,
  "ĠKEY": 35374,
  "Ġderog": 38417,
  "Southern": 44993,
  "Like": 7594,
  "Laughs": 34610,
  "Ġholdings": 27572,
  "jer": 44009,
  "NULL": 33991,
  "Brandon": 45467,
  "ĠWe": 775,
  "oe": 2577,
  "Ġice": 4771,
  "Ġmg": 10527,
  "pat": 8071,
  "ĠNATO": 11332,
  "Ġdummy": 31548,
  "327": 34159,
  "Ñı": 40623,
  "Ġmeasurement": 15558,
  "ĠGarg": 39013,
  "nant": 22057,
  "Ġ/": 1220,
  "ãĤ¼": 30432,
  "ĠLikewise": 22660,
  "Ġflame": 16506,
  "Ġinverted": 37204,
  "Ġlocked": 8970,
  "ĠLaboratories": 46779,
  "ĠBroad": 9765,
  "024": 40839,
  "ĠOswald": 34374,
  "Ġ114": 17342,
  "ĠParad": 14853,
  "ĠActivity": 24641,
  "ĠCald": 29182,
  "Ġisn": 2125,
  "ĠFormat": 18980,
  "ĠOrganization": 12275,
  "Ġslow": 3105,
  "GHz": 23741,
  "Ġstewards": 38030,
  "Ġbreak": 2270,
  "Ġcapita": 21344,
  "ĠVac": 25709,
  "ĠPet": 4767,
  "wic": 22664,
  "quist": 30062,
  "eeds": 39642,
  "urger": 32650,
  "Ġslur": 40066,
  "uku": 33263,
  "quote": 22708,
  "Ġaids": 31378,
  "Ġtheoretical": 16200,
  "ĠWise": 28908,
  "Nonetheless": 43258,
  "ĠChaos": 13903,
  "Ġencomp": 20504,
  "Ġprincip": 26303,
  "()": 3419,
  "458": 29334,
  "Ġsale": 5466,
  "ĠTower": 8765,
  "ĠVID": 32247,
  "Ġempowering": 35917,
  "ĠCop": 6955,
  "nav": 28341,
  "Ġvot": 1993,
  "ĠTake": 7214,
  "fast": 7217,
  "ĠAffairs": 10665,
  "Ġchall": 2532,
  "Ġfocuses": 13692,
  "ĠRogers": 15372,
  "Ġb": 275,
  "Ġvisible": 7424,
  "Mel": 21102,
  "Ġ343": 37290,
  "ĠFiction": 26756,
  "mone": 47122,
  "ĠRescue": 17285,
  "WE": 8845,
  "ĠRothschild": 38198,
  "Ġhappiest": 49414,
  "Isn": 41451,
  "Ġenvision": 21786,
  "Ġbrun": 45033,
  "ĠUT": 19255,
  "ĠNeck": 34726,
  "Ġparcel": 25232,
  "Ġcomr": 20677,
  "Ġverses": 24752,
  "lot": 26487,
  "uten": 7809,
  "Ġconting": 17982,
  "Ġshady": 36135,
  "ĠSod": 43829,
  "ĠRational": 46863,
  "KB": 22764,
  "aith": 3921,
  "Ġwindow": 4324,
  "362": 35667,
  "Ġveterans": 11255,
  "Ġhips": 21497,
  "ĠNo": 1400,
  "Ġhostilities": 39082,
  "Inf": 18943,
  "CBS": 22923,
  "ĠJelly": 37152,
  "Pure": 49548,
  "Ġauth": 6284,
  "Angel": 33246,
  "©": 102,
  "py": 9078,
  "ĠLois": 42879,
  "kok": 32004,
  "Ġcomedy": 10997,
  "ĠIcar": 48562,
  "Ġmissions": 10566,
  "Ġnewest": 15530,
  "ĠShim": 31698,
  "Either": 32478,
  "Ġbull": 6473,
  "Ġ1080": 17729,
  "Ġextension": 7552,
  "Ġparental": 21694,
  "fl": 2704,
  "niper": 45554,
  "Ġve": 1569,
  "Ġmarginally": 44108,
  "Ġble": 7245,
  "ĠDirector": 5890,
  "LER": 39878,
  "Ġexpressing": 16621,
  "Ġpenetration": 23271,
  "christ": 43533,
  "ĠGaal": 41308,
  "ĠMcGregor": 32777,
  "fashioned": 28776,
  "stanbul": 24179,
  "Remove": 27914,
  "ĠGuang": 36980,
  "Ġpsyche": 39006,
  "Ġformally": 15832,
  "Ġ820": 48964,
  "Ġ270": 20479,
  "ĠAppears": 31254,
  "problem": 45573,
  "ĠRank": 10916,
  "Ġsetbacks": 43235,
  "Ġro": 686,
  "Ġcommercially": 26879,
  "ails": 1768,
  "Ġthroughput": 41997,
  "rose": 13698,
  "ĠAnthony": 9953,
  "Ġwrestle": 46825,
  "voc": 18893,
  "Ġrevis": 22124,
  "ĠLCD": 23598,
  "Ġmisunderstand": 39653,
  "ĠSaud": 6746,
  "Ġclusters": 23163,
  "OURCE": 31033,
  "Ġsnacks": 28487,
  "cest": 9165,
  "urrection": 21384,
  "ĠHolly": 7764,
  "ĠWP": 28993,
  "Ġenabling": 15882,
  "ĠRobotics": 47061,
  "Ġargument": 4578,
  "Ġrewarded": 20945,
  "ooks": 31085,
  "ĠInvalid": 17665,
  "Ġadmission": 13938,
  "Ġprostitute": 37833,
  "ĠWiley": 43424,
  "Ġpresumably": 14572,
  "ĠShoes": 41332,
  "Ġstaples": 46413,
  "eh": 17231,
  "Ġtorped": 30892,
  "ĠattRot": 35207,
  "Ġbacker": 37617,
  "Ġsweeps": 46778,
  "ĠRIS": 45698,
  "ĠeSports": 32717,
  "ĠSig": 21984,
  "Ġspreading": 14342,
  "Ġbillionaire": 18828,
  "Ġopenly": 11764,
  "ĠAbility": 20737,
  "ĠMyers": 25434,
  "Ġwont": 28329,
  "idates": 37051,
  "Ġdrawback": 43585,
  "Ġsd": 45647,
  "Ġveiled": 45694,
  "Ġcircumstance": 25179,
  "emonic": 50016,
  "Ġbodies": 5920,
  "ĠMing": 26980,
  "Ġgravy": 43779,
  "alty": 6017,
  "Soc": 37949,
  "watching": 50042,
  "Ġavailable": 1695,
  "cycl": 15539,
  "ĠHaas": 50090,
  "Ġascend": 34800,
  "ĠHorses": 49122,
  "ĠDise": 14865,
  "Ġjoining": 9679,
  "Ġdip": 19550,
  "sp": 2777,
  "Ġsmashed": 23354,
  "ĠRenault": 44083,
  "Ġmanner": 5642,
  "ĠMisty": 47330,
  "Ĕ": 208,
  "ĠMinistry": 9475,
  "Ġengineers": 12037,
  "Ġlatt": 47240,
  "Ġpointer": 17562,
  "Ġachievable": 47729,
  "alia": 9752,
  "ĠCBC": 20244,
  "ibr": 2889,
  "Ġ224": 26063,
  "ĠOPER": 43521,
  "Ġlogistical": 41088,
  "Ġsynopsis": 48830,
  "Ġng": 23370,
  "Ġpowerless": 34209,
  "ĠJacksonville": 23194,
  "nostic": 43758,
  "ramids": 43591,
  "ĠBrett": 18726,
  "ĠClaude": 40559,
  "Ġwaived": 28170,
  "Ġegreg": 31954,
  "Ġ\"\\": 37082,
  "Ġflipped": 26157,
  "ĠTroy": 21439,
  "ĠFirearms": 32389,
  "Ġpatch": 8529,
  "ĠFriedrich": 46099,
  "ĠPreservation": 47805,
  "ĠNikon": 31356,
  "ifier": 7483,
  "Ġpedals": 42563,
  "Ġdesper": 8029,
  "Ġupset": 9247,
  "Ġsenator": 12329,
  "ofi": 39542,
  "Ġdensely": 42255,
  "Ġturbulent": 42291,
  "ophical": 49256,
  "ĠCaption": 11260,
  "Ġdeck": 6203,
  "Ġunanimously": 28355,
  "ĠChile": 17456,
  "urus": 31891,
  "Ġjaws": 39940,
  "ouver": 10166,
  "Ġruler": 22740,
  "Ġnost": 18216,
  "flows": 44041,
  "ĠArlington": 30379,
  "Ġprox": 14793,
  "ĠCommission": 4513,
  "Ġtoddler": 30773,
  "Ġpotion": 26572,
  "held": 10217,
  "obj": 26801,
  "reys": 46703,
  "essential": 31195,
  "yout": 32015,
  "ĠRolling": 21567,
  "Ġalleging": 26116,
  "Ġvou": 25211,
  "ederation": 9748,
  "Ġstrap": 23016,
  "idel": 5943,
  "ĠReporter": 25869,
  "ĠBayern": 30683,
  "Ġantidepressant": 41897,
  "roe": 20646,
  "ĠRobinson": 12652,
  "ĠReg": 3310,
  "ĠHeaven": 11225,
  "iblings": 19389,
  "internal": 32538,
  "Ġsweat": 15488,
  "Ġignored": 9514,
  "Mer": 13102,
  "Ġworn": 12666,
  "Ġchiefs": 30217,
  "Ġexactly": 3446,
  "text": 5239,
  "Ġfantastic": 9623,
  "Ġquicker": 20061,
  "pack": 8002,
  "f": 69,
  "Ġpayable": 28538,
  "454": 34229,
  "quin": 21915,
  "Ġrisks": 7476,
  "ĠÂ": 1587,
  "ĠPett": 35043,
  "ĠCalculator": 43597,
  "Ġgaining": 13977,
  "ighth": 10887,
  "Ġ1961": 20510,
  "Hol": 28115,
  "Ġtrivial": 20861,
  "ocally": 44190,
  "Ġana": 44763,
  "%]": 39850,
  "kids": 45235,
  "ĠPharmaceutical": 37175,
  "Ġbrother": 3956,
  "Ġ39": 5014,
  "ĠeBook": 46566,
  "ĠMars": 8706,
  "ĠDown": 5588,
  "ĠPalestinians": 12890,
  "Ġenchant": 23260,
  "ĠKhan": 11356,
  "Han": 29919,
  "ĠWenger": 31415,
  "Ġthus": 4145,
  "Ġshave": 34494,
  "endale": 41147,
  "Ġobserve": 12414,
  "aram": 41158,
  "oshop": 25444,
  "Ġafterlife": 45076,
  "ĠPCR": 45154,
  "ĠMoons": 48432,
  "ĠClubs": 48901,
  "dress": 49380,
  "Ġseek": 5380,
  "ĠYao": 37826,
  "Ġfan": 4336,
  "Ġadvanced": 6190,
  "facts": 37473,
  "ĠRankings": 40284,
  "Ġaccountant": 42627,
  "ĠDays": 12579,
  "Ġanat": 20076,
  "eur": 23365,
  "ĠUbisoft": 34559,
  "Ġradial": 44503,
  "Ġartwork": 16257,
  "sighted": 44068,
  "ĠCabin": 16804,
  "Ġimpression": 10647,
  "het": 3202,
  "ĠNorm": 11220,
  "ĠCha": 20703,
  "Ġconduct": 3189,
  "wall": 11930,
  "ĠSTART": 33303,
  "ĠBalloon": 47821,
  "daily": 29468,
  "Ġregulator": 24161,
  "ucl": 36616,
  "Ġpract": 1970,
  "ĠKraken": 43392,
  "ĠWCS": 45410,
  "Ġriches": 35000,
  "ĠDuke": 11083,
  "ĠCairo": 23732,
  "ĠSchneider": 26039,
  "anical": 36684,
  "Render": 45819,
  "ators": 2024,
  "atic": 1512,
  "ĠDod": 15990,
  "æŃ¦": 49476,
  "Ġstabbed": 21512,
  "Ġtherein": 27258,
  "mad": 9937,
  "ĠCav": 19931,
  "485": 32642,
  "Ġfrag": 7956,
  "ĠSubscribe": 19808,
  "sequently": 20415,
  "Ġsized": 19943,
  "ĠFarn": 49230,
  "ĠRath": 26494,
  "ggles": 32723,
  "Ġhints": 20269,
  "Pin": 28348,
  "Ġcon": 369,
  "Ġeliminates": 32311,
  "1960": 38503,
  "mallow": 42725,
  "Ġdisliked": 43252,
  "ĠEisenhower": 35015,
  "421": 46636,
  "anners": 15672,
  "SEA": 46887,
  "ĠCream": 19979,
  "ĠNam": 17871,
  "Ġfog": 19558,
  "brance": 28031,
  "ĠHacker": 34399,
  "Ġcircumcision": 25513,
  "opath": 18569,
  "781": 49703,
  "Ġtaxpayer": 14776,
  "North": 14157,
  "ĠUKIP": 37809,
  "Ġtextual": 40577,
  "zac": 49897,
  "Ġembry": 20748,
  "Ġrecommends": 20829,
  "Ġlearns": 22974,
  "bows": 25435,
  "ĠBerlin": 11307,
  "Ġsly": 49822,
  "no": 3919,
  "ĠRED": 23848,
  "pection": 14978,
  "ĠVaughan": 47451,
  "Īè": 42062,
  "rating": 8821,
  "ĠAdmin": 32053,
  "Ġalgebra": 37139,
  "ĠKnot": 42572,
  "Ġ500": 5323,
  "¬¼": 45539,
  "Ġintroduction": 9793,
  "å°Ĩ": 49546,
  "}.": 27422,
  "ĠLong": 5882,
  "Ġhose": 31489,
  "limit": 32374,
  "Ġego": 19225,
  "olving": 10890,
  "Ġcartoon": 16251,
  "ĠEugene": 24532,
  "eden": 31829,
  "ĠTownship": 32115,
  "ĠShell": 17537,
  "ĠLaurie": 40811,
  "ĠRetirement": 41863,
  "815": 49503,
  "iant": 3014,
  "obal": 2572,
  "ĠQuestions": 20396,
  "Þ": 154,
  "successful": 17212,
  "ĠLamar": 26907,
  "Ġbreast": 9296,
  "Ġnames": 3891,
  "Vari": 23907,
  "Visual": 36259,
  "Extreme": 36716,
  "Ġcrooked": 45571,
  "Ġstatically": 47746,
  "Ġstatistical": 13905,
  "ĠBasically": 20759,
  "ania": 5411,
  "Ġrespectful": 25923,
  "Ġshout": 9191,
  "Ġroll": 4836,
  "Ġdrills": 26721,
  "Ġmaternal": 22160,
  "Ġhypocrisy": 29442,
  "olo": 14057,
  "Ġpedestrians": 26735,
  "Ġselector": 31870,
  "Ġurine": 18922,
  "Ġcalib": 27417,
  "cription": 6820,
  "Ġwide": 3094,
  "Ġclean": 3424,
  "Ġreaction": 6317,
  "2012": 6999,
  "ocity": 11683,
  "uv": 14795,
  "ļéĨĴ": 22757,
  "Ġsket": 28427,
  "Ġbun": 28773,
  "axis": 22704,
  "Ġrugged": 30957,
  "Ġmuch": 881,
  "Ġinstantly": 11101,
  "Ġgovernor": 8153,
  "Ġposter": 11968,
  "Model": 17633,
  "Ġphrases": 20144,
  "Ġpractitioners": 24068,
  "bowl": 36859,
  "Will": 8743,
  "Ġimplication": 26863,
  "ĠPlain": 28847,
  "nee": 21381,
  "asions": 39327,
  "ogens": 26612,
  "Life": 14662,
  "Ġlucid": 45464,
  "Ġachieve": 4620,
  "Ġdab": 45553,
  "Phone": 6132,
  "oys": 19417,
  "Black": 9915,
  "ĠDomain": 20021,
  "ĠPodesta": 27375,
  "ĠArgentine": 36399,
  "ĠRacer": 39359,
  "Ġpanicked": 38225,
  "Ġ:=": 19039,
  "encies": 3976,
  "486": 34251,
  "ĠNewsletter": 35798,
  "zi": 17027,
  "ĠChapter": 7006,
  "Ġgene": 9779,
  "Ġ297": 41103,
  "Correct": 42779,
  "ĠNeb": 29837,
  "sleep": 42832,
  "Ġscouting": 27088,
  "ĠAlbum": 23999,
  "Ġcrusade": 39856,
  "ĠHaram": 33139,
  "ĠPlugin": 42636,
  "ankind": 28066,
  "Ġsticky": 23408,
  "Ġvariability": 25364,
  "tx": 17602,
  "ĠNorthwestern": 30197,
  "Ġfestival": 10876,
  "ĠSEO": 30850,
  "te": 660,
  "Ġdetector": 31029,
  "ĠLange": 47579,
  "Ġcrystal": 15121,
  "Ġconvicted": 9118,
  "ĠASUS": 38100,
  "Las": 46898,
  "mbudsman": 47012,
  "drm": 49007,
  "myra": 49216,
  "ĠProof": 29999,
  "Additional": 17699,
  "Ġinterception": 28759,
  "Ġcommence": 23038,
  "%).": 18823,
  "44": 2598,
  "Ġbathroom": 12436,
  "NW": 27605,
  "Gh": 41126,
  "orman": 26183,
  "ĠYork": 1971,
  "ĠRad": 5325,
  "ooky": 29655,
  "Ġproced": 5131,
  "ĠâĪ¼": 42783,
  "ens": 641,
  "Ġcro": 6763,
  "Ġmanufact": 4011,
  "Ġfamed": 28331,
  "Ġinterconnected": 40582,
  "Ġfamous": 5863,
  "unction": 4575,
  "INA": 28893,
  "ĠINTO": 39319,
  "Ġhippocamp": 28253,
  "ĠDice": 34381,
  "ĠELECT": 46323,
  "ĠKenyan": 47214,
  "Ġlifestyles": 43644,
  "ĠYong": 40633,
  "ĠVeterinary": 48928,
  "Ġgunman": 23128,
  "FORMATION": 35036,
  "ĠFirm": 31623,
  "ĠReply": 14883,
  "ĠSU": 13558,
  "!": 0,
  "Ġske": 6146,
  "Ġpassage": 10066,
  "ĠChick": 31939,
  "Ġconservatism": 33933,
  "ĠDem": 1897,
  "Ġimpending": 27523,
  "Ġports": 14090,
  "ĠThose": 5845,
  "ĠMarie": 20492,
  "Ġexternally": 45107,
  "Ġweekends": 21511,
  "ĠRemoved": 28252,
  "ĠGlad": 28442,
  "ibel": 43837,
  "shaw": 32832,
  "ĠSche": 10011,
  "ĠHaitian": 48723,
  "ĠAcad": 7116,
  "modules": 18170,
  "Ġencrypted": 19365,
  "ĠBernie": 10477,
  "ogene": 20878,
  "menu": 26272,
  "Ġschooling": 36946,
  "ishop": 10124,
  "Only": 10049,
  "Ġsurfing": 36254,
  "Ġadvisable": 46511,
  "ĠMOV": 28184,
  "ĠGlac": 42719,
  "ĠDominion": 28098,
  "Ġobstruct": 26520,
  "oenix": 8538,
  "ĠAware": 32828,
  "advertisement": 45876,
  "Ò": 142,
  "ĠJefferson": 15375,
  "Ġinflict": 28640,
  "parable": 37064,
  "TeX": 49568,
  "Ġclinic": 15760,
  "rust": 11469,
  "end": 437,
  "Ġgreatly": 9257,
  "Ġdizz": 29527,
  "ĠAssociate": 22669,
  "US": 2937,
  "293": 31675,
  "ĠPratt": 34780,
  "Draft": 37741,
  "Ġparameters": 10007,
  "Found": 21077,
  "focused": 18143,
  "ĠStarted": 31026,
  "Interface": 39317,
  "Ġpropagation": 43594,
  "ftime": 31387,
  "Ġuptick": 46347,
  "cone": 49180,
  "ĠSoldier": 20104,
  "imar": 49399,
  "els": 1424,
  "Ġunprotected": 42069,
  "ĠAbs": 13051,
  "NER": 21479,
  "Effect": 18610,
  "ĠMalcolm": 20002,
  "Ġcontinuous": 12948,
  "ĠJUSTICE": 49687,
  "ĠNight": 5265,
  "Final": 19006,
  "004": 22914,
  "Ġchees": 27384,
  "ĠAcceler": 29805,
  "ĠIDF": 33389,
  "ĠThermal": 41590,
  "ĠQaeda": 17942,
  "Ġanesthesia": 49592,
  "Old": 19620,
  "emb": 24419,
  "amm": 6475,
  "Ġspanning": 32557,
  "Veh": 37870,
  "Ġcriterion": 34054,
  "Ġaliens": 16269,
  "disabled": 47730,
  "ree": 631,
  "ĠRS": 19340,
  "Ġlia": 35388,
  "ĠPact": 41460,
  "Tu": 47247,
  "othermal": 49723,
  "ĠFlask": 46947,
  "aker": 3110,
  "emale": 10144,
  "ĠWeather": 15615,
  "Ġforefront": 26401,
  "ĠMilo": 32662,
  "selected": 34213,
  "aldi": 37566,
  "woods": 39493,
  "ĠPACK": 47035,
  "Ġsshd": 49249,
  "ĠFill": 27845,
  "Ġtelling": 5149,
  "ĠPorn": 29629,
  "236": 24940,
  "Ġpackaged": 25555,
  "Ġreluctantly": 35462,
  "Elizabeth": 43568,
  "wives": 35234,
  "Ġpicnic": 35715,
  "Ġshenan": 48416,
  "hz": 32179,
  "ĠNirvana": 49923,
  "ĠPlanetary": 43800,
  "Ġthriving": 27723,
  "Ġfabricated": 33612,
  "Ġvoyage": 31505,
  "ĠMEP": 40771,
  "Ġglean": 41881,
  "Ġinflammation": 20881,
  "Ġ333": 23460,
  "ongo": 25162,
  "ĠModes": 42082,
  "Alien": 44501,
  "Versions": 45150,
  "ĠPatterns": 47020,
  "ĠISPs": 28677,
  "Ġcholesterol": 18759,
  "Ġstreaks": 48356,
  "Ġpolit": 1408,
  "ĠMobility": 34505,
  "Ġwhistle": 16121,
  "ĠWeaver": 29594,
  "req": 42180,
  "Yan": 49664,
  "hover": 43753,
  "Ġdumped": 24105,
  "'m": 1101,
  "Ġchrom": 15358,
  "Ġubiquitous": 27888,
  "ĠRecorded": 50096,
  "ĠPu": 11634,
  "Ġprogressive": 10393,
  "Ġendeav": 21519,
  "Ġrolled": 11686,
  "includes": 42813,
  "Ġauthorized": 10435,
  "avier": 19492,
  "hearted": 20122,
  "Secondly": 44276,
  "connection": 38659,
  "Ġpioneer": 29570,
  "ilar": 1794,
  "ĠChronic": 40700,
  "Ġcries": 24691,
  "ĠResident": 22373,
  "Ġinjure": 42206,
  "Ġconstructing": 30580,
  "Ġ[]": 17635,
  "nesty": 18718,
  "sell": 7255,
  "Ġ................": 44713,
  "der": 1082,
  "ĠSteelers": 21323,
  "Plug": 23257,
  "ĠâĹ": 24966,
  "ĠAnthrop": 32898,
  "Ġexplosion": 11278,
  "Dallas": 40540,
  "Ġsupplemented": 41610,
  "ĠPerez": 23058,
  "Ġcount": 954,
  "Ġintric": 22588,
  "enton": 26673,
  "Ġdoctr": 26865,
  "Ġaccustomed": 23840,
  "408": 26200,
  "Driver": 32103,
  "HI": 25374,
  "discrimination": 42723,
[...]
