{
  "2978": "hel",
  "7745": "iy",
  "261": "on",
  "21": "6",
  "7": "(",
  "42334": "2020",
  "8": ")",
  "68": "e",
  "49841": "034",
  "1495": "25",
  "10154": "contents",
  "8341": "lists",
  "1695": "available",
  "379": "at",
  "629": "sc",
  "26343": "ienced",
  "1060": "irect",
  "932": "hel",
  "2267": "research",
  "2708": "article",
  "257": "a",
  "40460": "feasibility",
  "2050": "study",
  "286": "of",
  "1844": "complete",
  "1877": "low",
  "12": "-",
  "15805": "cost",
  "7172": "consumer",
  "9526": "grade",
  "3632": "brain",
  "33215": "computer",
  "7071": "interface",
  "1080": "system",
  "2210": "vict",
  "10145": "ori",
  "499": "ap",
  "316": "et",
  "882": "erson",
  "64": "a",
  "11": ",",
  "65": "b",
  "24861": "âĪ",
  "245": "Ĺ",
  "3797": "cat",
  "14414": "alin",
  "363": "ag",
  "282": "al",
  "85": "v",
  "21162": "Ã¡n",
  "16225": "hug",
  "78": "o",
  "2881": "hern",
  "6557": "Ã¡",
  "358": "nd",
  "8471": "ez",
  "6437": "rub",
  "641": "ens",
  "79": "p",
  "444": "ies",
  "66": "c",
  "8625": "inst",
  "270": "it",
  "9390": "uto",
  "390": "de",
  "2603": "mat",
  "368": "em",
  "83": "t",
  "3970": "ica",
  "489": "pl",
  "291": "ic",
  "4763": "ada",
  "1619": "del",
  "300": "l",
  "2072": "itor",
  "545": "im",
  "369": "con",
  "403": "un",
  "75": "l",
  "264": "s",
  "4910": "anta",
  "730": "fe",
  "1822": "arg",
  "298": "ent",
  "1437": "ina",
  "275": "b",
  "38942": "fac",
  "586": "ult",
  "324": "ad",
  "27016": "ingen",
  "959": "ier",
  "29690": "ÃŃa",
  "5820": "univers",
  "32482": "idad",
  "299": "n",
  "330": "ac",
  "1538": "ional",
  "920": "ent",
  "260": "re",
  "374": "r",
  "8836": "ÃŃ",
  "418": "os",
  "25912": "fi",
  "38886": "uner",
  "267": "o",
  "305": "ro",
  "3326": "ver",
  "2934": "de",
  "269": "c",
  "10378": "dep",
  "433": "art",
  "3263": "ament",
  "45101": "facult",
  "627": "qu",
  "76": "m",
  "256": "t",
  "1312": "i",
  "304": "e",
  "277": "f",
  "26286": "keywords",
  "25": ":",
  "48730": "biomedical",
  "8705": "engineering",
  "20314": "interfaces",
  "1533": "eg",
  "5584": "motor",
  "19506": "imagery",
  "1280": "open",
  "10459": "source",
  "3788": "software",
  "27825": "brain",
  "357": "(",
  "15630": "bc",
  "271": "is",
  "389": "are",
  "8514": "technologies",
  "326": "that",
  "2148": "provide",
  "262": "the",
  "2836": "user",
  "351": "with",
  "281": "an",
  "5559": "alternative",
  "835": "way",
  "1316": "commun",
  "34222": "tion",
  "13": ".",
  "979": "ci",
  "5260": "measures",
  "3842": "activity",
  "70": "g",
  "290": "and",
  "26161": "converts",
  "340": "it",
  "656": "into",
  "5072": "output",
  "9729": "commands",
  "11632": "mi",
  "828": "),",
  "5110": "mental",
  "18640": "simulation",
  "8650": "movements",
  "460": "can",
  "307": "be",
  "973": "used",
  "355": "as",
  "23457": "paradigm",
  "810": "where",
  "3356": "movement",
  "6778": "intention",
  "14251": "translated",
  "1103": "real",
  "5742": "helping",
  "3871": "patients",
  "287": "in",
  "7628": "recovery",
  "23668": "rehabilitation",
  "530": "one",
  "1388": "main",
  "1761": "lim",
  "602": "ations",
  "329": "for",
  "3154": "broad",
  "779": "use",
  "884": "such",
  "4410": "devices",
  "318": "is",
  "1029": "high",
  "1575": "cost",
  "3917": "associated",
  "13237": "quality",
  "5112": "equipment",
  "21430": "capturing",
  "10425": "signals",
  "2566": "di",
  "171": "ï",
  "105": "¬",
  "222": "Ģ",
  "9100": "erent",
  "14693": "alternatives",
  "423": "have",
  "9349": "emerged",
  "26181": "obj",
  "721": "ec",
  "425": "ive",
  "6079": "bringing",
  "777": "these",
  "3341": "systems",
  "5699": "closer",
  "284": "to",
  "27332": "ï",
  "223": "ģ",
  "77": "n",
  "2985": "users",
  "3081": "quality",
  "6492": "obtained",
  "25725": "equip",
  "902": "ments",
  "468": "has",
  "1541": "already",
  "587": "been",
  "16726": "evaluated",
  "1043": "found",
  "7606": "competitive",
  "883": "those",
  "880": "well",
  "4002": "known",
  "8668": "clinical",
  "2158": "however",
  "703": "how",
  "11521": "integrated",
  "8472": "practical",
  "21504": "mi",
  "407": "not",
  "1865": "yet",
  "18782": "explored",
  "428": "this",
  "670": "work",
  "356": "we",
  "6496": "detailed",
  "6764": "description",
  "13391": "advantages",
  "38457": "disadvantages",
  "1262": "using",
  "11490": "boards",
  "15736": "sensors",
  "30580": "constructing",
  "5000": "entirely",
  "3781": "analysis",
  "9477": "acquired",
  "13326": "detection",
  "2694": "ability",
  "6157": "performed",
  "772": "even",
  "996": "though",
  "6946": "communication",
  "1022": "between",
  "3644": "computer",
  "3096": "board",
  "1464": "always",
  "8245": "stable",
  "6737": "signal",
  "3360": "sometimes",
  "11197": "ected",
  "416": "by",
  "25237": "ambient",
  "7838": "noise",
  "1724": "means",
  "353": "ter",
  "17796": "bank",
  "1912": "based",
  "2446": "method",
  "2092": "similar",
  "1398": "class",
  "72": "i",
  "6888": "ca",
  "13289": "performances",
  "8793": "achieved",
  "3170": "built",
  "739": "under",
  "3688": "compared",
  "618": "when",
  "2648": "share",
  "2055": "community",
  "674": "our",
  "1998": "experience",
  "319": "on",
  "1762": "working",
  "11823": "emerging",
  "4955": "providing",
  "2370": "evidence",
  "1975": "believe",
  "611": "if",
  "10159": "stability",
  "24127": "artifact",
  "17927": "rejection",
  "6596": "improved",
  "481": "will",
  "1716": "become",
  "8119": "valuable",
  "352": "1",
  "9793": "introduction",
  "3769": "provides",
  "1048": "person",
  "2354": "outside",
  "995": "world",
  "517": "more",
  "693": "spe",
  "453": "ally",
  "1242": "art",
  "2413": "cial",
  "543": "which",
  "1498": "able",
  "6330": "replace",
  "11169": "restore",
  "9494": "enhance",
  "802": "supp",
  "293": "le",
  "6229": "ment",
  "393": "or",
  "2987": "improve",
  "3288": "natural",
  "4318": "central",
  "10927": "nervous",
  "23862": "outputs",
  "10996": "communicate",
  "1630": "control",
  "465": "his",
  "14": "/",
  "372": "her",
  "7097": "external",
  "5387": "internal",
  "551": "en",
  "410": "v",
  "1934": "iron",
  "434": "ment",
  "685": "[",
  "16": "1",
  "4083": "].",
  "10068": "improving",
  "2994": "loss",
  "5499": "functions",
  "47125": "bc",
  "16829": "complement",
  "15570": "facilitate",
  "7669": "neuro",
  "5976": "hab",
  "18194": "ilitation",
  "706": "after",
  "30232": "neurological",
  "2529": "inj",
  "942": "ures",
  "17": "2",
  "1635": "*",
  "10215": "cor",
  "5546": "respond",
  "278": "ing",
  "1772": "author",
  "4529": "mail",
  "6449": "pet",
  "737": ").",
  "292": "as",
  "18432": "treats",
  "8630": "measured",
  "1753": "activ",
  "88": "y",
  "5128": "input",
  "3584": "although",
  "1729": "non",
  "259": "in",
  "23747": "vasive",
  "19560": "imaging",
  "1579": "techn",
  "14057": "olo",
  "308": "g",
  "3953": "measure",
  "36347": "neuronal",
  "15206": "electro",
  "594": "ence",
  "27451": "phal",
  "4867": "ography",
  "1453": "ee",
  "45718": "predominant",
  "4899": "tools",
  "335": "ld",
  "11512": "safely",
  "12831": "acquire",
  "5186": "electric",
  "21964": "temporal",
  "6323": "resolution",
  "18": "3",
  "3376": "correct",
  "10794": "interpretation",
  "6823": "registered",
  "922": "good",
  "2672": "required",
  "749": "most",
  "4683": "existing",
  "2499": "works",
  "787": "make",
  "511": "their",
  "9352": "registration",
  "8375": "rolled",
  "12493": "environments",
  "5597": "prepared",
  "45153": "shielded",
  "27887": "labs",
  "2426": "subject",
  "1479": "free",
  "597": "any",
  "5874": "visual",
  "38949": "auditory",
  "46203": "electrode",
  "40689": "mont",
  "496": "age",
  "4143": "generally",
  "5021": "multi",
  "17620": "channel",
  "9058": "setup",
  "20383": "gel",
  "3106": "based",
  "39780": "electrodes",
  "5884": "connected",
  "12306": "ampl",
  "263": "er",
  "3090": "addition",
  "3221": "usually",
  "6503": "wire",
  "15236": "connected",
  "7448": "saved",
  "13686": "processed",
  "1620": "perform",
  "2722": "received",
  "2608": "26",
  "474": "j",
  "1726": "une",
  "13130": "2019",
  "26": ";",
  "15556": "revised",
  "1296": "form",
  "860": "9",
  "3273": "cember",
  "6292": "accepted",
  "1105": "12",
  "3728": "ruary",
  "12131": "2020",
  "14956": "240",
  "20": "5",
  "5705": "84",
  "1821": "40",
  "10673": "Â©",
  "7035": "authors",
  "3199": "published",
  "2073": "else",
  "49663": "vier",
  "8671": "td",
  "1895": "access",
  "36624": "cc",
  "10782": "nc",
  "5964": "license",
  "19": "4",
  "15": "0",
  "666": "ian",
  "4296": "update",
  "3017": "included",
  "886": "end",
  "4273": "pet",
  "2123": "et",
  "435": "al",
  "718": "6",
  "288": "d",
  "1756": "itions",
  "6189": "obviously",
  "4047": "highly",
  "43994": "impractical",
  "7226": "typical",
  "18417": "users",
  "508": "who",
  "691": "only",
  "4341": "spend",
  "640": "time",
  "31210": "noisy",
  "475": "but",
  "635": "also",
  "1244": "might",
  "1254": "feel",
  "15873": "mobility",
  "10770": "restricted",
  "2233": "due",
  "8443": "connect",
  "507": "ions",
  "364": "ers",
  "42863": "usability",
  "3614": "limited",
  "8868": "reducing",
  "5479": "applications",
  "2248": "lab",
  "266": "w",
  "349": "ol",
  "707": "aw",
  "2516": "nes",
  "564": "âĢ",
  "250": "ľ",
  "25833": "perfect",
  "447": "âĢ",
  "251": "Ŀ",
  "3338": "safe",
  "16819": "ordable",
  "477": "all",
  "857": "does",
  "2421": "require",
  "7748": "permanent",
  "6829": "assistance",
  "33024": "technician",
  "11444": "scientist",
  "45815": "restores",
  "11265": "normal",
  "2866": "speed",
  "14606": "aest",
  "31786": "hetically",
  "10909": "acceptable",
  "9314": "reliable",
  "976": "same",
  "2163": "function",
  "10368": "concentration",
  "5827": "patient",
  "621": "than",
  "644": "what",
  "45190": "bodied",
  "3805": "despite",
  "2274": "recent",
  "2478": "development",
  "8998": "aimed",
  "37080": "improv",
  "5347": "ing",
  "1459": "current",
  "1181": "state",
  "612": "there",
  "991": "still",
  "1811": "several",
  "6459": "challenges",
  "1276": "must",
  "10980": "overcome",
  "878": "before",
  "2615": "building",
  "24284": "usable",
  "13967": "ective",
  "588": "like",
  "1672": "example",
  "8296": "recording",
  "4120": "appeared",
  "1111": "both",
  "34326": "academia",
  "767": "7",
  "807": "8",
  "12962": "])",
  "1910": "market",
  "44598": "alert",
  "2124": "x",
  "940": "10",
  "497": "ne",
  "84": "u",
  "686": "ro",
  "15688": "sky",
  "4085": "emot",
  "452": "iv",
  "1586": "ering",
  "422": "from",
  "2562": "easy",
  "1462": "to",
  "3817": "mount",
  "6402": "considering",
  "5801": "rapid",
  "27647": "advancement",
  "3957": "growing",
  "761": "need",
  "13504": "exploring",
  "1744": "possible",
  "9102": "therapy",
  "9713": "studied",
  "3858": "types",
  "2471": "ap",
  "458": "pl",
  "3736": "ications",
  "20407": "skin",
  "2800": "contact",
  "2428": "issues",
  "39140": "dry",
  "47375": "saline",
  "6067": "matters",
  "22": "7",
  "838": "10",
  "1367": "11",
  "4357": "],",
  "247": "Ļ",
  "82": "s",
  "4467": "comfort",
  "6650": "perspective",
  "1511": "13",
  "1478": "14",
  "3197": "draw",
  "736": "back",
  "1944": "present",
  "954": "count",
  "87": "x",
  "276": "ed",
  "42842": "localization",
  "8612": "gener",
  "9505": "covering",
  "2187": "whole",
  "12694": "sensor",
  "320": "im",
  "20965": "otor",
  "20223": "cortex",
  "1393": "interest",
  "484": "they",
  "505": "one",
  "2042": "black",
  "3091": "box",
  "15659": "depri",
  "1075": "ving",
  "13120": "friendly",
  "987": "inter",
  "1759": "play",
  "662": "pre",
  "6360": "cluding",
  "2252": "further",
  "21362": "versatile",
  "37140": "bios",
  "26426": "ensing",
  "12278": "electrical",
  "936": "ac",
  "3458": "ivity",
  "8280": "muscle",
  "2612": "heart",
  "7914": "electronic",
  "3859": "platform",
  "610": "ar",
  "24493": "duino",
  "12521": "wireless",
  "32984": "nec",
  "4996": "variety",
  "12821": "boards",
  "513": "3",
  "67": "d",
  "49695": "printed",
  "1182": "head",
  "1574": "ware",
  "11681": "viewing",
  "570": "ign",
  "874": "als",
  "9654": "open",
  "11774": "gui",
  "981": "while",
  "617": "some",
  "3402": "shown",
  "714": "could",
  "1314": "15",
  "1467": "16",
  "1854": "others",
  "1558": "17",
  "1248": "18",
  "1556": "est",
  "760": "know",
  "19386": "integrate",
  "6447": "reporting",
  "9922": "accuracy",
  "17843": "reliability",
  "11195": "home",
  "13871": "measurements",
  "1065": "12",
  "4031": "aim",
  "22232": "evaluating",
  "2161": "applic",
  "879": "ility",
  "22176": "informal",
  "6894": "world",
  "5292": "intended",
  "1363": "home",
  "4145": "thus",
  "1708": "following",
  "18036": "afore",
  "4750": "mentioned",
  "653": "ition",
  "2263": "taking",
  "3562": "designed",
  "9177": "implemented",
  "5418": "eval",
  "334": "u",
  "515": "ated",
  "12373": "robust",
  "47913": "uncontrolled",
  "38986": "environment",
  "12577": "encouraging",
  "14321": "rehab",
  "346": "il",
  "5350": "ita",
  "5103": "construction",
  "23082": "relevance",
  "4688": "critical",
  "12660": "evaluation",
  "966": "point",
  "1570": "view",
  "2754": "regard",
  "2854": "performance",
  "925": "made",
  "1365": "better",
  "10156": "contribution",
  "8246": "raw",
  "1366": "data",
  "6171": "syn",
  "1687": "tax",
  "6460": "settings",
  "12673": "acquisition",
  "1281": "post",
  "36948": "processing",
  "2240": "pub",
  "785": "com",
  "362": "2",
  "4703": "vis",
  "1220": "/",
  "13331": "fa",
  "80": "q",
  "2999": "02",
  "532": "-",
  "4919": "how",
  "29498": "products",
  "23442": "got",
  "8236": "ogether",
  "731": "bet",
  "1059": "ter",
  "4547": "understanding",
  "3186": "products",
  "677": "lic",
  "306": "ly",
  "1978": "together",
  "27039": "dataset",
  "3740": "https",
  "1378": "://",
  "33084": "github",
  "4009": "organization",
  "3348": "paper",
  "5679": "follows",
  "2665": "section",
  "732": "we",
  "1577": "give",
  "3703": "detail",
  "6831": "database",
  "373": "was",
  "4506": "brief",
  "2423": "review",
  "6890": "hardware",
  "8371": "subsection",
  "20147": "desc",
  "22090": "ribes",
  "8435": "protocol",
  "11992": "experimental",
  "1486": "design",
  "1121": "exper",
  "658": "ents",
  "2482": "results",
  "9984": "discussions",
  "31083": "concluding",
  "10252": "remarks",
  "5545": "presented",
  "9004": "sections",
  "392": "and",
  "642": "5",
  "8148": "respectively",
  "5678": "construct",
  "30": "?",
  "2435": "time",
  "1576": "enough",
  "4474": "establish",
  "18877": "answering",
  "584": "other",
  "3519": "related",
  "2683": "questions",
  "4166": "developed",
  "9559": "grade",
  "24254": "platform",
  "1948": "particular",
  "3075": "cy",
  "1122": "ton",
  "1343": "+",
  "12379": "da",
  "13560": "isy",
  "8265": "module",
  "514": "us",
  "11128": "cap",
  "21065": "ii",
  "9509": "elect",
  "547": "were",
  "795": "em",
  "9904": "monitoring",
  "7706": "gang",
  "295": "ion",
  "616": "my",
  "322": "ow",
  "533": "are",
  "3308": "sen",
  "669": "ors",
  "32225": "adv",
  "8250": "ancer",
  "32438": "ibe",
  "9061": "computers",
  "1966": "former",
  "2491": "running",
  "32639": "linux",
  "6846": "latter",
  "4324": "window",
  "2336": "fig",
  "46145": "summarizes",
  "1430": "program",
  "44102": "mable",
  "9011": "ads",
  "2079": "99",
  "48659": "tex",
  "8875": "instrument",
  "4580": "micro",
  "36500": "controller",
  "3182": "bi",
  "43372": "opot",
  "1843": "ential",
  "8384": "mainly",
  "25921": "oriented",
  "2506": "everyone",
  "734": "two",
  "6555": "battery",
  "12293": "powered",
  "321": "am",
  "3706": "named",
  "1074": "team",
  "1097": "car",
  "8613": "lessly",
  "2018": "connect",
  "279": "p",
  "6359": "cs",
  "26635": "laptops",
  "18151": "smartphones",
  "48208": "blu",
  "16271": "etooth",
  "11670": "compatible",
  "3335": "device",
  "3578": "allows",
  "5415": "maximum",
  "19232": "sampling",
  "8373": "frequency",
  "8646": "250",
  "289": "h",
  "89": "z",
  "7118": "expansion",
  "948": "cy",
  "9619": "channels",
  "6264": "recorded",
  "13151": "125",
  "1021": "hand",
  "1700": "record",
  "510": "up",
  "604": "4",
  "939": "200",
  "1738": "reason",
  "2440": "higher",
  "10348": "desired",
  "43121": "wifi",
  "7614": "shield",
  "2087": "added",
  "1502": "order",
  "2620": "increase",
  "2494": "rate",
  "4637": "connection",
  "2407": "quite",
  "2829": "simple",
  "2035": "either",
  "23492": "headset",
  "430": "ra",
  "1317": "mark",
  "21628": "iv",
  "4569": "traditional",
  "3869": "gold",
  "6508": "cup",
  "9615": "ulse",
  "3230": "international",
  "1451": "cap",
  "23212": "ultr",
  "26158": "ortex",
  "3601": "print",
  "540": "able",
  "5894": "dry",
  "7223": "attached",
  "7064": "locations",
  "22488": "acquiring",
  "39287": "scalp",
  "4439": "produce",
  "4922": "degree",
  "23597": "discomfort",
  "2356": "pain",
  "6580": "af",
  "2431": "minutes",
  "8748": "usage",
  "1321": "information",
  "2089": "bad",
  "23873": "techn",
  "5823": "ologies",
  "1820": "my",
  "6494": "html",
  "11757": "/.",
  "1416": "sc",
  "23380": "hematic",
  "15603": "represent",
  "341": "ation",
  "11205": "oft",
  "258": "he",
  "10424": "hard",
  "43776": "software",
  "1484": "used",
  "754": "fore",
  "4852": "top",
  "30025": "andem",
  "22487": "bottom",
  "43561": "acqu",
  "10027": "isition",
  "15008": "respect",
  "2280": "ively",
  "14892": "rod",
  "408": "ess",
  "6781": "ystem",
  "687": "form",
  "30412": "eas",
  "870": "uring",
  "14664": "mus",
  "2375": "cle",
  "21797": "activity",
  "34004": "cas",
  "413": "ew",
  "18780": "built",
  "1640": "for",
  "35499": "protect",
  "1169": "the",
  "36618": "localized",
  "625": "over",
  "1989": "area",
  "1201": "since",
  "39849": "cov",
  "445": "red",
  "3066": "decided",
  "804": "look",
  "753": "inc",
  "27979": "caps",
  "27468": "elastic",
  "599": "sp",
  "1069": "ex",
  "4906": "type",
  "9664": "fabric",
  "664": "rec",
  "6676": "essed",
  "5899": "pure",
  "19783": "tin",
  "3826": "see",
  "3210": "standard",
  "28800": "comprises",
  "1160": "20",
  "19378": "positioned",
  "1238": "20",
  "13127": "placement",
  "2622": "needed",
  "9416": "supplies",
  "25280": "gel",
  "1027": "ear",
  "9766": "ele",
  "4161": "tro",
  "8906": "des",
  "32445": "disposable",
  "40206": "sponge",
  "32505": "disks",
  "21302": "adapter",
  "4400": "tered",
  "13621": "rect",
  "3996": "bed",
  "9395": "ded",
  "34472": "connectors",
  "13232": "powered",
  "852": "being",
  "2568": "energy",
  "5127": "supply",
  "3756": "leading",
  "39092": "wearable",
  "663": "its",
  "898": "own",
  "2705": "soft",
  "16202": "ware",
  "1444": "called",
  "2890": "izing",
  "11305": "streaming",
  "43585": "drawback",
  "5885": "possibility",
  "4249": "nor",
  "1249": "allow",
  "1370": "line",
  "386": "pro",
  "30173": "cess",
  "409": "ex",
  "27897": "ogenous",
  "47192": "synchronized",
  "11497": "parad",
  "328": "ig",
  "907": "ms",
  "4876": "task",
  "815": "should",
  "28381": "cue",
  "12363": "feed",
  "1891": "back",
  "845": "very",
  "6276": "technical",
  "8300": "programming",
  "3725": "knowledge",
  "1642": "making",
  "9857": "accessible",
  "2048": "almost",
  "4382": "server",
  "2387": "ires",
  "12800": "sends",
  "606": "them",
  "5456": "client",
  "3127": "network",
  "11915": "designer",
  "31438": "application",
  "2512": "block",
  "8883": "scenario",
  "1143": "ized",
  "1908": "sent",
  "19819": "stimulus",
  "25560": "stamps",
  "1813": "given",
  "7418": "sup",
  "14090": "ports",
  "6643": "drivers",
  "17764": "compatibility",
  "5715": "level",
  "8950": "languages",
  "23912": "lab",
  "21015": "python",
  "10638": "summary",
  "9583": "wet",
  "7256": "dedicated",
  "21487": "utilized",
  "32704": "visualization",
  "20087": "stimulation",
  "10470": "presentation",
  "1339": "case",
  "4959": "purposes",
  "3549": "more",
  "2174": "below",
  "7496": "ria",
  "8310": "fr",
  "43237": "sig",
  "35377": "streamed",
  "1194": "another",
  "45007": "aptop",
  "49596": "shows",
  "1162": "cor",
  "42703": "onding",
  "3002": "cover",
  "10192": "protecting",
  "6306": "experiment",
  "6325": "approved",
  "2864": "2018",
  "43816": "itÃ©",
  "274": "es",
  "273": "or",
  "220": "",
  "25125": "Ã©t",
  "331": "y",
  "384": "se",
  "45073": "gur",
  "1288": "el",
  "491": "tr",
  "397": "ab",
  "34944": "ajo",
  "344": "ce",
  "4169": "ste",
  "310": "ct",
  "1102": "con",
  "4246": "tw",
  "9954": "elve",
  "5448": "healthy",
  "7481": "subjects",
  "14337": "four",
  "12366": "females",
  "826": "right",
  "10158": "handed",
  "1612": "mean",
  "2479": "age",
  "6354": "Â±",
  "21282": "sd",
  "796": "=",
  "1679": "25",
  "24": "9",
  "812": "years",
  "1231": "without",
  "2180": "previous",
  "14888": "participated",
  "2921": "gave",
  "7981": "informed",
  "8281": "consent",
  "5952": "conducted",
  "26662": "shield",
  "225": "ĥ",
  "2119": "room",
  "2659": "div",
  "1304": "ider",
  "18399": "participant",
  "1123": "each",
  "2060": "single",
  "6246": "session",
  "546": "about",
  "2250": "hours",
  "17280": "fifteen",
  "69": "f",
  "23": "8",
  "24785": "cz",
  "6163": "selected",
  "4941": "reference",
  "2323": "ground",
  "4624": "placed",
  "1364": "left",
  "6804": "lob",
  "40653": "pc",
  "33649": "intel",
  "7461": "Â®",
  "7295": "core",
  "17209": "tm",
  "3134": "67",
  "405": "00",
  "74": "k",
  "42804": "cpu",
  "2488": "@",
  "24997": "gh",
  "13958": "ÃĹ",
  "38551": "usb",
  "506": "ong",
  "6143": "storage",
  "1141": "during",
  "4184": "twe",
  "268": "en",
  "657": "0",
  "4153": "45",
  "4372": "rd",
  "9215": "butter",
  "9268": "worth",
  "4097": "band",
  "6603": "pass",
  "4155": "ensure",
  "4473": "trial",
  "4417": "surface",
  "900": "set",
  "5140": "located",
  "41031": "forearm",
  "34667": "antagonist",
  "12749": "muscles",
  "19066": "compromised",
  "782": "ng",
  "224": "Ĥ",
  "1070": "ext",
  "3100": "dig",
  "388": "um",
  "2208": "super",
  "22854": "ensor",
  "469": "ge",
  "3353": "lled",
  "556": "ag",
  "565": "cl",
  "19828": "foam",
  "9322": "employed",
  "2761": "problems",
  "29526": "simultaneous",
  "14779": "lap",
  "1353": "top",
  "9168": "windows",
  "2996": "65",
  "1120": "50",
  "456": "gh",
  "10612": "),",
  "1337": "care",
  "2077": "taken",
  "14500": "manually",
  "18305": "synchron",
  "19954": "consisted",
  "3403": "conditions",
  "14811": "namely",
  "18967": "kin",
  "37531": "esthetic",
  "13843": "imagination",
  "44787": "grasping",
  "11410": "dominant",
  "1334": "rest",
  "312": "id",
  "4006": "condition",
  "19869": "comprised",
  "1440": "four",
  "4539": "runs",
  "2319": "40",
  "9867": "trials",
  "583": "per",
  "15456": "randomly",
  "39127": "yielding",
  "2472": "total",
  "13454": "160",
  "953": "mod",
  "2196": "version",
  "32703": "graz",
  "1129": "19",
  "60": "]",
  "9776": "was",
  "2540": "began",
  "43012": "seconds",
  "14805": "baseline",
  "3272": "cross",
  "47728": "ðĿ",
  "239": "ĳ",
  "94": "¡",
  "14095": "âĪĴ",
  "3940": "followed",
  "35282": "audible",
  "538": "ep",
  "4201": "seconds",
  "1568": "later",
  "1965": "asked",
  "5967": "imagine",
  "655": "just",
  "8960": "relax",
  "2278": "period",
  "2266": "red",
  "15452": "arrow",
  "10609": "pointing",
  "2270": "break",
  "9478": "duration",
  "23395": "between",
  "1057": "run",
  "1233": "dist",
  "437": "end",
  "2392": "longer",
  "45160": "(>",
  "6739": ").",
  "3897": "sche",
  "49454": "matically",
  "18904": "depicted",
  "3726": "beginning",
  "4084": "clearly",
  "17767": "instructed",
  "8861": "tasks",
  "4659": "assess",
  "303": "ve",
  "1450": "men",
  "3305": "tal",
  "13565": "exercises",
  "479": "k",
  "8903": "vi",
  "28301": "questionnaire",
  "86": "w",
  "3049": "fast",
  "12031": "aims",
  "12245": "intensity",
  "18098": "sensation",
  "4122": "point",
  "2760": "ord",
  "1292": "inal",
  "5046": "scale",
  "12897": "ranging",
  "3919": "no",
  "1598": "clear",
  "23710": "executing",
  "2223": "action",
  "9567": "gov",
  "283": "ar",
  "20760": "yt",
  "325": "se",
  "3924": "uration",
  "16396": "colored",
  "13332": "circles",
  "19418": "illustrate",
  "4067": "location",
  "1315": "15",
  "9464": "left",
  "49918": "lobe",
  "3506": "right",
  "581": "res",
  "43106": "pec",
  "1864": "according",
  "4776": "score",
  "1988": "value",
  "9806": "max",
  "4402": "imal",
  "28": "=",
  "2067": "started",
  "401": "com",
  "6285": "fort",
  "1346": "ably",
  "21639": "seated",
  "2166": "front",
  "3159": "screen",
  "5101": "arms",
  "19186": "resting",
  "6915": "desk",
  "645": "no",
  "2641": "inside",
  "26819": "cardboard",
  "1936": "five",
  "9134": "imental",
  "81": "r",
  "301": "st",
  "7174": "called",
  "11170": "explaining",
  "1682": "actually",
  "1445": "move",
  "2962": "focus",
  "1949": "try",
  "26342": "invoke",
  "7666": "feelings",
  "16345": "sum",
  "3876": "mar",
  "9539": "stages",
  "16362": "diagram",
  "26940": "corrupted",
  "4036": "actual",
  "5004": "determine",
  "8811": "commonly",
  "31521": "detecting",
  "14916": "activation",
  "400": "th",
  "10126": "reshold",
  "22878": "envelope",
  "11387": "threshold",
  "2481": "21",
  "4875": "digital",
  "343": "ir",
  "29838": "notch",
  "5625": "applied",
  "2026": "50",
  "1176": "power",
  "786": "ise",
  "788": "then",
  "2875": "order",
  "2005": "cut",
  "6108": "estimated",
  "6632": "zero",
  "40715": "phase",
  "32604": "mean",
  "4609": "interested",
  "1626": "within",
  "21242": "extracted",
  "16571": "forty",
  "17894": "segments",
  "4129": "length",
  "22440": "correspondence",
  "10618": "segment",
  "3599": "starting",
  "7464": "ending",
  "4444": "ended",
  "21228": "onset",
  "10488": "calculated",
  "28833": "deviation",
  "22292": "sliding",
  "2713": "05",
  "3177": "considered",
  "1719": "having",
  "3744": "greater",
  "1661": "times",
  "14798": "prescribed",
  "23543": "contaminated",
  "4": "%",
  "12326": "detected",
  "42003": "stim",
  "1741": "ulation",
  "11235": "prot",
  "4668": "ocol",
  "4480": "with",
  "16514": "tim",
  "5420": "ref",
  "4972": "erences",
  "23100": "exper",
  "3681": "iment",
  "929": "up",
  "1848": "account",
  "8840": "subsequent",
  "13523": "analyses",
  "47973": "welding",
  "2626": "lost",
  "3504": "middle",
  "3407": "includes",
  "2406": "coming",
  "2281": "phys",
  "952": "io",
  "12219": "logical",
  "34411": "phys",
  "15071": "iological",
  "11301": "hospitals",
  "35650": "laboratories",
  "31094": "electromagnetic",
  "21132": "shields",
  "4646": "reduce",
  "1241": "level",
  "7151": "recommended",
  "881": "much",
  "6625": "resistance",
  "1828": "22",
  "10256": "experiments",
  "47472": "impedance",
  "10667": "checked",
  "49535": "Ïī",
  "1154": "ple",
  "12061": "mented",
  "1275": "ca",
  "3508": "utions",
  "5115": "regarding",
  "4078": "acqu",
  "23267": "isi",
  "7445": "situations",
  "20316": "artifacts",
  "14441": "wrap",
  "7044": "ongoing",
  "2030": "fre",
  "1387": "ency",
  "7386": "domain",
  "21528": "plots",
  "6149": "ordered",
  "2793": "lower",
  "236": "İ",
  "37188": "amplitude",
  "7515": "component",
  "651": "get",
  "5755": "rid",
  "2239": "step",
  "19528": "backward",
  "11813": "forward",
  "3465": "note",
  "19575": "improves",
  "25148": "discarded",
  "2938": "expected",
  "6768": "widely",
  "2219": "common",
  "21739": "spatial",
  "7572": "patterns",
  "2777": "sp",
  "11862": "algorithm",
  "17706": "performs",
  "3895": "feature",
  "22236": "extraction",
  "4499": "learned",
  "1010": "ters",
  "249": "Ľ",
  "238": "Ĳ",
  "3903": "band",
  "1391": "{",
  "244": "ĸ",
  "92": "}",
  "1309": "let",
  "230": "Ī",
  "158": "â",
  "226": "Ħ",
  "12906": "ÃĹ",
  "1350": "be",
  "17266": "ma",
  "1333": "tri",
  "3025": "whose",
  "16939": "throw",
  "7856": "rep",
  "6629": "resents",
  "34961": "atial",
  "108": "°",
  "3926": "âĢ¦",
  "2172": "opt",
  "285": "m",
  "48350": "maximizing",
  "24198": "variance",
  "41366": "minimizing",
  "853": "arg",
  "17478": "âĢ²",
  "1399": "âĢ¦",
  "43397": "denotes",
  "1007": "trans",
  "3455": "pose",
  "19887": "projections",
  "2272": "space",
  "3538": "easily",
  "29231": "computed",
  "12215": "sing",
  "934": "ular",
  "5721": "column",
  "248": "ļ",
  "17593": "matrix",
  "3912": "pattern",
  "16955": "inherit",
  "2880": "separ",
  "3119": "property",
  "6477": "power",
  "3033": "features",
  "1402": "small",
  "1271": "number",
  "14729": "pairs",
  "1954": "23",
  "9706": "execution",
  "11073": "produces",
  "41867": "increments",
  "15596": "event",
  "42133": "synchronization",
  "5255": "decre",
  "748": "des",
  "24871": "ynchron",
  "1634": "ization",
  "1931": "er",
  "10552": "representation",
  "4634": "setting",
  "2950": "involved",
  "4727": "explain",
  "1037": "help",
  "5143": "run",
  "4961": "equal",
  "17747": "consisting",
  "3691": "vs",
  "11188": "corresponding",
  "4478": "showing",
  "2974": "levels",
  "38779": "mu",
  "32179": "hz",
  "12159": "beta",
  "1485": "13",
  "1270": "30",
  "11760": "bands",
  "1731": "24",
  "19300": "constitutes",
  "3494": "implement",
  "2891": "tool",
  "38607": "distinguishing",
  "1779": "cond",
  "2846": "terms",
  "30132": "powers",
  "12716": "unfortunately",
  "1943": "success",
  "8338": "depends",
  "1429": "process",
  "4571": "direction",
  "23634": "penal",
  "35324": "frequency",
  "1458": "pat",
  "457": "pt",
  "2075": "26",
  "71": "h",
  "5150": "proposed",
  "7323": "roughly",
  "5486": "speaking",
  "27110": "tf",
  "1963": "mult",
  "488": "ich",
  "4276": "annel",
  "38237": "decomp",
  "1335": "osed",
  "2747": "pred",
  "2817": "ned",
  "229": "ĩ",
  "11498": "tem",
  "35738": "poral",
  "117": "¹",
  "241": "ĵ",
  "6356": "selection",
  "30907": "cation",
  "6534": "discrim",
  "876": "ative",
  "33721": "si",
  "27683": "aneously",
  "38284": "generalized",
  "29877": "sparse",
  "42483": "inant",
  "14542": "gs",
  "6814": "da",
  "1983": "27",
  "8771": "procedure",
  "537": "cl",
  "4241": "usion",
  "3448": "pri",
  "2746": "model",
  "3280": "answer",
  "1771": "whether",
  "4886": "detect",
  "20074": "urations",
  "3294": "multiple",
  "1592": "win",
  "47276": "dow",
  "3164": "approach",
  "20128": "projection",
  "938": "last",
  "28433": "discriminate",
  "28770": "graphs",
  "905": "show",
  "11524": "applying",
  "4025": "larger",
  "1401": "var",
  "16097": "iances",
  "1542": "30",
  "2078": "28",
  "1596": "17",
  "850": "sub",
  "21397": "bands",
  "32997": "overlapping",
  "14998": "tract",
  "237": "ı",
  "9746": "âĪĴ",
  "2623": "36",
  "994": "here",
  "5166": "pair",
  "28457": "windows",
  "5955": "fol",
  "20411": "methodology",
  "7822": "implementation",
  "48321": "rc",
  "3524": "box",
  "9874": "bin",
  "49070": "omial",
  "23818": "cumulative",
  "6082": "distribution",
  "7568": "df",
  "5288": "minimum",
  "9246": "cat",
  "1959": "29",
  "12974": "balanced",
  "13934": "binary",
  "1917": "problem",
  "5873": "percentage",
  "16200": "theoretical",
  "2863": "chance",
  "7225": "%.",
  "6622": "holds",
  "578": "ite",
  "8405": "samples",
  "3357": "practice",
  "10969": "presents",
  "7978": "stead",
  "6640": "150",
  "24061": "compute",
  "6957": "95",
  "7441": "%,",
  "7265": "56",
  "2791": "66",
  "478": "ect",
  "16113": "algorithms",
  "11379": "fold",
  "12102": "valid",
  "6789": "tested",
  "40885": "thresholds",
  "37515": "plotted",
  "16021": "horizontal",
  "3951": "lines",
  "15180": "columns",
  "2811": "average",
  "26403": "yielded",
  "1735": "side",
  "17046": "ographical",
  "8739": "maps",
  "5981": "relevant",
  "41900": "spa",
  "498": "ial",
  "16795": "interpre",
  "4610": "solution",
  "3132": "31",
  "1109": "fact",
  "743": "may",
  "22464": "resemble",
  "25751": "presumed",
  "4237": "sources",
  "13301": "projected",
  "1051": "sign",
  "415": "ant",
  "15182": "available",
  "13297": "google",
  "15654": "site",
  "36434": "fab",
  "2013": "ien",
  "11404": "otte",
  "34033": "research",
  "8189": "code",
  "3565": "ares",
  "5647": "fig",
  "4134": "acc",
  "23843": "uracy",
  "4064": "%",
  "2380": "represent",
  "32852": "associated",
  "8922": "assessment",
  "2884": "via",
  "9489": "performing",
  "3709": "items",
  "36672": "poor",
  "548": "very",
  "6738": "from",
  "9161": "investigate",
  "7160": "exists",
  "2098": "reported",
  "3083": "wise",
  "16096": "correlation",
  "697": "acc",
  "1590": "acy",
  "4251": "reached",
  "2502": "over",
  "25286": "pear",
  "1559": "son",
  "4202": "strength",
  "8112": "association",
  "9633": "variables",
  "6370": "attempts",
  "1627": "line",
  "1266": "best",
  "763": "co",
  "3456": "cient",
  "227": "ħ",
  "16856": "icates",
  "1290": "far",
  "1497": "away",
  "2173": "points",
  "1157": "11",
  "19941": "statistically",
  "10895": "correl",
  "1115": "three",
  "5050": "methods",
  "13638": "handed",
  "49501": "relation",
  "8367": "value",
  "1656": "appear",
  "6727": "upper",
  "5228": "corner",
  "495": "ure",
  "5114": "discussion",
  "5696": "materials",
  "11248": "meth",
  "9310": "ds",
  "2858": "environment",
  "502": "me",
  "424": "su",
  "12755": "controlling",
  "3840": "reasons",
  "2096": "orts",
  "6810": "noticed",
  "6202": "essions",
  "2188": "go",
  "4893": "explained",
  "6805": "components",
  "10170": "physically",
  "11557": "isolated",
  "1277": "direct",
  "1633": "air",
  "1728": "certain",
  "4258": "climate",
  "17047": "hum",
  "17995": "idity",
  "5951": "temperature",
  "3833": "pressure",
  "4069": "behavior",
  "8787": "connections",
  "10559": "boxes",
  "2314": "cannot",
  "7010": "isol",
  "5412": "handle",
  "1805": "protect",
  "15275": "spite",
  "3675": "beyond",
  "8354": "scope",
  "17116": "manuscript",
  "2928": "impact",
  "27716": "humidity",
  "3823": "room",
  "11244": "functionality",
  "2071": "issue",
  "16670": "although",
  "4151": "eye",
  "15210": "inspection",
  "1774": "proper",
  "20212": "tering",
  "1221": "disc",
  "13493": "arding",
  "3906": "onents",
  "12417": "main",
  "13975": "comparable",
  "6578": "lit",
  "1300": "ature",
  "5068": "commercial",
  "32796": "subject",
  "3446": "exactly",
  "5598": "64",
  "8151": "âĦ¢",
  "17034": "rt",
  "1885": "ant",
  "2010": "net",
  "4447": "lands",
  "22243": "512",
  "7587": "processing",
  "3800": "stage",
  "798": "ied",
  "21838": "downs",
  "10137": "pled",
  "13108": "128",
  "2810": "provided",
  "8996": "compare",
  "2328": "concern",
  "3148": "fair",
  "7208": "comparison",
  "6116": "positions",
  "8541": "77",
  "3510": "46",
  "8699": "78",
  "3865": "95",
  "9508": "84",
  "5237": "62",
  "3815": "values",
  "8854": "73",
  "6469": "82",
  "9698": "83",
  "1795": "80",
  "2919": "08",
  "3424": "clean",
  "3392": "ones",
  "17825": "beats",
  "8064": "ratio",
  "1085": "lead",
  "22712": "analyzing",
  "5907": "ns",
  "1913": "strong",
  "6515": "observed",
  "2458": "changes",
  "542": "cont",
  "1373": "ral",
  "10534": "ateral",
  "14145": "around",
  "14740": "emerge",
  "10388": "contrary",
  "36919": "lax",
  "7565": "vary",
  "16264": "characterized",
  "2565": "sense",
  "24988": "incre",
  "589": "ase",
  "16532": "credibility",
  "21769": "observing",
  "766": "see",
  "3151": "reach",
  "359": "ill",
  "2676": "iter",
  "2624": "32",
  "24354": "naive",
  "40820": "cult",
  "2193": "learn",
  "5039": "ulate",
  "29565": "([",
  "4747": "33",
  "4974": "34",
  "1438": "name",
  "1178": "few",
  "3088": "tried",
  "512": "ad",
  "6576": "dress",
  "18364": "marker",
  "4331": "predict",
  "6809": "participants",
  "14774": "bad",
  "3368": "avoid",
  "16655": "frustrating",
  "3047": "training",
  "9021": "procedures",
  "1624": "claim",
  "2099": "type",
  "1808": "question",
  "43317": "naires",
  "3795": "psych",
  "462": "ome",
  "6608": "properties",
  "26995": "reliably",
  "24171": "assessing",
  "13905": "statistical",
  "8620": "raising",
  "3331": "bank",
  "7898": "encourage",
  "1360": "gy",
  "1720": "product",
  "4581": "spending",
  "1411": "percent",
  "2282": "saying",
  "6928": "replaced",
  "17385": "limitation",
  "466": "do",
  "8588": "possess",
  "5051": "cert",
  "3315": "medical",
  "890": "long",
  "4354": "term",
  "523": "so",
  "780": "because",
  "13769": "besides",
  "28686": "os",
  "1234": "put",
  "4639": "driver",
  "4745": "depend",
  "3007": "ences",
  "20149": "reboot",
  "302": "re",
  "40037": "establish",
  "4920": "established",
  "7675": "successfully",
  "28494": "duct",
  "49186": "hindered",
  "4375": "adding",
  "16119": "delays",
  "5503": "stress",
  "24068": "practitioners",
  "5642": "manner",
  "10491": "occasionally",
  "12912": "frozen",
  "4269": "stream",
  "18813": "recordings",
  "19032": "nevertheless",
  "12921": "consequence",
  "4554": "instance",
  "550": "had",
  "22365": "dur",
  "22837": "disconnect",
  "4635": "produced",
  "1332": "test",
  "6159": "neither",
  "10108": "simultane",
  "3481": "ously",
  "1448": "group",
  "5554": "quant",
  "7538": "feedback",
  "7187": "accurate",
  "39994": "interface",
  "2003": "future",
  "2291": "include",
  "10064": "strategies",
  "4871": "class",
  "6769": "wave",
  "1616": "let",
  "6121": "transform",
  "1871": "among",
  "11247": "limitations",
  "2000": "mind",
  "3037": "technology",
  "8343": "alter",
  "6868": "native",
  "9025": "improvement",
  "7634": "strongly",
  "30191": "native",
  "14342": "spreading",
  "13360": "realm",
  "3649": "increasing",
  "2785": "potential",
  "13242": "conclusions",
  "1904": "use",
  "4837": "researchers",
  "41883": "clinicians",
  "4329": "becomes",
  "17726": "portable",
  "5732": "increases",
  "9335": "mask",
  "4790": "73",
  "4407": "%)",
  "7396": "rising",
  "12518": "when",
  "2906": "ce",
  "1572": "ived",
  "5086": "allowing",
  "42107": "experimented",
  "14401": "controlled",
  "15867": "tire",
  "9392": "invited",
  "9649": "rooms",
  "4568": "activities",
  "8676": "contribute",
  "1202": "ired",
  "7271": "publicly",
  "31713": "declarations",
  "2643": "statement",
  "28801": "spies",
  "21581": "conceived",
  "15475": "analyzed",
  "16173": "interpreted",
  "2630": "wrote",
  "9426": "gal",
  "607": "her",
  "44763": "ana",
  "22404": "ly",
  "8863": "zed",
  "4918": "funding",
  "4855": "supported",
  "636": "part",
  "7639": "jo",
  "800": "inv",
  "49443": "acion",
  "1153": "ient",
  "2634": "Ã©",
  "6988": "nic",
  "832": "through",
  "7347": "pip",
  "1946": "2014",
  "5304": "2016",
  "13539": "112",
  "6390": "2013",
  "39103": "0100",
  "20666": "216",
  "1073": "co",
  "2700": "force",
  "3062": "scient",
  "568": "so",
  "446": "ard",
  "7264": "grant",
  "24685": "fa",
  "1415": "14",
  "486": "01",
  "555": "un",
  "1646": "vers",
  "9642": "unl",
  "10": "+",
  "1584": "2016",
  "8301": "pic",
  "41612": "504",
  "4626": "2015",
  "830": "000",
  "4528": "li",
  "1525": "by",
  "46514": "pid",
  "5337": "novel",
  "8190": "62",
  "11780": "competing",
  "13627": "declare",
  "713": "ict",
  "3224": "additional",
  "10288": "references",
  "73": "j",
  "7811": "principles",
  "12018": "ox",
  "6403": "university",
  "1803": "press",
  "2321": "2012",
  "3939": "mill",
  "7211": "upp",
  "16466": "ueller",
  "1996": "put",
  "4636": "mur",
  "2433": "ray",
  "21453": "smith",
  "1018": "ug",
  "2611": "ma",
  "13875": "tang",
  "2224": "erman",
  "2899": "aur",
  "1939": "inc",
  "26380": "otti",
  "549": "ub",
  "1754": "ler",
  "443": "le",
  "1765": "eb",
  "1539": ".,",
  "19771": "combining",
  "3342": "assist",
  "1659": "of",
  "36216": "sci",
  "10333": "2010",
  "27829": "161",
  "1976": "z",
  "4066": "ander",
  "20388": "othe",
  "27906": "atz",
  "1990": "ev",
  "31986": "ga",
  "861": "ert",
  "1008": "ner",
  "27496": "enhancing",
  "1692": "human",
  "4075": "active",
  "14513": "passive",
  "6076": "spring",
  "3050": "2010",
  "9788": "pp",
  "27057": "181",
  "1906": "âĢĵ",
  "19104": "199",
  "2511": "rad",
  "9116": "Ã¼",
  "429": "nt",
  "1669": "iol",
  "7908": "2018",
  "9661": "98",
  "7874": ".-",
  "13481": "iao",
  "831": "hen",
  "648": "ang",
  "7649": "li",
  "1488": "chang",
  "9493": "lin",
  "7776": "gaming",
  "1516": "eng",
  "1267": ")",
  "6999": "2012",
  "5209": "kes",
  "1915": "deb",
  "877": "ener",
  "6200": "300",
  "4822": "spell",
  "5175": "mobile",
  "17019": "neural",
  "1786": "eng",
  "4967": "2014",
  "25257": "008",
  "535": "cc",
  "3036": "rim",
  "2144": "mon",
  "14035": "fu",
  "13920": "opes",
  "25236": "imi",
  "14065": "bid",
  "15631": "hend",
  "339": "he",
  "5173": "yd",
  "2743": "ari",
  "23876": "adic",
  "2183": "custom",
  "37941": "ie",
  "12657": "omed",
  "5539": "2017",
  "2242": "23",
  "21841": "kt",
  "332": "ver",
  "385": "us",
  "26507": "modular",
  "3108": "path",
  "2271": "ana",
  "37520": "atham",
  "1219": "oh",
  "6826": "ographic",
  "4495": "conference",
  "1686": "aps",
  "14198": "160",
  "20986": "165",
  "42658": "hairst",
  "20542": "whit",
  "3110": "aker",
  "1569": "ve",
  "926": "tt",
  "417": "el",
  "865": "br",
  "3841": "ford",
  "41556": "erick",
  "10210": "cd",
  "32829": "owell",
  "26879": "commercially",
  "17107": "oriented",
  "29159": "018",
  "2926": "ij",
  "2127": "bo",
  "5719": "van",
  "8591": "la",
  "27602": "ger",
  "799": "rit",
  "6248": "sen",
  "3937": "hol",
  "745": "po",
  "746": "ph",
  "11794": "alog",
  "859": "ram",
  "44257": "headsets",
  "1582": "par",
  "1653": "ison",
  "9427": "interact",
  "2653": "comput",
  "2681": "27",
  "5323": "500",
  "41647": "511",
  "27263": "ratt",
  "272": "an",
  "3889": "inger",
  "18157": "ber",
  "4914": "ka",
  "7422": "ru",
  "8461": "ni",
  "39260": "398",
  "3092": "lack",
  "1424": "els",
  "1216": "fr",
  "33807": "ansen",
  "893": "ys",
  "16221": "mans",
  "18145": "bru",
  "39547": "yne",
  "377": "ul",
  "1213": "bers",
  "5235": "gen",
  "39035": "erg",
  "40036": "onomic",
  "17911": "anthrop",
  "15748": "ometry",
  "3680": "appl",
  "14520": "gon",
  "7618": "58",
  "20809": "136",
  "500": "ine",
  "5819": "uster",
  "31093": "moons",
  "294": "th",
  "694": "ck",
  "46935": "va",
  "13213": "determining",
  "6792": "comfortable",
  "16069": "ranges",
  "5087": "factors",
  "6326": "onom",
  "873": "ics",
  "13415": "hu",
  "33255": "hang",
  "31753": "heng",
  "915": "gu",
  "1125": "che",
  "25810": "robotic",
  "13157": "collecting",
  "17130": "alpha",
  "9813": "waves",
  "19473": "mathematics",
  "38591": "modelling",
  "7869": "statistics",
  "20836": "antis",
  "1433": "16",
  "16647": "icer",
  "3550": "ang",
  "2815": "lin",
  "6582": "rum",
  "769": "iew",
  "36608": "reinvent",
  "7166": "virtual",
  "3950": "reality",
  "6049": "severe",
  "14000": "stroke",
  "25035": "limb",
  "2177": "2017",
  "37020": "vr",
  "27203": "385",
  "21734": "386",
  "3693": ".[",
  "4798": "print",
  "3312": "06",
  "2548": "38",
  "1507": "18",
  "28509": "rash",
  "544": "ia",
  "17027": "zi",
  "7167": "aylor",
  "12834": "instruments",
  "38916": "fur",
  "912": "ts",
  "2395": "che",
  "6051": "ller",
  "48568": "uper",
  "13834": "proc",
  "9919": "89",
  "14585": "2001",
  "10163": "123",
  "2682": "34",
  "6428": "mal",
  "280": "ou",
  "5527": "rich",
  "1371": "ards",
  "14509": "jack",
  "23365": "eur",
  "19181": "yon",
  "6506": "persons",
  "3518": "physical",
  "19358": "disabilities",
  "19648": "validity",
  "10811": "ther",
  "3261": "31",
  "12726": "2007",
  "1031": "az",
  "1046": "uss",
  "391": "ain",
  "47337": "asin",
  "7605": "techniques",
  "1062": "det",
  "5131": "proced",
  "2691": "online",
  "13330": "2006",
  "573": "te",
  "11578": "plan",
  "33099": "fundamentals",
  "15558": "measurement",
  "2212": "meas",
  "20681": "sci",
  "2710": "rev",
  "16942": "2002",
  "15770": "ram",
  "13416": "oser",
  "35024": "mull",
  "1362": "ger",
  "3364": "king",
  "16586": "optimal",
  "15758": "imagined",
  "11024": "2000",
  "3901": "41",
  "27260": "446",
  "2179": "ra",
  "9556": "interf",
  "4092": "acing",
  "12172": "cam",
  "9458": "bridge",
  "2211": "2013",
  "9178": "blank",
  "17411": "oka",
  "3020": "mm",
  "43004": "awan",
  "11231": "abe",
  "45780": "optimizing",
  "45994": "trial",
  "2153": "mag",
  "11528": "2008",
  "6073": "41",
  "3980": "56",
  "7789": "amber",
  "30493": "assert",
  "39938": "decoding",
  "23344": "2019",
  "5534": "01",
  "30484": "019",
  "1785": "event",
  "5363": "related",
  "3439": "35",
  "4317": "70",
  "3695": "78",
  "1256": "lot",
  "660": "te",
  "3218": "regular",
  "9824": "designs",
  "4583": "theory",
  "649": "new",
  "9804": "2011",
  "36561": "355",
  "35667": "362",
  "48386": "herer",
  "45033": "brun",
  "4738": "random",
  "493": "int",
  "13401": "bio",
  "398": "rom",
  "4660": "agn",
  "6740": "52",
  "2816": "55",
  "1671": "br",
  "30927": "isson",
  "13665": "jer",
  "8482": "bi",
  "23353": "exceeding",
  "36531": "caveat",
  "19710": "126",
  "387": "ha",
  "3046": "uf",
  "365": "ke",
  "30570": "Ã¶r",
  "11033": "Ã¤",
  "710": "ne",
  "27678": "hay",
  "494": "ie",
  "39683": "ÃŁ",
  "9038": "mann",
  "3463": "weight",
  "30104": "vectors",
  "14174": "linear",
  "4981": "models",
  "42524": "ivariate",
  "48466": "imag",
  "9060": "image",
  "10083": "87",
  "9907": "96",
  "11442": "110",
  "1236": "ann",
  "23225": "elli",
  "10284": "hal",
  "1082": "der",
  "15554": "hammer",
  "43400": "bler",
  "1090": "cur",
  "19317": "dick",
  "30404": "haus",
  "41568": "predictor",
  "895": "sm",
  "6885": "51",
  "11323": "130",
  "12952": "130",
  "2091": "33",
  "11223": "je",
  "38336": "anian",
  "3202": "het",
  "25539": "predicting",
  "8806": "personality",
  "10870": "cognitive",
  "2770": "ological",
  "28645": "014",
  "2670": "39",
  "21116": "hn",
  "1727": "cho",
  "10891": "jun",
  "8326": "ta",
  "5635": "powers",
  "29105": "indicative",
  "44980": "886",
  "6115": "volume",
  "46593": "apr",
  "2443": "page",
  "10366": "rat",
  "58": "[",
  "998": "arch",
  "7661": "oria",
  "25666": "*,",
  "1667": "mar",
  "34518": "acha",
  "1512": "atic",
  "2656": "original",
  "22532": "omitted",
  "9800": "author",
  "9991": "publisher",
  "8453": "apolog",
  "2696": "ises",
  "4049": "error",
  "27711": "html",
  "37124": "pdf",
  "6300": "versions",
  "6153": "updated",
  "23899": "doi",
  "2209": "address",
  "3642": "cont",
  "3989": "journal",
  "34940": "homepage",
  "9960": "march",
  "2489": "rights",
  "10395": "reserved",
  "3070": "03",
  "31495": "709",
  "2366": "foot",
  "2434": "amed",
  "1878": "af",
  "21081": "lou",
  "4244": "ville",
  "22771": "automation",
  "36359": "robotics",
  "24224": "institute",
  "21681": "lar",
  "380": "ri",
  "5309": "ucky",
  "17075": "electronics",
  "8062": "communications",
  "21027": "shark",
  "6022": "gypt",
  "46286": "jon",
  "709": "ov",
  "1414": "pay",
  "805": "man",
  "13986": "shar",
  "461": "ak",
  "3216": "ani",
  "26842": "ray",
  "14717": "uru",
  "1461": "pop",
  "12531": "abstract",
  "12971": "capability",
  "2897": "offer",
  "1970": "pract",
  "2386": "cal",
  "8136": "solutions",
  "3925": "individuals",
  "17253": "impair",
  "719": "act",
  "6941": "mo",
  "7332": "tor",
  "7139": "enable",
  "7704": "manip",
  "24325": "ulators",
  "17529": "station",
  "560": "ary",
  "4361": "therefore",
  "8659": "suffer",
  "8186": "reprodu",
  "2247": "ibility",
  "44846": "investigates",
  "5734": "specifically",
  "4035": "ifying",
  "9355": "framework",
  "48105": "integrates",
  "6190": "advanced",
  "1390": "including",
  "20796": "scaling",
  "25431": "filtering",
  "11347": "pling",
  "1863": "along",
  "4795": "independent",
  "2037": "anal",
  "13429": "sis",
  "3478": "ten",
  "23392": "optimized",
  "4572": "machine",
  "4673": "learning",
  "4029": "ml",
  "13350": "ifiers",
  "31562": "ussian",
  "15489": "bay",
  "4593": "gn",
  "1104": "support",
  "43030": "vec",
  "14761": "vm",
  "2551": "decision",
  "5509": "tree",
  "28664": "dt",
  "9835": "consistently",
  "25212": "exhibited",
  "9098": "superior",
  "14660": "notably",
  "17923": "classification",
  "4431": "accur",
  "13433": "acies",
  "1802": "100",
  "10926": "minimal",
  "7723": "collected",
  "1994": "key",
  "3573": "particularly",
  "5174": "identified",
  "6393": "essential",
  "980": "differe",
  "26336": "iating",
  "10685": "biological",
  "12941": "distinction",
  "10176": "demonstrate",
  "1108": "ness",
  "1973": "across",
  "2972": "various",
  "36360": "emphasizing",
  "18872": "âĪ",
  "5661": "this",
  "28202": "sf",
  "862": "ps",
  "5764": "award",
  "1303": "#",
  "2920": "49",
  "26427": "213",
  "11971": "licensed",
  "7325": "creative",
  "36523": "commons",
  "39629": "attribution",
  "20942": "fu",
  "7022": "island",
  "631": "ree",
  "6634": "copyright",
  "2714": "held",
  "4870": "owner",
  "9374": "bn",
  "3720": "79",
  "7029": "400",
  "2723": "source",
  "2438": "code",
  "10838": "concepts",
  "5595": "âĢ¢",
  "10734": "human",
  "38050": "centered",
  "14492": "computing",
  "15168": "âĨĴ",
  "1776": ");",
  "3581": "âĢ¢",
  "48074": "puting",
  "30243": "machine",
  "39310": "âĨĴ",
  "24677": "emer",
  "2667": "ging",
  "2384": "ograph",
  "442": "ch",
  "5794": "format",
  "910": "say",
  "14636": "kh",
  "33708": "jay",
  "8805": "mad",
  "46078": "dan",
  "32190": "2025",
  "29280": "pervasive",
  "967": "ork",
  "5468": "pages",
  "4095": "rap",
  "12114": "hy",
  "14946": "mentally",
  "22891": "rehe",
  "17208": "arse",
  "5116": "kin",
  "6268": "motion",
  "8970": "locked",
  "14027": "syndrome",
  "38544": "amy",
  "313": "ot",
  "18191": "rophic",
  "25653": "lateral",
  "46225": "sclerosis",
  "21755": "limbs",
  "14799": "independently",
  "8780": "crucial",
  "590": "ance",
  "11825": "prost",
  "24965": "hetics",
  "36175": "paralyzed",
  "19304": "breakthrough",
  "2214": "field",
  "39815": "heses",
  "20230": "machinery",
  "10190": "92",
  "11022": "caps",
  "9555": "demonstrated",
  "14351": "accurately",
  "29801": "conveniently",
  "35001": "cortical",
  "15004": "voltage",
  "31101": "fluctuations",
  "43164": "neuron",
  "31312": "gradient",
  "7907": "captured",
  "30424": "frontal",
  "6431": "gather",
  "12444": "tends",
  "24380": "posing",
  "9332": "efficiency",
  "24812": "latency",
  "31307": "resilience",
  "30534": "pinpoint",
  "6942": "efficient",
  "751": "add",
  "4050": "effective",
  "29927": "incorporating",
  "28805": "timed",
  "20016": "intervals",
  "18504": "ws",
  "4512": "train",
  "27241": "dividing",
  "4856": "testing",
  "1171": "public",
  "40522": "datasets",
  "9110": "consideration",
  "19756": "plausible",
  "5871": "candidates",
  "1465": "mil",
  "1588": "large",
  "6777": "frequently",
  "848": "imp",
  "3653": "men",
  "2408": "difficult",
  "17778": "constraints",
  "13352": "incomp",
  "7246": "ati",
  "2410": "ilities",
  "10991": "sessions",
  "24126": "reliance",
  "7667": "extensive",
  "18335": "benchmark",
  "21135": "demonstrating",
  "13645": "bot",
  "10375": "interaction",
  "9379": "robot",
  "9284": "contributions",
  "18077": "propose",
  "5739": "frame",
  "32139": "extracts",
  "38566": "clen",
  "10813": "ching",
  "4618": "plant",
  "7059": "flex",
  "8776": "trained",
  "4620": "achieve",
  "1180": "different",
  "31650": "novelty",
  "12123": "determination",
  "47368": "multic",
  "31172": "lass",
  "6637": "ifications",
  "10400": "introduce",
  "4553": "separate",
  "2138": "rather",
  "11005": "eliminate",
  "43849": "confounding",
  "6992": "excess",
  "4190": "hair",
  "3056": "oil",
  "5243": "radio",
  "34235": "strategically",
  "1654": "sure",
  "4165": "primary",
  "37529": "opting",
  "1410": "plan",
  "2383": "significant",
  "21201": "validation",
  "9432": "objective",
  "35139": "refine",
  "5359": "requirements",
  "7483": "ifier",
  "2832": "hands",
  "3625": "feet",
  "47220": "advancements",
  "19933": "intuitive",
  "37895": "extracting",
  "4645": "structure",
  "19451": "discusses",
  "8477": "describes",
  "10939": "implications",
  "18978": "concludes",
  "3183": "iers",
  "8106": "filter",
  "21855": "fb",
  "33597": "outper",
  "23914": "forms",
  "6824": "intent",
  "2803": "estab",
  "1348": "ished",
  "4735": "solid",
  "8489": "foundation",
  "32029": "integrating",
  "3211": "arm",
  "26332": "mimic",
  "5670": "focused",
  "9103": "peak",
  "9849": "86",
  "3459": "88",
  "3716": "complex",
  "2769": "deep",
  "7192": "53",
  "6273": "contrast",
  "5566": "significantly",
  "12188": "builds",
  "2402": "upon",
  "4040": "efforts",
  "16937": "achieving",
  "1088": "around",
  "21292": "highlighting",
  "414": "ity",
  "8618": "gained",
  "23692": "traction",
  "13530": "effectiveness",
  "9934": "removal",
  "803": "ating",
  "32311": "eliminates",
  "10440": "cular",
  "27014": "muscular",
  "23934": "preserving",
  "1036": "gr",
  "2957": "led",
  "14554": "hybrid",
  "10581": "approaches",
  "12082": "combine",
  "1255": "result",
  "32488": "differentiation",
  "29270": "comparative",
  "9051": "versus",
  "3793": "remains",
  "3318": "und",
  "567": "ere",
  "1850": "ored",
  "14582": "extends",
  "12069": "inquiry",
  "9405": "addresses",
  "17332": "gaps",
  "9285": "literature",
  "11044": "innovation",
  "1790": "short",
  "32257": "duration",
  "1690": "often",
  "8814": "rely",
  "28949": "personalized",
  "3640": "studies",
  "2555": "continue",
  "1986": "face",
  "3302": "achie",
  "42389": "leveraging",
  "1838": "makes",
  "3367": "son",
  "10548": "align",
  "43247": "overarching",
  "3061": "goal",
  "16965": "overhead",
  "35294": "compromising",
  "582": "man",
  "3161": "prior",
  "17298": "concentrated",
  "2176": "specific",
  "9469": "addressed",
  "42292": "complexities",
  "595": "dis",
  "6680": "ingu",
  "3929": "ishing",
  "35971": "mul",
  "2480": "iple",
  "13767": "sophisticated",
  "14833": "deployment",
  "3443": "finally",
  "14742": "ambitious",
  "29891": "session",
  "25364": "variability",
  "34541": "hinder",
  "9389": "challenging",
  "10261": "93",
  "3785": "figure",
  "1210": "turn",
  "15772": "translate",
  "8076": "operate",
  "14193": "robots",
  "2104": "entire",
  "30798": "workflow",
  "10874": "consists",
  "3307": "details",
  "45934": "elaborated",
  "46310": "subsections",
  "10385": "convert",
  "10396": "vol",
  "231": "ī",
  "27464": "scaled",
  "5766": "factor",
  "10944": "derived",
  "33382": "amplifier",
  "20640": "specifications",
  "18069": "mathematical",
  "6770": "definition",
  "233": "ĭ",
  "3021": "aled",
  "1831": "raw",
  "2231": "45",
  "20483": "00000",
  "1987": "24",
  "9129": "Â·",
  "22047": "223",
  "16164": "subjected",
  "7925": "extract",
  "120": "¼",
  "121": "½",
  "1593": "important",
  "17775": "minimize",
  "7108": "phase",
  "25100": "distortion",
  "27454": "finite",
  "25278": "impulse",
  "2882": "response",
  "44036": "coefficients",
  "8891": "ham",
  "2229": "ming",
  "37979": "fir",
  "6241": "expressed",
  "2343": "â",
  "246": "ĺ",
  "22241": "]=",
  "4051": "54",
  "8615": "cos",
  "14128": "Â·",
  "8929": "high",
  "254": "ł",
  "9319": "low",
  "11623": "125",
  "866": "down",
  "37687": "sam",
  "31350": "computational",
  "13357": "complexity",
  "14681": "process",
  "5621": "sets",
  "790": "every",
  "115": "·",
  "34758": "={",
  "99": "¦",
  "986": "...",
  "38165": ")}",
  "4758": "which",
  "1128": "rep",
  "411": "res",
  "18242": "label",
  "35705": "âī",
  "97": "¤",
  "116": "¸",
  "42813": "includes",
  "1676": "pro",
  "15410": "disc",
  "1186": "ret",
  "4831": "steps",
  "6167": "label",
  "738": "ident",
  "6945": "ifies",
  "7428": "drawn",
  "18156": "efined",
  "122": "¾",
  "14722": "labels",
  "123": "¿",
  "10200": "representing",
  "3590": "imag",
  "10945": "executed",
  "6097": "classes",
  "4993": "hand",
  "39690": "feet",
  "11523": "pipeline",
  "7268": "containing",
  "5447": "defined",
  "30538": "labelled",
  "1799": "ability",
  "6087": "combination",
  "717": "first",
  "4817": "ulated",
  "43854": "signifies",
  "45744": "erd",
  "16022": "equation",
  "31369": "sin",
  "1666": "ows",
  "16628": "filters",
  "20487": "maximize",
  "8173": "technique",
  "552": "comp",
  "1769": "utes",
  "44829": "covari",
  "45977": "rices",
  "37453": "derives",
  "3544": "uses",
  "2604": "log",
  "7645": "trans",
  "12214": "formed",
  "29083": "filtered",
  "2310": "21",
  "10090": "classified",
  "25962": "ml",
  "18986": "lda",
  "15879": "vector",
  "8217": "machines",
  "8222": "forest",
  "41871": "rf",
  "12423": "arest",
  "3422": "neigh",
  "15418": "kn",
  "27611": "boosting",
  "22296": "gb",
  "34748": "abo",
  "455": "ost",
  "2569": "istic",
  "20683": "regression",
  "14050": "lr",
  "29289": "layer",
  "34953": "percept",
  "1313": "ron",
  "38381": ")[",
  "10730": "parallel",
  "1389": "ined",
  "20309": "acceleration",
  "7015": "celer",
  "29127": "linear",
  "2599": "):",
  "4917": "finding",
  "31555": "separates",
  "19047": "ensures",
  "11284": "support",
  "44503": "radial",
  "4308": "basis",
  "19881": "bf",
  "9720": "kernel",
  "8006": "capture",
  "6958": "relationships",
  "38487": "sv",
  "13720": "identifying",
  "8718": "hyper",
  "14382": "plane",
  "4908": "ga",
  "1861": "prob",
  "14991": "abil",
  "8991": "applies",
  "44728": "theorem",
  "39522": "probabilities",
  "18533": "assumes",
  "25120": "random",
  "34549": "ensemble",
  "34175": "constructs",
  "7150": "trees",
  "4235": "mode",
  "32479": "enhances",
  "6973": "controls",
  "32232": "fitting",
  "12020": "neighbors",
  "638": "kn",
  "6291": "sample",
  "3741": "majority",
  "10048": "94",
  "17143": "param",
  "19482": "etric",
  "12501": "dec",
  "1166": "ision",
  "30778": "splits",
  "6352": "subs",
  "1039": "ets",
  "10139": "node",
  "4441": "creating",
  "2339": "like",
  "6179": "interpret",
  "49607": "gradient",
  "4939": "weak",
  "46184": "learners",
  "48126": "typically",
  "4726": "sequ",
  "3746": "entially",
  "4045": "overall",
  "39038": "correcting",
  "8563": "errors",
  "21001": "combines",
  "10759": "focusing",
  "22000": "adjusting",
  "19590": "weights",
  "16062": "accordingly",
  "6404": "log",
  "12867": "probability",
  "8055": "outcome",
  "7083": "extended",
  "14259": "vs",
  "2118": "rest",
  "41684": "multi",
  "11666": "artificial",
  "38226": "transformations",
  "5295": "determined",
  "14176": "comparing",
  "4461": "gain",
  "17218": "insights",
  "34109": "evaluations",
  "18876": "distinguished",
  "5898": "foot",
  "27430": "outlines",
  "7330": "obtain",
  "867": "many",
  "31320": "precautions",
  "12201": "preserve",
  "21654": "simplicity",
  "16493": "outlined",
  "4150": "whom",
  "1466": "women",
  "18774": "recruited",
  "2444": "students",
  "3085": "staff",
  "4764": "48",
  "1468": "old",
  "15641": "varied",
  "19063": "backgrounds",
  "4488": "signed",
  "42138": "notice",
  "5353": "interests",
  "16171": "voluntary",
  "47217": "aliases",
  "7266": "sub",
  "15855": "institutional",
  "678": "19",
  "7773": "carefully",
  "19726": "mag",
  "9833": "netic",
  "14517": "interference",
  "42962": "degrade",
  "1521": "why",
  "13114": "unnecessary",
  "41144": "routers",
  "12527": "outlets",
  "22537": "headphones",
  "4451": "smart",
  "16860": "watches",
  "3072": "phone",
  "13224": "laptop",
  "20158": "generation",
  "4755": "core",
  "12526": "gig",
  "38346": "abytes",
  "7848": "alongside",
  "10690": "bias",
  "7552": "extension",
  "11824": "preparation",
  "1295": "place",
  "6751": "sufficient",
  "1760": "done",
  "7400": "tab",
  "366": "\"",
  "1600": "\",",
  "2837": "range",
  "1279": "<",
  "4940": "starts",
  "503": "out",
  "5322": "reduced",
  "23147": "pouring",
  "9396": "bowl",
  "12591": "filling",
  "827": "sy",
  "38229": "ringe",
  "15376": "lightly",
  "450": "ab",
  "5286": "aded",
  "3867": "moving",
  "572": "off",
  "13647": "dirt",
  "22752": "foll",
  "2983": "icles",
  "12013": "blocking",
  "13663": "lifted",
  "6364": "slowly",
  "19095": "depressed",
  "1382": "build",
  "7696": "bridge",
  "5202": "flow",
  "25973": "stimuli",
  "7317": "initially",
  "32664": "briefed",
  "13605": "demo",
  "18606": "fist",
  "24421": "ench",
  "5118": "chair",
  "15980": "wrist",
  "39701": "protr",
  "26570": "uding",
  "4622": "slightly",
  "28118": "obstruction",
  "1740": "ched",
  "37650": "dors",
  "361": "if",
  "2588": "lex",
  "22765": "situated",
  "4077": "green",
  "15094": "quad",
  "15087": "rants",
  "4865": "border",
  "5410": "planning",
  "20374": "lasts",
  "2853": "den",
  "5191": "oted",
  "23551": "correlated",
  "5250": "rant",
  "3124": "color",
  "5637": "remaining",
  "1752": "once",
  "22097": "positioning",
  "4220": "bottom",
  "5100": "repeated",
  "23925": "randomized",
  "10014": "recall",
  "15440": "precision",
  "6840": "effectively",
  "20731": "metrics",
  "5591": "fold",
  "16449": "averaged",
  "9815": "comprehensive",
  "13359": "ensuring",
  "8636": "estimate",
  "2276": "general",
  "47165": "mitigating",
  "2526": "risk",
  "7307": "eters",
  "10706": "grid",
  "2989": "search",
  "3084": "table",
  "31648": "emphasizes",
  "6817": "importance",
  "24549": "tuning",
  "17246": "selecting",
  "5035": "appropriate",
  "11507": "parameter",
  "34236": "gamma",
  "19967": "gn",
  "32746": "smoot",
  "722": "hing",
  "2931": "09",
  "6795": "depth",
  "32315": "constraint",
  "6616": "square",
  "6808": "root",
  "26021": "splitting",
  "3959": "estim",
  "2024": "ators",
  "36616": "ucl",
  "485": "ide",
  "5253": "distance",
  "18663": "metric",
  "8187": "uniform",
  "6626": "split",
  "5362": "ini",
  "34054": "criterion",
  "26784": "saga",
  "1540": "sol",
  "7104": "hidden",
  "7679": "layer",
  "2546": "size",
  "20343": "3000",
  "34820": "iterations",
  "823": "rel",
  "3381": "term",
  "18005": "0001",
  "23197": "adam",
  "22085": "shrink",
  "18032": "singular",
  "26969": "decom",
  "9150": "position",
  "15621": "tolerance",
  "23989": "optimization",
  "8893": "tables",
  "43600": "appendix",
  "15874": "varying",
  "2850": "ores",
  "20430": "averaging",
  "613": "pe",
  "868": "aking",
  "6204": "stood",
  "37440": "performing",
  "914": "eff",
  "6517": "iveness",
  "13215": "boundaries",
  "12470": "similarly",
  "8198": "scores",
  "11487": "table",
  "12411": "notable",
  "13050": "observations",
  "5475": "apart",
  "40318": "showcasing",
  "43748": "exce",
  "26675": "score",
  "12497": "reflects",
  "16094": "leverage",
  "840": "ass",
  "931": "ump",
  "36527": "additionally",
  "4101": "90",
  "5236": "balance",
  "10678": "evident",
  "3751": "showed",
  "11781": "promising",
  "18244": "albeit",
  "4602": "revealed",
  "2346": "itself",
  "3572": "choice",
  "9524": "suggesting",
  "2385": "su",
  "863": "ited",
  "18778": "distinctive",
  "5538": "figures",
  "21742": "showcase",
  "762": "cons",
  "1473": "ently",
  "35743": "summarize",
  "22632": "visually",
  "3359": "display",
  "13991": "variations",
  "5332": "85",
  "4531": "89",
  "5824": "94",
  "6659": "81",
  "4304": "76",
  "3553": "57",
  "2425": "75",
  "2327": "35",
  "4521": "86",
  "4524": "74",
  "3682": "42",
  "3365": "58",
  "3104": "68",
  "5333": "61",
  "3324": "77",
  "3270": "59",
  "2857": "47",
  "4869": "71",
  "3388": "69",
  "5066": "63",
  "3829": "90",
  "2154": "70",
  "1899": "60",
  "4310": "53",
  "2414": "64",
  "2780": "48",
  "3559": "43",
  "4349": "51",
  "10111": "97",
  "18141": "credited",
  "20108": "inherently",
  "1049": "great",
  "13432": "observation",
  "11330": "highlights",
  "869": "call",
  "7603": "indicate",
  "3991": "false",
  "38548": "positives",
  "42510": "negatives",
  "6414": "consistent",
  "2570": "associ",
  "11281": "insight",
  "21322": "emphasize",
  "528": "iz",
  "11080": "suitable",
  "7747": "choices",
  "50002": "furthermore",
  "5644": "suggests",
  "13105": "enhanced",
  "9889": "capabilities",
  "10084": "diverse",
  "13858": "scenarios",
  "7186": "resulting",
  "22088": "ion",
  "2685": "cell",
  "25019": "membrane",
  "2824": "collect",
  "3006": "areas",
  "5911": "identify",
  "48212": "discriminating",
  "10039": "strategic",
  "3814": "region",
  "4497": "responsible",
  "22049": "signaling",
  "2315": "init",
  "38155": "(<",
  "6856": "controlled",
  "14196": "prevention",
  "18992": "improper",
  "15830": "fitting",
  "3748": "unique",
  "5485": "shape",
  "12872": "adequate",
  "26520": "obstruct",
  "14091": "magnetic",
  "43967": "emi",
  "19998": "frequencies",
  "12238": "shorter",
  "1884": "likely",
  "21509": "regain",
  "9574": "periods",
  "6105": "properly",
  "9361": "attempting",
  "3016": "nearly",
  "12174": "preventing",
  "2405": "themselves",
  "8036": "impressive",
  "43365": "hands",
  "4648": "ded",
  "7234": "uce",
  "1833": "understand",
  "6053": "correspond",
  "28754": "differentiate",
  "6518": "channel",
  "8391": "concluded",
  "21601": "002",
  "22914": "004",
  "3690": "throughout",
  "6886": "opposed",
  "13971": "viable",
  "5400": "differences",
  "1336": "full",
  "7177": "array",
  "6133": "aid",
  "8736": "itionally",
  "16916": "indicator",
  "7664": "conclusion",
  "19623": "confirms",
  "32141": "viability",
  "2475": "lim",
  "3299": "ication",
  "2592": "especially",
  "2493": "port",
  "3875": "antly",
  "4433": "requires",
  "2597": "role",
  "6373": "findings",
  "9211": "deeper",
  "42567": "correlates",
  "4175": "inform",
  "9117": "extend",
  "7301": "explore",
  "3586": "application",
  "4408": "scen",
  "11581": "expanding",
  "26571": "validate",
  "2032": "sw",
  "4194": "agg",
  "16783": "wal",
  "333": "ur",
  "6724": "ugh",
  "33160": "2022",
  "22415": "archives",
  "2808": "29",
  "5867": "300",
  "32765": "kai",
  "22531": "chin",
  "4449": "ih",
  "40267": "cunt",
  "1872": "ai",
  "3648": "2008",
  "1226": "fil",
  "6466": "joint",
  "7686": "networks",
  "8681": "congress",
  "4430": "intelligence",
  "5607": "97",
  "32433": "vict",
  "35819": "anza",
  "6321": "aniel",
  "23790": "oya",
  "28092": "andro",
  "13109": "ardo",
  "24044": "lore",
  "1636": "ley",
  "6862": "va",
  "4656": "die",
  "16176": "pel",
  "1648": "uff",
  "585": "ord",
  "10205": "Ã³",
  "12654": "Ã±",
  "45031": "lÃ©",
  "527": "ber",
  "13569": "onz",
  "36858": "lez",
  "1924": "ery",
  "24096": "176",
  "8873": "ho",
  "3332": "sat",
  "1228": "aj",
  "427": "sh",
  "10720": "oting",
  "4801": "zen",
  "1837": "sy",
  "29523": "adia",
  "3529": "ero",
  "48609": "2024",
  "19442": "149",
  "34965": "ali",
  "31748": "dal",
  "480": "ame",
  "25786": "alan",
  "1685": "aken",
  "35610": "esian",
  "20963": "bee",
  "5735": "tele",
  "41143": "monitor",
  "30963": "hen",
  "563": "ry",
  "2047": "yn",
  "10119": "olds",
  "672": "ob",
  "1952": "ones",
  "6327": "mond",
  "3971": "har",
  "2442": "ris",
  "13106": "proceedings",
  "25264": "252",
  "25600": "258",
  "3024": "hot",
  "2194": "ender",
  "10297": "maker",
  "46212": "funk",
  "2518": "aul",
  "43285": "summers",
  "2357": "eter",
  "26679": "gger",
  "26435": "cla",
  "2507": "ude",
  "381": "pp",
  "4364": "rey",
  "1084": "min",
  "13997": "spy",
  "4951": "ros",
  "692": "oll",
  "4448": "ias",
  "22459": "preservation",
  "4056": "programs",
  "41406": "parap",
  "1455": "leg",
  "7482": "attempted",
  "5014": "39",
  "49814": "383",
  "34626": "394",
  "1477": "sh",
  "16115": "iu",
  "44844": "umar",
  "482": "ok",
  "10961": "arma",
  "14901": "advances",
  "39882": "281",
  "26717": "310",
  "29741": "jun",
  "3958": "ban",
  "6413": "ua",
  "19471": "enz",
  "10662": "q",
  "42990": "wei",
  "5488": "ao",
  "28413": "inx",
  "11065": "studying",
  "5654": "scientific",
  "21638": "wo",
  "1862": "young",
  "2238": "oo",
  "1035": "ins",
  "2724": "uk",
  "2150": "ung",
  "2584": "ky",
  "3952": "park",
  "2813": "2011",
  "354": "ch",
  "3048": "effects",
  "12371": "iology",
  "19409": "122",
  "49447": "577",
  "18537": "bundle",
  "439": "all",
  "31249": "undle",
  "17535": "accessed",
  "42897": "jan",
  "2838": "uary",
  "930": "|",
  "10314": "documentation",
  "29719": "isoft",
  "5162": "gu",
  "420": "oc",
  "3820": "ban",
  "46098": "anty",
  "40321": "engineering",
  "12093": "bas",
  "46720": "768",
  "473": "sa",
  "23616": "heed",
  "33448": "2021",
  "32710": "wards",
  "9465": "recognition",
  "4846": "96",
  "31938": "503",
  "7258": "uan",
  "3008": "ope",
  "20188": "bang",
  "4121": "yan",
  "15710": "hou",
  "13210": "oj",
  "23778": "hao",
  "35851": "au",
  "13849": "matic",
  "5433": "42",
  "5404": "win",
  "5513": "sch",
  "971": "alk",
  "10679": "ennis",
  "12993": "cf",
  "1044": "land",
  "18526": "ilo",
  "3849": "inter",
  "21041": "berger",
  "37628": "ni",
  "35122": "bir",
  "7012": "ba",
  "6975": "umer",
  "6696": "athan",
  "5472": "2004",
  "29983": "purpose",
  "8945": "transactions",
  "15724": "2004",
  "4173": "ir",
  "623": "ond",
  "559": "au",
  "12530": "ash",
  "29605": "adaptive",
  "27184": "operation",
  "7475": "letters",
  "43587": "970",
  "716": "am",
  "45093": "arde",
  "1702": "sing",
  "4252": "sun",
  "504": "ans",
  "24894": "217",
  "7484": "iana",
  "23066": "arah",
  "9267": "rom",
  "708": "att",
  "2821": "ux",
  "9031": "250",
  "34690": "iping",
  "27998": "rab",
  "15305": "ward",
  "1531": "ane",
  "22582": "perspectives",
  "7093": "magazine",
  "4019": "80",
  "6420": "91",
  "7388": "99",
  "8344": "rec",
  "3718": "prec",
  "6052": "93",
  "4679": "bre",
  "2718": "37",
  "3866": "pre",
  "4309": "52",
  "5999": "83",
  "4761": "72",
  "5774": "87",
  "12683": "sign",
  "1324": "app",
  "14347": "school",
  "23370": "ng",
  "20770": "iji",
  "2260": "national",
  "4820": "abor",
  "2870": "atory",
  "3783": "science",
  "10024": "hemat",
  "1134": "ik",
  "3641": "center",
  "4132": "integ",
  "13260": "rative",
  "19838": "sciences",
  "1689": "ama",
  "2674": "apan",
  "3678": "itute",
  "12661": "intelligent",
  "733": "iff",
  "342": "ith",
  "44608": "rs",
  "20235": "bane",
  "38132": "aust",
  "28746": "intricate",
  "35084": "workings",
  "5909": "vast",
  "3144": "capt",
  "30829": "ivated",
  "5519": "scientists",
  "5922": "developing",
  "3264": "directly",
  "30678": "longstanding",
  "39738": "neuroscience",
  "13219": ")-",
  "5854": "revolution",
  "6011": "offering",
  "7895": "exciting",
  "12779": "possibilities",
  "3804": "passed",
  "3503": "etc",
  "7767": "processes",
  "1011": "take",
  "29587": "unseen",
  "8018": "recognized",
  "3141": "command",
  "14553": "embedded",
  "2453": "accept",
  "12649": "processor",
  "7716": "generate",
  "6843": "chapter",
  "13936": "exploration",
  "4371": "progress",
  "27289": "essing",
  "15964": "measuring",
  "2420": "text",
  "9691": "mining",
  "4394": "offers",
  "7306": "ideal",
  "3094": "wide",
  "28554": "enhancement",
  "4843": "aspect",
  "47075": "restricts",
  "1009": "ution",
  "5197": "coverage",
  "43337": "density",
  "11812": "integration",
  "3063": "conv",
  "2122": "olution",
  "31522": "cn",
  "42465": "recurrent",
  "35906": "rn",
  "12465": "tremendous",
  "6338": "automatically",
  "32568": "282",
  "19843": "connectivity",
  "11570": "meaningful",
  "15882": "enabling",
  "7141": "precise",
  "2585": "states",
  "4732": "context",
  "9685": "aware",
  "4125": "spe",
  "22881": "wherein",
  "6068": "adapt",
  "20793": "structured",
  "7468": "explanation",
  "25409": "explores",
  "7741": "reduction",
  "3694": "aches",
  "14999": "shed",
  "1657": "light",
  "7452": "faced",
  "11678": "directions",
  "7183": "readers",
  "49031": "eluc",
  "3830": "lay",
  "40641": "groundwork",
  "5963": "advance",
  "25438": "innovations",
  "6211": "involve",
  "16976": "specialized",
  "39382": "detects",
  "7560": "generated",
  "3473": "consist",
  "6147": "metal",
  "31014": "discs",
  "14180": "cups",
  "3189": "conduct",
  "5419": "helps",
  "9124": "ped",
  "24097": "messy",
  "35873": "consuming",
  "10616": "requiring",
  "10792": "frequent",
  "24578": "reapp",
  "10142": "lication",
  "5529": "maintain",
  "2728": "cause",
  "4168": "skin",
  "35164": "irritation",
  "36665": "allergies",
  "5171": "can",
  "37513": "inconvenient",
  "43582": "chapter",
  "1817": "ances",
  "42032": "283",
  "11282": "convenient",
  "2427": "instead",
  "17624": "utilize",
  "12314": "mic",
  "33171": "rone",
  "829": "les",
  "18457": "capac",
  "1800": "itive",
  "40204": "coupling",
  "4577": "easier",
  "4174": "apply",
  "4781": "remove",
  "33695": "moreover",
  "13593": "addressing",
  "2152": "exist",
  "10630": "actively",
  "13097": "innovative",
  "49921": "recent",
  "13312": "developments",
  "15709": "nan",
  "296": "om",
  "2273": "aterial",
  "856": "ible",
  "47294": "substr",
  "689": "ates",
  "19330": "incorporate",
  "42344": "circuitry",
  "43304": "susceptibility",
  "10004": "bene",
  "12381": "del",
  "5750": "boost",
  "18599": "simpler",
  "1342": "less",
  "5789": "expensive",
  "33692": "settings",
  "16803": "effective",
  "3038": "option",
  "4096": "basic",
  "18506": "considerations",
  "3689": "options",
  "48631": "anatomical",
  "41532": "landmarks",
  "43969": "repro",
  "1229": "uc",
  "42699": "facilitates",
  "30336": "284",
  "11533": "popularity",
  "16855": "mapping",
  "2164": "gr",
  "1328": "ained",
  "4465": "useful",
  "17262": "dynamics",
  "21957": "plac",
  "8952": "emen",
  "12109": "density",
  "3220": "increased",
  "14233": "sensitivity",
  "11800": "subtle",
  "6290": "rain",
  "14158": "ic",
  "8639": "contributed",
  "15025": "functioning",
  "6689": "diagn",
  "34558": "ostics",
  "2033": "amount",
  "44006": "encompass",
  "16602": "analyze",
  "23658": "uncover",
  "984": "cept",
  "18611": "obscure",
  "6142": "environmental",
  "17137": "correction",
  "12839": "thereby",
  "5341": "plays",
  "7411": "involving",
  "1852": "ident",
  "9695": "characteristics",
  "37410": "spectral",
  "20601": "sch",
  "3429": "apter",
  "33015": "285",
  "2095": "character",
  "39799": "different",
  "7652": "regions",
  "11916": "disorders",
  "23545": "herence",
  "4823": "graph",
  "2632": "prop",
  "15794": "consistency",
  "10345": "functional",
  "12213": "interactions",
  "13760": "nodes",
  "6870": "represents",
  "13015": "edges",
  "13204": "structural",
  "32966": "clust",
  "891": "ef",
  "34404": "characterize",
  "34631": "derived",
  "3984": "itude",
  "2564": "anger",
  "26846": "caus",
  "1483": "ality",
  "36336": "quantify",
  "47424": "directional",
  "38459": "hubs",
  "6165": "ultimately",
  "19988": "advancing",
  "30282": "unravel",
  "23000": "pave",
  "24362": "discoveries",
  "11409": "healthcare",
  "711": "play",
  "27033": "286",
  "10829": "removing",
  "19125": "unwanted",
  "10379": "fil",
  "7531": "fundamental",
  "2227": "wanted",
  "17232": "preserved",
  "31919": "atten",
  "12632": "uates",
  "1208": "pass",
  "4178": "ii",
  "1553": "dr",
  "19265": "ifts",
  "20694": "removes",
  "24260": "drift",
  "3105": "slow",
  "4073": "caused",
  "15479": "iii",
  "1662": "not",
  "3126": "60",
  "7718": "car",
  "19205": "city",
  "43707": "calculates",
  "42385": "tracts",
  "42552": "adapt",
  "45115": "recursive",
  "1551": "least",
  "24438": "squares",
  "37199": "ifacts",
  "21128": "modeling",
  "8770": "aver",
  "3039": "aging",
  "36835": "epoch",
  "46246": "ful",
  "9109": "responses",
  "4833": "smaller",
  "46152": "repet",
  "34750": "independent",
  "3665": "powerful",
  "8957": "pa",
  "698": "bl",
  "2973": "inks",
  "4615": "removed",
  "29660": "ifact",
  "13200": "space",
  "25056": "reconstruction",
  "15808": "driven",
  "3557": "autom",
  "265": "at",
  "1146": "ically",
  "38721": "287",
  "16690": "portions",
  "1614": "dev",
  "9386": "iate",
  "4802": "sudden",
  "19204": "wave",
  "7766": "reveal",
  "32361": "transient",
  "8601": "making",
  "10107": "manual",
  "16359": "automated",
  "3994": "contain",
  "9208": "prominent",
  "11540": "integrity",
  "4661": "goals",
  "16727": "obtaining",
  "10629": "preparing",
  "454": "our",
  "27099": "derive",
  "1167": "inf",
  "7612": "aspects",
  "8967": "disorder",
  "10958": "spectrum",
  "9018": "involves",
  "26019": "calculating",
  "822": "rib",
  "3585": "relative",
  "25979": "delta",
  "4443": "spect",
  "40709": "entropy",
  "2695": "content",
  "36894": "arousal",
  "8925": "dynamic",
  "46287": "fou",
  "5277": "rier",
  "4835": "bert",
  "1149": "char",
  "3969": "istics",
  "25270": "288",
  "24162": "locked",
  "2995": "events",
  "10455": "itudes",
  "3042": "lat",
  "3976": "encies",
  "46320": "morphology",
  "14269": "stat",
  "19929": "istical",
  "6146": "ske",
  "675": "wn",
  "3325": "urt",
  "5958": "osis",
  "7188": "moments",
  "30372": "asymm",
  "11973": "etry",
  "11321": "common",
  "10095": "widespread",
  "33743": "cia",
  "974": "ract",
  "12999": "fract",
  "2116": "self",
  "38610": "similar",
  "16252": "scales",
  "15793": "dimension",
  "6990": "hur",
  "28622": "exponent",
  "9521": "range",
  "35811": "correlations",
  "21370": "sv",
  "9412": "discovery",
  "15221": "objectives",
  "2922": "select",
  "24637": "subset",
  "24237": "mitigate",
  "17328": "curse",
  "24455": "filter",
  "13446": "evaluate",
  "1981": "individual",
  "9987": "criteria",
  "6032": "typically",
  "4279": "rank",
  "13584": "mutual",
  "41989": "tests",
  "12759": "ranking",
  "38902": "289",
  "21973": "mut",
  "723": "ual",
  "4888": "shared",
  "2496": "target",
  "7885": "variable",
  "15866": "exhibit",
  "2776": "relationship",
  "35611": "cients",
  "17514": "spear",
  "4007": "purpose",
  "48553": "wrapper",
  "29908": "wrapper",
  "4811": "strategy",
  "2651": "forward",
  "21472": "elimination",
  "8513": "genetic",
  "22649": "gas",
  "11629": "iter",
  "9404": "atively",
  "14358": "considers",
  "42289": "gorithm",
  "30753": "ursive",
  "5036": "fe",
  "9501": "fs",
  "34322": "progressively",
  "10307": "ranked",
  "24415": "iteration",
  "1566": "until",
  "6140": "begins",
  "5929": "combined",
  "3623": "gas",
  "16673": "evolutionary",
  "37773": "encode",
  "42742": "chromosomes",
  "1873": "employ",
  "4903": "ge",
  "12879": "operators",
  "27668": "crossover",
  "15148": "mutation",
  "18101": "evolve",
  "16338": "regular",
  "28372": "asso",
  "12818": "ridge",
  "13551": "impose",
  "12970": "penalties",
  "45826": "arsity",
  "1050": "pr",
  "8521": "ipal",
  "31408": "transforms",
  "4591": "unc",
  "5553": "vari",
  "10033": "principal",
  "12377": "retain",
  "24369": "290",
  "5378": "tion",
  "17856": "conjunction",
  "1096": "ize",
  "2100": "val",
  "1745": "hold",
  "448": "out",
  "9376": "categories",
  "9204": "vital",
  "36509": "classify",
  "30344": "gor",
  "28679": "supervised",
  "19577": "dimensional",
  "2663": "cases",
  "11458": "early",
  "16277": "predictions",
  "17724": "prediction",
  "1900": "known",
  "1028": "against",
  "889": "ting",
  "20471": "nn",
  "15836": "straightforward",
  "1474": "near",
  "15947": "determines",
  "6716": "nearby",
  "7048": "assume",
  "10238": "underlying",
  "1529": "ann",
  "7867": "inspired",
  "3745": "feed",
  "2616": "na",
  "15208": "ationally",
  "38517": "dimensional",
  "9942": "emotion",
  "43336": "291",
  "16686": "belonging",
  "30342": "hidden",
  "9289": "bab",
  "23007": "captures",
  "20086": "dependencies",
  "35582": "sequential",
  "25076": "series",
  "2074": "consider",
  "27188": "transitions",
  "22089": "deep",
  "38958": "hierarchical",
  "24612": "representations",
  "3450": "nature",
  "11500": "availability",
  "15494": "labeled",
  "27826": "experimenting",
  "39052": "unlocking",
  "7763": "contained",
  "1354": "adv",
  "31119": "cognition",
  "10392": "packages",
  "7986": "driven",
  "14614": "technological",
  "9359": "awareness",
  "17124": "lever",
  "1095": "ages",
  "13669": "diagnosis",
  "41885": "achieves",
  "15246": "spat",
  "1927": "ially",
  "32759": "292",
  "30053": "feature",
  "31642": "same",
  "46156": "dimension",
  "12850": "reduces",
  "4291": "onto",
  "7106": "simpl",
  "26645": "retaining",
  "42723": "discrimination",
  "27336": "excel",
  "47366": "amplify",
  "18175": "suppress",
  "13536": "enables",
  "8839": "discrimination",
  "17125": "ifferent",
  "4931": "presence",
  "34615": "abnormalities",
  "839": "ased",
  "6419": "facts",
  "11927": "uating",
  "16573": "adapted",
  "27658": "customized",
  "27381": "interpret",
  "4832": "poses",
  "7238": "highlight",
  "9157": "proven",
  "1344": "partic",
  "26371": "lar",
  "15714": "distinguish",
  "18209": "domains",
  "9622": "sear",
  "3533": "chers",
  "46610": "ognitive",
  "3522": "refer",
  "1006": "ref",
  "37224": "293",
  "8197": "adopted",
  "7272": "heavily",
  "16507": "relies",
  "10007": "parameters",
  "3672": "name",
  "20735": "thickness",
  "14511": "skull",
  "965": "str",
  "378": "ate",
  "13455": "poorly",
  "22650": "recognizing",
  "36049": "exhaustive",
  "16895": "adjustments",
  "3306": "necessary",
  "18587": "consuming",
  "47628": "meticulous",
  "3626": "effort",
  "5983": "leads",
  "17806": "varies",
  "3568": "appears",
  "18775": "infants",
  "1751": "children",
  "6490": "adults",
  "2456": "words",
  "21802": "responsive",
  "19484": "bandwidth",
  "21721": "overlap",
  "12412": "subsequently",
  "21748": "fusion",
  "3580": "difference",
  "43954": "fused",
  "27696": "294",
  "47764": "df",
  "5495": "introduced",
  "17685": "fisher",
  "27677": "predecessors",
  "22084": "susceptible",
  "4686": "id",
  "42579": "shown",
  "26017": "proposes",
  "824": "ss",
  "7147": "chosen",
  "5391": "dim",
  "9016": "lowest",
  "23913": "average",
  "18758": "particle",
  "30077": "swarm",
  "46583": "bp",
  "29964": "computation",
  "34772": "295",
  "26490": "employing",
  "4909": "contains",
  "5864": "enced",
  "10590": "psychological",
  "6806": "arity",
  "15679": "inappropriate",
  "8738": "opt",
  "37352": "paramount",
  "30806": "redundant",
  "39272": "tweaking",
  "17920": "tires",
  "4427": "challenge",
  "7501": "po",
  "45616": "cutoff",
  "27137": "296",
  "48700": "tf",
  "27183": "optimize",
  "1394": "keep",
  "25064": "sys",
  "2169": "tem",
  "20697": "bee",
  "18815": "colony",
  "4360": "but",
  "6050": "suit",
  "34547": "utilizes",
  "25137": "utilizing",
  "28286": "tun",
  "1193": "expl",
  "3277": "nation",
  "26597": "iem",
  "19871": "manif",
  "48048": "manifold",
  "14561": "exploit",
  "38445": "geometric",
  "3975": "map",
  "9029": "spaces",
  "25449": "transforming",
  "1000": "ale",
  "41103": "297",
  "27661": "mapped",
  "28327": "intrinsic",
  "22939": "geometry",
  "1205": "develop",
  "1658": "es",
  "431": "pe",
  "9030": "mechanism",
  "6078": "losing",
  "48439": "imize",
  "10538": "burden",
  "4030": "kept",
  "1602": "equ",
  "28691": "tempo",
  "5444": "spect",
  "18542": "illustrated",
  "24803": "employs",
  "11038": "delayed",
  "7310": "distinct",
  "5330": "ura",
  "5796": "sm",
  "13869": "separately",
  "126": "Â",
  "5281": "carried",
  "6906": "depending",
  "48550": "secondly",
  "15852": "shifting",
  "36075": "insertion",
  "17497": "window",
  "5711": "delay",
  "8161": "careful",
  "2984": "mis",
  "3965": "rates",
  "12739": "indicating",
  "27728": "298",
  "43619": "incorporation",
  "2523": "shows",
  "19980": "advent",
  "6482": "shift",
  "11004": "remarkable",
  "17670": "variants",
  "9041": "handling",
  "2579": "28",
  "31011": "299",
  "3993": "sleep",
  "22338": "seizure",
  "605": "ical",
  "18480": "optical",
  "33344": "predictive",
  "6774": "brings",
  "24396": "method",
  "9761": "tackle",
  "6198": "originally",
  "10497": "promises",
  "21290": "illustrates",
  "21186": "dependent",
  "6614": "plane",
  "1218": "second",
  "7997": "represented",
  "7800": "yield",
  "40265": "Ã¾",
  "9086": "divided",
  "39873": "sample",
  "25175": "successive",
  "11726": "gments",
  "17777": "undergo",
  "8308": "newly",
  "15453": "generating",
  "5726": "entry",
  "20504": "encomp",
  "19696": "assing",
  "9179": "serves",
  "10795": "dependent",
  "4238": "initial",
  "7269": "schedule",
  "4268": "drop",
  "12858": "momentum",
  "9079": "requirement",
  "5219": "state",
  "25643": "301",
  "45930": "nont",
  "2093": "ask",
  "690": "vers",
  "5761": "vision",
  "2939": "image",
  "3241": "attention",
  "39160": "crafted",
  "11685": "layers",
  "5933": "pool",
  "3938": "fully",
  "1957": "local",
  "2190": "treat",
  "9647": "width",
  "6001": "height",
  "10959": "architecture",
  "16339": "aug",
  "14374": "mentation",
  "6763": "cro",
  "2105": "pping",
  "13179": "rotation",
  "4501": "ipping",
  "4351": "transfer",
  "2181": "pret",
  "24674": "raining",
  "4263": "images",
  "13604": "exped",
  "40826": "convergence",
  "1282": "come",
  "45619": "architectures",
  "14443": "arrives",
  "5370": "decisions",
  "22709": "302",
  "6409": "numerous",
  "42763": "drawbacks",
  "12416": "codes",
  "2748": "exact",
  "11777": "explicitly",
  "20742": "visibility",
  "12692": "scratch",
  "5449": "competition",
  "7791": "scheme",
  "1775": "seen",
  "750": "did",
  "1631": "ended",
  "9149": "guarantee",
  "20975": "appa",
  "12133": "curve",
  "896": "its",
  "38981": "affordability",
  "25485": "upgrading",
  "16118": "introducing",
  "16752": "sparked",
  "23549": "paragraphs",
  "16700": "overview",
  "30727": "303",
  "18633": "broadly",
  "4253": "categ",
  "22812": "ori",
  "2628": "groups",
  "10040": "diseases",
  "10825": "emotions",
  "6096": "examples",
  "9739": "entertainment",
  "27181": "wheelchair",
  "5946": "43",
  "23397": "eno",
  "46955": "iii",
  "12151": "iva",
  "19035": "118",
  "21355": "280",
  "7863": "59",
  "8576": "1000",
  "35419": "288",
  "11880": "tongue",
  "2534": "22",
  "13827": "iga",
  "7982": "120",
  "16003": "109",
  "16885": "both",
  "6448": "sts",
  "3933": "32",
  "1188": "val",
  "18648": "dominance",
  "24976": "liking",
  "25514": "peripheral",
  "1351": "list",
  "43789": "packages",
  "35720": "learn",
  "29412": "python",
  "2792": "link",
  "1098": "ode",
  "1742": "elect",
  "10051": "roph",
  "14873": "cod",
  "676": "ink",
  "3262": "net",
  "4947": "collection",
  "3194": "written",
  "41927": "ker",
  "11192": "tens",
  "11125": "flow",
  "5888": "library",
  "21136": "parse",
  "9940": "ec",
  "6982": "kinds",
  "7959": "dev",
  "4088": "memory",
  "11509": "(%)",
  "5441": "75",
  "6135": "65",
  "8684": "76",
  "8454": "61",
  "2598": "44",
  "9773": "81",
  "8275": "67",
  "4089": "98",
  "9415": "82",
  "8257": "68",
  "8644": "69",
  "32747": "305",
  "5846": "44",
  "2752": "osing",
  "24715": "seizures",
  "35325": "epilepsy",
  "16996": "ometric",
  "17331": "psy",
  "25033": "physiological",
  "13891": "affecting",
  "1510": "million",
  "661": "people",
  "8688": "worldwide",
  "1535": "health",
  "20738": "monitored",
  "29790": "epile",
  "17459": "ptic",
  "1033": "exp",
  "1204": "life",
  "26159": "threatening",
  "17390": "accidents",
  "12948": "continuous",
  "9900": "uri",
  "1368": "attack",
  "12019": "lighting",
  "5380": "seek",
  "2948": "prevent",
  "10941": "maintaining",
  "47104": "insomnia",
  "909": "ob",
  "2878": "struct",
  "39718": "nea",
  "30083": "nar",
  "13764": "psy",
  "11873": "being",
  "31378": "aids",
  "7514": "poly",
  "1420": "ploy",
  "14013": "disability",
  "16503": "united",
  "45630": "americ",
  "10226": "blocked",
  "31580": "rupt",
  "1522": "ured",
  "2910": "blood",
  "14891": "vessels",
  "11863": "oxygen",
  "27560": "nutrient",
  "28922": "deprivation",
  "3354": "parts",
  "8290": "bra",
  "44537": "rehabilit",
  "1889": "rele",
  "1501": "arn",
  "4678": "skills",
  "1801": "dam",
  "6481": "increasingly",
  "12565": "investigated",
  "7635": "style",
  "5517": "exercise",
  "3371": "towards",
  "7825": "wheel",
  "49655": "chairs",
  "1896": "ividual",
  "14290": "brains",
  "22753": "impaired",
  "2107": "live",
  "41731": "underscores",
  "29206": "eg",
  "16470": "leap",
  "45503": "technology",
  "1291": "tra",
  "1859": "itional",
  "7720": "cutting",
  "14907": "edge",
  "12572": "evolved",
  "2027": "redu",
  "20548": "306",
  "22106": "emergence",
  "6991": "promise",
  "27969": "alities",
  "9808": "opens",
  "5384": "humans",
  "32557": "spanning",
  "31689": "versatility",
  "4756": "opening",
  "34265": "avenues",
  "26516": "accomplishments",
  "4010": "challeng",
  "21160": "persist",
  "752": "ject",
  "33985": "ambiguity",
  "16001": "compact",
  "4445": "daily",
  "25408": "collaborative",
  "12037": "engineers",
  "5327": "clin",
  "6749": "ician",
  "8263": "drawing",
  "40625": "disciplinary",
  "13572": "expertise",
  "3708": "drive",
  "2045": "looking",
  "4058": "ahead",
  "11017": "vas",
  "7261": "tech",
  "1435": "ology",
  "4477": "continues",
  "1607": "expect",
  "33681": "seamlessly",
  "3160": "lives",
  "28992": "pivotal",
  "20060": "realizing",
  "23751": "ore",
  "32354": "seamless",
  "8169": "ho",
  "35917": "empowering",
  "3592": "society",
  "2842": "ways",
  "34260": "striving",
  "12438": "collaboration",
  "3812": "toward",
  "11771": "unpre",
  "4714": "ented",
  "1013": "conf",
  "2168": "series",
  "22370": "235",
  "16711": "adaptation",
  "11245": "003",
  "4108": "rav",
  "11999": "arth",
  "2322": "vol",
  "38369": "307",
  "993": "ah",
  "2008": "video",
  "28798": "tsun",
  "11329": "oda",
  "19143": "lecture",
  "4710": "notes",
  "1117": "med",
  "29598": "residual",
  "26035": "ammad",
  "16522": "oro",
  "28352": "usra",
  "9230": "fur",
  "25370": "Å",
  "11525": "embed",
  "12083": "ding",
  "33928": "urrence",
  "1020": "spec",
  "24339": "232",
  "17059": "135",
  "46569": "wt",
  "27712": "345",
  "16704": "characteristic",
  "2779": "base",
  "20429": "vic",
  "1155": "iet",
  "20259": "ti",
  "16288": "heimer",
  "4369": "disease",
  "22883": "184",
  "23209": "mc",
  "45326": "545",
  "41827": "paw",
  "34590": "dh",
  "24086": "iman",
  "3064": "100",
  "44214": "616",
  "3762": "inese",
  "19638": "packet",
  "19337": "shallow",
  "875": "dec",
  "18991": "imation",
  "10264": "ancouver",
  "1443": "bs",
  "4343": "2007",
  "16911": "omas",
  "3717": "2009",
  "2062": "uly",
  "11208": "];",
  "8085": "mm",
  "684": "ons",
  "2398": "org",
  "4541": "enses",
  "1150": "med",
  "1853": "2015",
  "21495": "308",
  "18608": "supp",
  "34598": "231",
  "22186": "195",
  "336": "st",
  "13464": "104",
  "17032": "999",
  "15726": "locally",
  "25061": "162",
  "12785": "consecutive",
  "21395": "153",
  "519": "og",
  "12720": "peer",
  "22318": "375",
  "4234": "cience",
  "3702": "anch",
  "38569": "758",
  "14678": "lun",
  "1077": "ash",
  "25604": "dan",
  "47338": "825",
  "8631": "plain",
  "23606": "symm",
  "3967": "positive",
  "13634": "meta",
  "39437": "transfer",
  "40684": "learning",
  "983": "game",
  "47992": "cit",
  "15377": "102",
  "15711": "108",
  "27019": "277",
  "5464": "editor",
  "38001": "eka",
  "3055": "ech",
  "12881": "modes",
  "9646": "tracking",
  "11831": "steady",
  "819": "ev",
  "6545": "oked",
  "5241": "oves",
  "32569": "waves",
  "3301": "ara",
  "1587": "Â",
  "112": "´",
  "30259": "augmented",
  "41124": "conference",
  "12078": "ims",
  "8101": "azz",
  "39121": "889",
  "21680": "sal",
  "18064": "coupled",
  "20356": "188",
  "7668": "mixed",
  "15414": "input",
  "48530": "wake",
  "40286": "309",
  "12385": "na",
  "21834": "many",
  "17463": "sab",
  "5657": "bar",
  "908": "omet",
  "10466": "rics",
  "18239": "authentication",
  "11257": "trends",
  "1509": "sw",
  "13947": "itzerland",
  "1504": "ior",
  "33289": "410",
  "49020": "374",
  "3133": "sle",
  "1264": "201",
  "1434": "uro",
  "16801": "science",
  "23372": "atics",
  "2324": "security",
  "40162": "multimedia",
  "6772": "cycle",
  "23969": "dullah",
  "38762": "ay",
  "44081": "kh",
  "19470": "lag",
  "9869": "har",
  "46088": "aft",
  "29042": "ah",
  "3099": "ha",
  "5092": "oti",
  "5411": "ania",
  "2411": "rel",
  "12410": "ric",
  "671": "ade",
  "1823": "artment",
  "521": "ind",
  "601": "ress",
  "2543": "lam",
  "14299": "achi",
  "8915": "74",
  "4103": "istan",
  "1449": "bre",
  "12947": "search",
  "12829": "faculty",
  "1888": "ben",
  "315": "ut",
  "46813": "tele",
  "9503": "comm",
  "5011": "department",
  "781": "fl",
  "7230": "umin",
  "1072": "ense",
  "2717": "federal",
  "7098": "razil",
  "43131": "nuclear",
  "14010": "laboratory",
  "7058": "iro",
  "2106": "history",
  "1491": "ember",
  "1916": "mber",
  "11779": "blockchain",
  "8592": "contracts",
  "17733": "thereum",
  "7170": "permission",
  "1203": "less",
  "13948": "health",
  "6651": "care",
  "1527": "aff",
  "3669": "ords",
  "3868": "lif",
  "47510": "ecycle",
  "37675": "internet",
  "6237": "innov",
  "14320": "connecting",
  "10075": "cyber",
  "21977": "understandable",
  "24020": "replaces",
  "19565": "protocols",
  "7095": "limits",
  "15052": "severely",
  "3434": "attacks",
  "18953": "malware",
  "49134": "ransomware",
  "23805": "vulnerabilities",
  "22188": "drastically",
  "14226": "eren",
  "2468": "vironment",
  "17412": "malicious",
  "16391": "attackers",
  "6994": "prime",
  "4419": "harm",
  "2614": "personal",
  "6782": "privacy",
  "2251": "create",
  "7008": "consumers",
  "3139": "capital",
  "21552": "stems",
  "5806": "wear",
  "2977": "ables",
  "2618": "body",
  "2689": "affect",
  "10508": "such",
  "6333": "chain",
  "7983": "chain",
  "33819": "sense",
  "21937": "transmit",
  "43840": "actu",
  "5713": "secure",
  "20417": "connects",
  "10240": "investigating",
  "820": "day",
  "2856": "cil",
  "4800": "protection",
  "3488": "hom",
  "6644": "ogen",
  "4340": "izes",
  "9387": "distributed",
  "8796": "assistant",
  "31335": "cybersecurity",
  "4560": "operations",
  "2347": "mass",
  "5230": "internet",
  "1243": "things",
  "5151": "iot",
  "21568": "evolving",
  "2139": "service",
  "6884": "infrastructure",
  "6567": "sector",
  "29005": "iom",
  "2594": "services",
  "29440": "exploiting",
  "19140": "networking",
  "9490": "welfare",
  "10908": "everyday",
  "2831": "industry",
  "6832": "buildings",
  "7637": "han",
  "10471": "agh",
  "13848": "ikh",
  "19596": "occup",
  "1187": "ants",
  "46173": "chores",
  "8978": "reaching",
  "16667": "tom",
  "4142": "atically",
  "4532": "adjust",
  "19863": "remotely",
  "2126": "idea",
  "7291": "facilities",
  "5203": "deliver",
  "18590": "intensive",
  "9927": "mini",
  "16610": "extending",
  "5298": "raise",
  "4786": "concerns",
  "3747": "safety",
  "11334": "demanding",
  "13692": "focuses",
  "17965": "relying",
  "10058": "disabled",
  "3722": "status",
  "1061": "follow",
  "3513": "treatment",
  "34721": "adherence",
  "40854": "deployments",
  "3721": "concept",
  "9217": "indicates",
  "3191": "ining",
  "25457": "emerges",
  "27580": "frontier",
  "42854": "physical",
  "871": "ities",
  "1359": "ling",
  "985": "sim",
  "8306": "ulating",
  "4133": "resources",
  "41918": "necessities",
  "2342": "watch",
  "2874": "stru",
  "12247": "liability",
  "30276": "simplify",
  "3650": "store",
  "29308": "simulate",
  "16890": "neurons",
  "25713": "standardized",
  "6569": "remote",
  "4847": "elements",
  "7103": "immediate",
  "3487": "normal",
  "22963": "pathways",
  "25377": "nerves",
  "24476": "wors",
  "4858": "massive",
  "6867": "amounts",
  "6872": "carrying",
  "7373": "sharing",
  "38458": "attacks",
  "16180": "threaten",
  "1063": "ices",
  "7432": "threats",
  "27173": "operative",
  "15536": "failures",
  "2465": "damage",
  "46281": "outage",
  "10622": "corrupt",
  "14101": "devastating",
  "6948": "consequences",
  "23649": "spying",
  "18134": "violating",
  "4406": "records",
  "11168": "transit",
  "20100": "remed",
  "12931": "iated",
  "15788": "intercept",
  "35177": "adversaries",
  "7362": "exposed",
  "12891": "hence",
  "11701": "mechanisms",
  "29107": "avail",
  "38861": "chains",
  "5163": "exchange",
  "4028": "actions",
  "37208": "ledger",
  "25404": "dl",
  "30274": "ideally",
  "16662": "suited",
  "5563": "objects",
  "24986": "interacting",
  "13927": "wear",
  "2014": ".)",
  "10411": "identical",
  "6296": "stands",
  "2539": "key",
  "8194": "crypt",
  "872": "ph",
  "2684": "prim",
  "20288": "itives",
  "12234": "hash",
  "13892": "permits",
  "4106": "ki",
  "18492": "designing",
  "13996": "cure",
  "13347": "sustainable",
  "10582": "precisely",
  "5671": "monitor",
  "19818": "retrieve",
  "21207": "fetch",
  "4325": "happens",
  "20966": "ip",
  "2781": "mit",
  "11105": "tent",
  "459": "ast",
  "7025": "broadcast",
  "992": "led",
  "23992": "impairment",
  "20499": "suppliers",
  "12525": "ally",
  "10233": "topics",
  "6693": "discussed",
  "8749": "permit",
  "5355": "gers",
  "4582": "izations",
  "14470": "dash",
  "46263": "succinct",
  "19750": "vest",
  "29129": "igating",
  "10574": "silent",
  "4046": "speech",
  "20649": "decentral",
  "19925": "messaging",
  "3934": "arch",
  "1523": "ural",
  "571": "ib",
  "2296": "imm",
  "12854": "trace",
  "26202": "assurance",
  "3225": "rol",
  "3774": "trust",
  "7216": "sending",
  "23069": "storing",
  "35391": "interpreting",
  "9978": "formation",
  "32673": "safeguards",
  "16680": "mult",
  "20626": "imedia",
  "8574": "stored",
  "19365": "encrypted",
  "34119": "lows",
  "15255": "det",
  "6255": "ailed",
  "25579": "present",
  "6861": "protected",
  "25616": "enabled",
  "11983": "participating",
  "10171": "stake",
  "13829": "holder",
  "3476": "lic",
  "43167": "sequence",
  "37067": "diagrams",
  "7690": "chose",
  "26512": "decentralized",
  "2775": "contract",
  "21585": "ussions",
  "6967": "collabor",
  "25504": "implementations",
  "5915": "prote",
  "37443": "future",
  "2925": "goes",
  "29024": "centralized",
  "11793": "sur",
  "9472": "whereas",
  "29604": "remedies",
  "3753": "counter",
  "47336": "measures",
  "792": "sec",
  "1597": "business",
  "3173": "rules",
  "11529": "consensus",
  "755": "pol",
  "30284": "icy",
  "11645": "256",
  "8611": "transaction",
  "26567": "demon",
  "2536": "str",
  "4905": "operation",
  "8379": "sequence",
  "34120": "enges",
  "26760": "nowadays",
  "4542": "management",
  "4630": "cru",
  "2131": "cially",
  "6154": "experts",
  "12116": "unlock",
  "19901": "interventions",
  "17713": "undoubtedly",
  "8727": "who",
  "5526": "survey",
  "31523": "breaches",
  "5676": "affected",
  "11546": "180",
  "5291": "keeping",
  "2537": "hy",
  "13245": "transparent",
  "1611": "kind",
  "5970": "incor",
  "3622": "rupt",
  "17259": "logs",
  "14187": "pa",
  "2334": "ients",
  "17231": "eh",
  "3808": "rs",
  "14525": "exchanges",
  "32622": "eh",
  "2839": "private",
  "8571": "conce",
  "4272": "aling",
  "773": "ind",
  "1699": "ivid",
  "5369": "identity",
  "15835": "encryption",
  "17289": "protects",
  "4311": "icip",
  "26138": "stakeholders",
  "7519": "doctors",
  "4954": "nel",
  "45044": "caregivers",
  "9549": "providers",
  "3283": "carry",
  "9967": "block",
  "31031": "validated",
  "19698": "updating",
  "11840": "hr",
  "6340": "pal",
  "2022": "mb",
  "620": "ach",
  "28062": "feder",
  "419": "ort",
  "906": "pres",
  "13187": "ecosystem",
  "46500": "aggregation",
  "16030": "assembled",
  "14984": "audit",
  "8025": "trail",
  "4365": "mission",
  "6279": "cloud",
  "4054": "failed",
  "13659": "secured",
  "28577": "centric",
  "3074": "situation",
  "951": "col",
  "4827": "labor",
  "16578": "scal",
  "1958": "ify",
  "43865": "scalable",
  "972": "ement",
  "4565": "ronic",
  "28025": "examines",
  "33350": "peer",
  "17977": "stamp",
  "1142": "ern",
  "9885": "suspected",
  "25246": "infectious",
  "10207": "incidents",
  "35427": "electronically",
  "27888": "ubiquitous",
  "9512": "phones",
  "33811": "handheld",
  "6160": "iency",
  "5544": "fourth",
  "5743": "edge",
  "12402": "theft",
  "37284": "bos",
  "2393": "file",
  "3630": "coin",
  "13888": "arrangement",
  "19374": "monitors",
  "40139": "immutable",
  "9732": "tut",
  "15271": "service",
  "39159": "jam",
  "17247": "examining",
  "13285": "prospects",
  "5389": "sides",
  "20256": "weaknesses",
  "31396": "cp",
  "13155": "cp",
  "12053": "prompted",
  "15968": "ulates",
  "5423": "standards",
  "21164": "phases",
  "8406": "bid",
  "4154": "irection",
  "25439": "func",
  "1767": "body",
  "39346": "wb",
  "15750": "clock",
  "10787": "wise",
  "5109": "antic",
  "5354": "lock",
  "19958": "dire",
  "14032": "purple",
  "596": "ction",
  "11206": "adopt",
  "2429": "gen",
  "25319": "spontaneous",
  "11513": "converted",
  "5107": "forms",
  "2302": "ext",
  "13249": "infer",
  "654": "ings",
  "12260": "execute",
  "21391": "intentional",
  "40620": "immature",
  "2788": "eth",
  "12961": "security",
  "13776": "priv",
  "15656": "hacking",
  "4814": "missing",
  "26146": "interpretations",
  "3165": "emer",
  "25049": "gent",
  "7476": "risks",
  "561": "would",
  "24030": "decreasing",
  "15131": "vulnerability",
  "17313": "poses",
  "6066": "thoughts",
  "19444": "norms",
  "4158": "religious",
  "9056": "beliefs",
  "3206": "sexual",
  "11367": "orient",
  "2372": "threat",
  "22868": "adopting",
  "15058": "arise",
  "1552": "prom",
  "29867": "silicon",
  "6222": "vulner",
  "21433": "exempl",
  "29207": "idis",
  "29386": "ciplinary",
  "2877": "living",
  "8320": "acceler",
  "25243": "leaking",
  "46330": "prone",
  "4788": "policies",
  "26124": "design",
  "10270": "participation",
  "10507": "accum",
  "8927": "ulator",
  "5992": "updates",
  "11431": "media",
  "46475": "prism",
  "13902": "transparency",
  "6169": "ributed",
  "9554": "platforms",
  "525": "per",
  "3411": "mission",
  "2687": "anyone",
  "1100": "read",
  "3551": "write",
  "768": "ning",
  "10566": "missions",
  "2497": "saw",
  "849": "oth",
  "12983": "backs",
  "6529": "acts",
  "6107": "plug",
  "23941": "enterprises",
  "2368": "third",
  "10608": "party",
  "2476": "needs",
  "26005": "embracing",
  "23186": "diving",
  "50156": "guaranteeing",
  "1830": "games",
  "34074": "situ",
  "5301": "package",
  "2961": "earlier",
  "3485": "independ",
  "529": "act",
  "1352": "ator",
  "1426": "pos",
  "18929": "strengths",
  "10453": "weakness",
  "19334": "draw",
  "10146": "backs",
  "1950": "suggest",
  "39585": "ont",
  "9856": "educational",
  "1357": "dem",
  "4923": "dangerous",
  "29954": "unreliable",
  "49052": "redundancy",
  "2709": "aud",
  "1780": "iting",
  "17105": "handles",
  "27606": "presently",
  "1517": "thing",
  "6842": "bear",
  "1165": "too",
  "23824": "scans",
  "26958": "relieve",
  "44491": "cumbersome",
  "39495": "vascular",
  "5778": "accident",
  "8527": "etary",
  "541": "ip",
  "5892": "92",
  "2860": "add",
  "11697": "ressing",
  "3298": "global",
  "25745": "namespace",
  "1561": "talk",
  "42122": "during",
  "12628": "elabor",
  "9156": "logic",
  "29688": "please",
  "40926": "chart",
  "2861": "worth",
  "46945": "ploy",
  "49312": "overwrite",
  "24443": "append",
  "2058": "comes",
  "695": "ell",
  "20597": "itations",
  "2726": "serious",
  "27513": "expands",
  "40567": "diagnoses",
  "24411": "adh",
  "37489": "diagnose",
  "31298": "hd",
  "6057": "game",
  "37098": "mental",
  "10975": "affects",
  "11506": "span",
  "11767": "verify",
  "34725": "digital",
  "15388": "server",
  "19026": "guarantees",
  "46621": "hashes",
  "5430": "acking",
  "3013": "sn",
  "42174": "eaves",
  "37554": "dropping",
  "23355": "conceptual",
  "15028": "ethical",
  "2742": "legal",
  "19023": "review",
  "30565": "onomy",
  "27393": "labeling",
  "11142": "discussing",
  "6443": "opportunities",
  "32949": "ethical",
  "11344": "regulatory",
  "7546": "approval",
  "50150": "745",
  "34266": "occupational",
  "562": "ass",
  "396": "ist",
  "864": "ational",
  "490": "ther",
  "12826": "apy",
  "7564": "recognize",
  "29834": "appliances",
  "16560": "incorporated",
  "21792": "selective",
  "26726": "imaginary",
  "4457": "extremely",
  "17006": "chat",
  "20844": "ronics",
  "9052": "loop",
  "11943": "neur",
  "10444": "controller",
  "4697": "older",
  "7529": "deals",
  "13904": "volunteer",
  "3420": "door",
  "43511": "automate",
  "16244": "develop",
  "11364": "desktop",
  "34388": "dk",
  "4326": "unit",
  "15635": "ometer",
  "3645": "investigation",
  "37222": "loos",
  "3101": "ening",
  "43196": "blinking",
  "19971": "threat",
  "8075": "creates",
  "21570": "recognizes",
  "4147": "odes",
  "13919": "operational",
  "21182": "pathway",
  "28242": "pact",
  "1493": "ready",
  "1628": "project",
  "4284": "analy",
  "12271": "zes",
  "1190": "cle",
  "11511": "fo",
  "2664": "uses",
  "16019": "solved",
  "10597": "till",
  "783": "now",
  "5220": "suggested",
  "6698": "faces",
  "5287": "failure",
  "39335": "subsystem",
  "22432": "intervene",
  "9321": "thorough",
  "5685": "rast",
  "1356": "ruct",
  "35011": "tops",
  "12380": "deployed",
  "13238": "differ",
  "12751": "impacts",
  "10716": "examine",
  "16862": "initiated",
  "2056": "media",
  "48817": "interoper",
  "728": "ces",
  "3227": "production",
  "27144": "capt",
  "15075": "analog",
  "14434": "transformed",
  "11478": "transmission",
  "12991": "maxim",
  "23008": "compares",
  "4469": "background",
  "36899": "decode",
  "25135": "rule",
  "6027": "planned",
  "15284": "calculate",
  "8524": "then",
  "11902": "optional",
  "17282": "continuously",
  "29819": "repeats",
  "17096": "anti",
  "18307": "transmitted",
  "19406": "aggregate",
  "1806": "ring",
  "13906": "activated",
  "6977": "fashion",
  "11986": "specify",
  "35635": "alteration",
  "13696": "cycle",
  "10229": "refers",
  "46127": "ital",
  "13019": "disclosure",
  "17110": "hackers",
  "22959": "unauthorized",
  "21885": "tam",
  "7076": "gery",
  "5034": "rie",
  "6980": "era",
  "7617": "mal",
  "20358": "attack",
  "42985": "executes",
  "9471": "virus",
  "38932": "encompasses",
  "846": "includ",
  "8810": "gains",
  "36098": "arial",
  "7977": "targeted",
  "1418": "unt",
  "7641": "arget",
  "13422": "tar",
  "17851": "categor",
  "16907": "advers",
  "18870": "tar",
  "2081": "true",
  "29192": "jection",
  "16954": "injection",
  "15250": "attacker",
  "8459": "usted",
  "3011": "gets",
  "28846": "interpreter",
  "12405": "query",
  "13568": "harmful",
  "7508": "info",
  "14425": "denial",
  "37427": "dos",
  "23430": "dos",
  "4628": "tim",
  "5507": "edia",
  "22889": "communicating",
  "10214": "bot",
  "26609": "collects",
  "916": "inst",
  "50086": "crim",
  "6897": "inals",
  "17316": "leaks",
  "18031": "credentials",
  "29609": "crypt",
  "4456": "circum",
  "7435": "vent",
  "40705": "cryptographic",
  "45898": "cryptography",
  "38012": "cipher",
  "11315": "conversion",
  "2533": "irm",
  "9274": "attacking",
  "5361": "operating",
  "1327": "hard",
  "9343": "enabled",
  "8318": "passes",
  "8564": "sensitive",
  "16568": "stealing",
  "5504": "accounts",
  "9206": "password",
  "13977": "gaining",
  "5078": "switch",
  "12575": "hub",
  "23385": "hacker",
  "6670": "targets",
  "9597": "servers",
  "25776": "ol",
  "27171": "middle",
  "6331": "tack",
  "17348": "secretly",
  "14781": "drop",
  "11300": "traveling",
  "8711": "steal",
  "9253": "corruption",
  "31983": "sabotage",
  "6901": "describe",
  "1326": "me",
  "5015": "asure",
  "20467": "likewise",
  "12939": "resolved",
  "8271": "resource",
  "17679": "unint",
  "2976": "ellig",
  "7084": "hers",
  "39573": "transmitting",
  "4739": "ups",
  "11559": "backup",
  "7382": "somewhere",
  "33645": "altern",
  "19414": "restoration",
  "33342": "leted",
  "47153": "hopping",
  "8902": "rapidly",
  "5609": "changing",
  "11920": "carrier",
  "969": "sur",
  "18225": "switches",
  "19397": "irus",
  "9367": "scan",
  "20547": "viruses",
  "2192": "probably",
  "7209": "smooth",
  "7805": "rig",
  "20638": "decreases",
  "16389": "creativity",
  "16985": "gard",
  "7890": "data",
  "5336": "san",
  "14593": "deliberately",
  "11331": "irre",
  "3193": "ibly",
  "15043": "permanently",
  "4117": "destroy",
  "14880": "unre",
  "9631": "cover",
  "5589": "comp",
  "12724": "cleaning",
  "8686": "assigned",
  "19877": "coordination",
  "10878": "intellig",
  "2530": "iding",
  "13169": "admin",
  "35328": "tracing",
  "45946": "chronological",
  "29706": "ellectual",
  "5270": "generation",
  "9305": "concerning",
  "1960": "aut",
  "48756": "worthiness",
  "2610": "track",
  "9186": "item",
  "3054": "sens",
  "2450": "policy",
  "8794": "checks",
  "20675": "traces",
  "35847": "lookup",
  "941": "stud",
  "9519": "rooms",
  "19854": "atories",
  "31855": "compass",
  "6287": "extent",
  "34657": "analogous",
  "11400": "sa",
  "27920": ")âĢĶ",
  "22693": "supplier",
  "11453": "hosts",
  "12553": "embrace",
  "20799": "curb",
  "9307": "expenses",
  "1781": "course",
  "923": "start",
  "15332": "people",
  "25578": "consequently",
  "7674": "territory",
  "10399": "centers",
  "24285": "stacks",
  "8253": "complicated",
  "1618": "organ",
  "47155": "caveats",
  "3484": "costs",
  "28309": "appra",
  "1710": "ising",
  "8357": "arms",
  "15382": "drones",
  "18549": "scarce",
  "8494": "solve",
  "17080": "dist",
  "917": "und",
  "45241": "rums",
  "4334": "heavy",
  "1286": "ately",
  "10070": "decrease",
  "6061": "deploy",
  "6493": "supporting",
  "4925": "freedom",
  "8573": "structures",
  "22636": "accelerate",
  "1091": "velop",
  "25625": "harmon",
  "6819": "iously",
  "6905": "governments",
  "5383": "initi",
  "18382": "administrator",
  "15314": "manages",
  "49378": "adoptive",
  "2673": "action",
  "7499": "()",
  "2325": "upd",
  "21879": "etr",
  "9510": "zing",
  "7007": "requests",
  "4938": "valid",
  "8797": "whenever",
  "22915": "output",
  "14567": "dated",
  "3605": "new",
  "28720": "ivities",
  "32865": "())",
  "8833": "occurs",
  "3419": "()",
  "43759": "preserves",
  "1386": "ases",
  "6673": "adds",
  "7000": "stores",
  "14276": "generic",
  "41033": "timestamp",
  "22820": "extr",
  "608": "ount",
  "19608": "dat",
  "8178": "accord",
  "4420": "ingly",
  "3445": "contr",
  "3755": "ida",
  "12229": "reaches",
  "29994": "(),",
  "9877": "signature",
  "12685": "enc",
  "13168": "ryption",
  "28484": "contract",
  "6801": "transition",
  "20606": "hype",
  "43104": "multim",
  "9607": "iac",
  "38564": "ontent",
  "22390": "secure",
  "22118": "initiate",
  "6687": "manage",
  "28398": "hierarch",
  "603": "ail",
  "33529": "():",
  "15526": "access",
  "35430": "());",
  "29145": "authorize",
  "10435": "authorized",
  "45768": "tru",
  "11196": "existed",
  "1487": "change",
  "18703": "increment",
  "989": "report",
  "11659": "track",
  "23705": "termin",
  "4517": "mut",
  "5600": "indeed",
  "19601": "authorization",
  "3707": "education",
  "8617": "provisions",
  "36047": "emergencies",
  "8063": "loan",
  "13522": "gravity",
  "5917": "circumstances",
  "2331": "seems",
  "30780": "reneg",
  "21236": "otiation",
  "38026": "contractual",
  "20241": "margins",
  "2666": "leave",
  "17238": "exploitation",
  "11798": "industries",
  "11372": "manufacturers",
  "28144": "handle",
  "28482": "admin",
  "26084": "rans",
  "727": "old",
  "2617": "set",
  "7942": "true",
  "38200": "analy",
  "2736": "ze",
  "28955": "())",
  "26564": "organizational",
  "14537": "highlighted",
  "18848": "governance",
  "6647": "regulations",
  "11846": "compliance",
  "4157": "iders",
  "9238": "ownership",
  "11554": "manufacturer",
  "17170": "genuinely",
  "30081": "collaborate",
  "6954": "evolution",
  "11553": "administrative",
  "4934": "authority",
  "2198": "check",
  "524": "ime",
  "26478": "interchange",
  "1730": "deal",
  "12046": "stance",
  "4773": "authorities",
  "8295": "auto",
  "11299": "content",
  "30280": "organized",
  "10342": "searching",
  "20431": "appropriately",
  "5745": "organizations",
  "10655": "legacy",
  "5640": "causes",
  "9262": "maintenance",
  "1034": "op",
  "16047": "maintains",
  "2916": "particip",
  "765": "want",
  "13861": "competitors",
  "36438": "overcoming",
  "3853": "choose",
  "24184": "customize",
  "2550": "face",
  "3607": "gives",
  "725": "comm",
  "25413": "mis",
  "5936": "cons",
  "7314": "ensus",
  "15427": "implementing",
  "40148": "codes",
  "27004": "smart",
  "3884": "credit",
  "1056": "hip",
  "3597": "writing",
  "14986": "original",
  "4538": "draft",
  "11765": "reviewed",
  "42910": "wrote",
  "13012": "edited",
  "14940": "aft",
  "4987": "agreed",
  "14305": "declaration",
  "26275": "authenticity",
  "23666": "139",
  "2146": "mor",
  "15152": "ais",
  "16212": "cab",
  "8704": "ira",
  "34963": "melan",
  "6086": "oma",
  "44678": "metast",
  "1505": "ium",
  "43557": "psychiatry",
  "28749": "Ã£o",
  "1956": "land",
  "10277": "uz",
  "747": "iss",
  "534": "your",
  "3343": "surv",
  "28747": "kk",
  "6081": "ala",
  "25114": "ignant",
  "17156": "ner",
  "516": "ous",
  "1185": "stat",
  "7063": "arl",
  "31489": "hose",
  "1222": "&",
  "7285": "ji",
  "135": "Ë",
  "18265": "Â´",
  "23130": "odi",
  "4966": "ran",
  "5196": "Â¯",
  "10989": "di",
  "8550": "bitcoin",
  "5659": "sym",
  "35864": "posium",
  "1258": "ote",
  "31558": "jah",
  "12807": "san",
  "15483": "iang",
  "39180": "explor",
  "18097": "empir",
  "35220": "ernal",
  "21107": "rez",
  "2318": "bar",
  "3652": "bal",
  "1789": "iam",
  "7175": "54",
  "39354": "asynchronous",
  "37786": "ss",
  "34799": "jung",
  "42434": "ming",
  "12287": "speed",
  "24580": "concurrent",
  "668": "ark",
  "9997": "oret",
  "14838": "unlocked",
  "35890": "489",
  "472": "rou",
  "33705": "img",
  "49242": "nsics",
  "11816": "hiding",
  "17492": "mud",
  "13528": "gal",
  "2541": "atur",
  "1079": "ved",
  "19797": "surg",
  "45214": "694",
  "4336": "fan",
  "5701": "sports",
  "5095": "injury",
  "28714": "211",
  "31128": "358",
  "16616": "113",
  "3253": "aw",
  "9093": "ans",
  "11437": "enez",
  "34412": "trustworthy",
  "7344": "ali",
  "23368": "awi",
  "23628": "172",
  "8846": "iti",
  "9224": "adj",
  "30286": "passer",
  "18596": "pal",
  "12647": "nan",
  "10319": "gross",
  "35865": "nery",
  "26852": "gle",
  "3297": "sort",
  "35642": "603",
  "26910": "mater",
  "6667": "bel",
  "15816": "oping",
  "17721": "cloud",
  "29414": "375",
  "3019": "zz",
  "9019": "ui",
  "7808": "hide",
  "42829": "ocom",
  "12437": "shops",
  "10745": "inf",
  "50133": "ksh",
  "44622": "376",
  "36626": "381",
  "36455": "sei",
  "615": "av",
  "3496": "song",
  "13953": "enterprise",
  "34483": "775",
  "27891": "sr",
  "42163": "377",
  "4464": "yp",
  "29413": "azar",
  "10134": "has",
  "4712": "ula",
  "7079": "ador",
  "844": "ix",
  "25754": "igi",
  "9791": "beings",
  "4555": "eth",
  "3896": "rule",
  "14458": "ethics",
  "5996": "55",
  "918": "ren",
  "40995": "doctoral",
  "46793": "dissertation",
  "14688": "redd",
  "858": "ange",
  "6072": "sam",
  "13149": "mana",
  "577": "ose",
  "15660": "incentive",
  "8009": "announcement",
  "1307": "soc",
  "6298": "47",
  "38009": "chal",
  "17914": "abi",
  "8226": "yo",
  "7374": "winter",
  "15225": "dimensions",
  "793": "oss",
  "25203": "barn",
  "2763": "ham",
  "44084": "348",
  "40353": "884",
  "2525": "jo",
  "16998": "urai",
  "13830": "elderly",
  "2485": "gun",
  "24907": "circuits",
  "22951": "215",
  "14783": "iri",
  "29839": "hani",
  "23531": "sellers",
  "47705": "1001",
  "937": "mon",
  "45109": "aghan",
  "9948": "cal",
  "23908": "pine",
  "33355": "tiers",
  "3023": "04",
  "2054": "tre",
  "7930": "66",
  "31751": "609",
  "3313": "sil",
  "22947": "mith",
  "26066": "atra",
  "12777": "tu",
  "3147": "chan",
  "43200": "stabilization",
  "34664": "nat",
  "1349": "chn",
  "40660": "326",
  "27326": "335",
  "2959": "ey",
  "956": "hes",
  "24420": "rera",
  "1259": "ty",
  "5351": "bon",
  "2927": "coll",
  "12968": "aunt",
  "3369": "okes",
  "48896": "tactile",
  "34129": "sensations",
  "46633": "372",
  "27784": "craw",
  "9491": "jar",
  "8949": "101",
  "15363": "115",
  "17472": "pul",
  "2454": "ume",
  "1066": "mem",
  "3440": "load",
  "8866": "cogn",
  "34439": "vas",
  "5720": "mir",
  "5282": "anda",
  "17895": "systematic",
  "1311": "hum",
  "4570": "36",
  "13343": "105",
  "23726": "142",
  "44852": "ding",
  "20895": "uo",
  "8126": "aga",
  "7009": "tiny",
  "1263": "big",
  "10135": "mistakes",
  "22146": "pert",
  "5945": "urb",
  "21155": "induce",
  "33663": "lein",
  "9007": "medicine",
  "2070": "book",
  "22356": "neurolog",
  "23378": "168",
  "42141": "329",
  "29626": "339",
  "15952": "sche",
  "9101": "Ã¶",
  "988": "ek",
  "11729": "aya",
  "11883": "mem",
  "18213": "ea",
  "3885": "aud",
  "20486": "ta",
  "10872": "zo",
  "20295": "ei",
  "2915": "iles",
  "323": "ay",
  "2658": "cand",
  "10304": "ela",
  "6184": "Ã",
  "6780": "lv",
  "19655": "arez",
  "12397": "gi",
  "5698": "guide",
  "18419": "assisted",
  "2268": "viron",
  "5770": "god",
  "37425": "frey",
  "1064": "find",
  "10724": "lay",
  "813": "ily",
  "6335": "rad",
  "10236": "brid",
  "17018": "information",
  "13703": "retreat",
  "26561": "297",
  "13453": "researcher",
  "37197": "preventive",
  "26753": "166",
  "39506": "442",
  "3281": "ny",
  "12179": ".),",
  "23458": "chaotic",
  "15104": "riv",
  "4170": "ava",
  "1092": "any",
  "32283": "pta",
  "14349": "stabil",
  "2774": "pers",
  "18693": "116",
  "19798": "pand",
  "5296": "trip",
  "44202": "athi",
  "33585": "mitigation",
  "1674": "fore",
  "8851": "ren",
  "18370": "defenses",
  "44729": "346",
  "15277": "360",
  "25326": "151",
  "23188": "178",
  "21594": "empirical",
  "16088": "2003",
  "46435": "653",
  "31850": "estimation",
  "680": "ish",
  "3761": "defense",
  "10709": "commun",
  "5031": "la",
  "13490": "keley",
  "8784": "101",
  "26224": "rm",
  "4563": "gar",
  "25619": "rab",
  "25494": "arty",
  "12985": "tag",
  "1384": "ided",
  "11353": "automatic",
  "10834": "speaker",
  "3018": "recogn",
  "11341": "izers",
  "42392": "lang",
  "8093": "63",
  "2308": "eed",
  "958": "air",
  "15018": "protections",
  "35218": "416",
  "25707": "244",
  "1428": "iver",
  "11745": "smartphone",
  "45900": "414",
  "43356": "423",
  "903": "ble",
  "17007": "mim",
  "11656": "apore",
  "13348": "105",
  "1252": "ott",
  "11252": "rell",
  "35872": "backups",
  "375": "od",
  "580": "201",
  "28727": "218",
  "42625": "dj",
  "16853": "jam",
  "26992": "lan",
  "41997": "throughput",
  "22692": "fairness",
  "39331": "antiv",
  "39818": "osta",
  "12695": "adoption",
  "7627": "east",
  "7887": "contem",
  "2358": "manag",
  "34669": "fuzzy",
  "4731": "string",
  "12336": "matching",
  "17318": "113",
  "14334": "vag",
  "8107": "ena",
  "8182": "aki",
  "37279": "oris",
  "19686": "patron",
  "12225": "stopping",
  "16765": "calculations",
  "5439": "lo",
  "14364": "nu",
  "6480": "instr",
  "15951": "sect",
  "15584": "beam",
  "23235": "atoms",
  "15299": "rod",
  "4359": "rig",
  "34174": "arat",
  "21747": "?,",
  "33442": "eri",
  "26787": "theoretically",
  "14725": "barriers",
  "40426": "prod",
  "43756": "dw",
  "2783": "ancial",
  "15143": "102",
  "1860": "dd",
  "2563": "drug",
  "36497": "counterfeit",
  "5010": "drugs",
  "18423": "pharmaceutical",
  "10113": "pharm",
  "4164": "met",
  "10071": "ova",
  "4107": "asy",
  "48855": "eva",
  "27610": "idan",
  "12853": "full",
  "42737": "arov",
  "15349": "103",
  "42691": "994",
  "25150": "015",
  "47594": "ak",
  "25706": "tan",
  "5767": "war",
  "35423": "realms",
  "1953": "priv",
  "14454": "109",
  "7593": "industrial",
  "16443": "supportive",
  "25500": "141",
  "46252": "arte",
  "3671": "esc",
  "11354": "fer",
  "5379": "eds",
  "23963": "matt",
  "46754": "franc",
  "13023": "ernand",
  "46527": "assi",
  "31242": "aroma",
  "1385": "aim",
  "10115": "iano",
  "5303": "hi",
  "33270": "primer",
  "34244": "sensing",
  "35272": "unmanned",
  "6215": "aircraft",
  "22346": "los",
  "11072": "chi",
  "6117": "links",
  "9226": "aval",
  "29008": "sar",
  "12421": "avan",
  "26436": "aji",
  "784": "âĢĵ",
  "28022": "chap",
  "6899": "hall",
  "6015": "rc",
  "23313": "157",
  "45069": "retrieval",
  "21101": "cb",
  "11277": "mart",
  "20327": "inho",
  "45352": "encyclopedia",
  "31211": "520",
  "24408": "fan",
  "1045": "ata",
  "6334": "emergency",
  "36348": "landslide",
  "29184": "avoidance",
  "38508": ",.",
  "2167": "200",
  "726": "oy",
  "38415": "agara",
  "48795": "leness",
  "10356": "minim",
  "11098": "thur",
  "4948": "ym",
  "12713": "140",
  "20338": "opoulos",
  "2232": "fer",
  "2069": "oto",
  "30020": "ecosystems",
  "19558": "fog",
  "15532": "edu",
  "42433": "plaza",
  "10717": "stem",
  "1225": "ed",
  "27956": "1016",
  "18951": "intro",
  "7043": "du",
  "1196": "av",
  "49900": "ionics",
  "24831": "hp",
  "40004": "ande",
  "29268": "resolution",
  "3372": "asc",
  "18459": "ling",
  "39922": "guyen",
  "36192": "mural",
  "41727": "ko",
  "4227": "rat",
  "21067": "hee",
  "6376": "index",
  "646": "du",
  "22618": "orian",
  "17000": "rust",
  "19004": "202",
  "8937": "abs",
  "43758": "nostic",
  "3136": "reports",
  "14648": "national",
  "16184": "sn",
  "2360": "ogn",
  "23891": "otics",
  "23237": "164",
  "20020": "lishing",
  "18408": "ournals",
  "14821": "quantum",
  "42509": "andan",
  "13886": "ping",
  "20515": "railway",
  "3662": "administration",
  "3432": "paid",
  "24114": "researching",
  "11835": "gradually",
  "1613": "past",
  "4647": "decades",
  "4213": "ideas",
  "2157": "behind",
  "9775": "seemingly",
  "19938": "unrelated",
  "8365": "rarely",
  "31880": "summarized",
  "11776": "suggestions",
  "20973": "originated",
  "7169": "1980",
  "12933": "mechanics",
  "48287": "reversible",
  "4894": "heat",
  "6249": "diss",
  "25857": "ipation",
  "1042": "ism",
  "15993": "classical",
  "8735": "1995",
  "2968": "popular",
  "16546": "schemes",
  "1903": "early",
  "9902": "expanded",
  "41693": "medical",
  "11202": "perception",
  "34762": "directed",
  "10222": "spots",
  "16224": "Â©",
  "12407": "publishing",
  "8378": "behalf",
  "885": "ke",
  "25307": "164",
  "10349": "circuit",
  "31731": "shortcomings",
  "1919": "social",
  "20718": "introduces",
  "14921": "arranged",
  "17090": "mixing",
  "11695": "sixth",
  "14489": "1982",
  "33013": "physicist",
  "9895": "bits",
  "18659": "premise",
  "9264": "dozens",
  "1969": "close",
  "10340": "bits",
  "6537": "realize",
  "4621": "advantage",
  "46877": "hegemony",
  "11091": "considerable",
  "40315": "plat",
  "4138": "thousands",
  "17435": "gates",
  "8046": "fault",
  "4751": "2000",
  "1138": "met",
  "531": "said",
  "11811": "contemporary",
  "3417": "described",
  "1974": "comb",
  "20900": "inator",
  "16585": "chemistry",
  "10112": "universal",
  "21409": "165",
  "9257": "greatly",
  "808": "row",
  "30255": "sid",
  "297": "ll",
  "12192": "oyd",
  "18120": "solving",
  "27490": "equations",
  "2041": "special",
  "35529": "exponentially",
  "5443": "faster",
  "7219": "dealing",
  "7128": "gro",
  "5403": "twice",
  "23312": "accelerated",
  "13275": "tunnel",
  "4782": "uct",
  "2288": "uation",
  "39475": "optimum",
  "1306": "next",
  "4136": "spot",
  "17952": "calculation",
  "40972": "quant",
  "7729": "instructions",
  "9662": "step",
  "10890": "olving",
  "12064": "instruction",
  "8852": "representative",
  "1643": "bit",
  "8946": "gate",
  "44566": "schematic",
  "1732": "lement",
  "13941": "avoided",
  "5576": "uns",
  "23765": "vable",
  "23498": "feasible",
  "2029": "above",
  "11691": "suppose",
  "26519": "mutually",
  "1826": "meet",
  "19201": "satisfying",
  "4666": "mod",
  "4159": "minor",
  "24815": "meaning",
  "17675": "remainder",
  "15139": "âī",
  "1782": "}",
  "5512": "},",
  "4306": "otherwise",
  "9585": "repeat",
  "345": "you",
  "5562": "that",
  "11185": "meets",
  "6937": "constant",
  "8627": "uncertain",
  "39682": "exponential",
  "14241": "cancel",
  "18519": "hl",
  "1688": "major",
  "28441": "registers",
  "37419": "auxiliary",
  "18253": "integer",
  "9324": "igen",
  "27160": "values",
  "5724": "rot",
  "34062": "inverse",
  "23791": "merged",
  "8867": "eligible",
  "2378": "item",
  "41497": "indexed",
  "38875": "assigning",
  "17311": "inputs",
  "23224": "initialized",
  "2545": "bit",
  "7881": "register",
  "8335": "prepare",
  "8931": "stack",
  "21894": "evenly",
  "253": "Ł",
  "240": "Ĵ",
  "242": "Ķ",
  "102": "©",
  "98": "¥",
  "26340": "conditional",
  "2845": "except",
  "757": "again",
  "26118": "167",
  "28810": "discrete",
  "6055": "uations",
  "5974": "]:",
  "119": "»",
  "252": "ŀ",
  "12006": "constructed",
  "9044": "ilton",
  "28590": "simulated",
  "37892": "kinetic",
  "41216": "initialize",
  "7377": "Î",
  "111": "³",
  "3509": "max",
  "20214": "steps",
  "37588": "initialization",
  "110": "²",
  "1945": "erence",
  "18178": "accepts",
  "7927": "vice",
  "25470": "versa",
  "28077": "rang",
  "3438": "dom",
  "243": "ķ",
  "25357": "vi",
  "19883": "termination",
  "5651": "termin",
  "7363": "lies",
  "14301": "behaviors",
  "11829": "dealt",
  "2753": "takes",
  "34651": "abstraction",
  "4991": "units",
  "45903": "apses",
  "10050": "releases",
  "39307": "neurotrans",
  "21695": "exceeds",
  "4003": "notice",
  "3758": "send",
  "3501": "giving",
  "7692": "regardless",
  "8389": "organized",
  "7205": "acting",
  "9194": "producing",
  "3190": "completely",
  "8302": "proved",
  "1515": "oper",
  "10712": "tissue",
  "12725": "attracted",
  "1909": "today",
  "5707": "decade",
  "9123": "scholars",
  "23326": "sensory",
  "14171": "mode",
  "9750": "involvement",
  "29371": "resonance",
  "25122": "rared",
  "45943": "rosc",
  "11081": "opy",
  "12799": "essence",
  "43594": "propagation",
  "6476": "facing",
  "652": "ory",
  "3452": "latest",
  "16863": "degree",
  "8818": "function",
  "27191": "169",
  "9913": "intr",
  "7505": "theme",
  "3598": "seven",
  "4778": "cells",
  "23422": "intra",
  "41246": "insensitive",
  "2147": "nothing",
  "2245": "stop",
  "600": "int",
  "40903": "illation",
  "9871": "preferred",
  "5365": "relatively",
  "7026": "cheap",
  "45610": "john",
  "1725": "hop",
  "5331": "kins",
  "1524": "school",
  "11887": "physics",
  "10155": "mind",
  "1": "\"",
  "2298": "pick",
  "9845": "knife",
  "15563": "fork",
  "12187": "cake",
  "5422": "mouth",
  "22295": "voluntarily",
  "6196": "potentially",
  "16500": "navigate",
  "10965": "destination",
  "5924": "experienced",
  "2063": "half",
  "4289": "century",
  "4001": "meant",
  "39120": "clumsy",
  "2872": "match",
  "6411": "seriously",
  "14676": "satisfaction",
  "9028": "intellectual",
  "13203": "inevitable",
  "8695": "relation",
  "4074": "ship",
  "34962": "cooperating",
  "20121": "merge",
  "19973": "perceive",
  "5052": "judge",
  "16677": "170",
  "1499": "country",
  "5340": "impossible",
  "11982": "profound",
  "13029": "unprecedented",
  "47916": "innovate",
  "11640": "simultaneously",
  "23554": "milestone",
  "3328": "receive",
  "4911": "express",
  "21403": "dependence",
  "28369": "171",
  "4988": "truly",
  "45521": "liberate",
  "24624": "packets",
  "16668": "super",
  "16149": "vised",
  "6439": "unknown",
  "28533": "quint",
  "29291": "uple",
  "6799": "sav",
  "4224": "itz",
  "3436": "alone",
  "2904": "recently",
  "724": "ull",
  "22423": "ratios",
  "15197": "103",
  "19802": "oyle",
  "9971": "organ",
  "15801": "106",
  "15982": "107",
  "809": "bu",
  "6235": "pointed",
  "3995": "sto",
  "3477": "astic",
  "12315": "pdf",
  "7989": "principle",
  "46280": "swe",
  "10088": "operator",
  "39599": "plank",
  "13262": "aggreg",
  "3490": "swe",
  "13027": "partial",
  "33369": "erential",
  "12059": "describing",
  "3911": "part",
  "1548": "icle",
  "4137": "forced",
  "16243": "111",
  "14686": "112",
  "23120": "172",
  "16562": "114",
  "6368": "iques",
  "8201": "including",
  "13311": "instinct",
  "31563": "intuition",
  "5680": "ton",
  "4493": "projects",
  "27785": "simulations",
  "28161": "massively",
  "18298": "116",
  "5931": "chemical",
  "13389": "transformation",
  "3051": "occur",
  "17657": "117",
  "14607": "reasoning",
  "12291": "variation",
  "16817": "118",
  "16315": "119",
  "16481": "organize",
  "18284": "autonomous",
  "16408": "navigation",
  "21112": "decisive",
  "20399": "processors",
  "11481": "hopefully",
  "2222": "bring",
  "3058": "currently",
  "28174": "173",
  "17512": "manipulation",
  "2111": "trying",
  "7309": "plastic",
  "31169": "cerebral",
  "16970": "achievements",
  "6209": "basically",
  "13646": "demonstration",
  "467": "go",
  "10282": "settled",
  "8791": "encounter",
  "3349": "growth",
  "2706": "companies",
  "2740": "speak",
  "7715": "publish",
  "36642": "usher",
  "8972": "shortly",
  "8088": "reviews",
  "2975": "road",
  "28967": "winding",
  "12370": "mechanical",
  "4191": "eventually",
  "6692": "linked",
  "7333": "acknowled",
  "8233": "academic",
  "7370": "degrees",
  "10428": "graduate",
  "34215": "0002",
  "17279": "170",
  "28340": "aan",
  "29992": "xi",
  "8473": "province",
  "36676": "040",
  "13640": "trapped",
  "8500": "neutral",
  "7813": "sin",
  "30691": "rals",
  "34754": "Ä",
  "235": "į",
  "2403": "ili",
  "11110": "bu",
  "45271": "1965",
  "756": "ont",
  "49547": "vich",
  "2621": "itten",
  "16883": "coh",
  "27056": "enumer",
  "10688": "math",
  "22666": "1994",
  "45719": "525",
  "43918": "562",
  "4523": "nuclear",
  "15629": "220",
  "18938": "301",
  "30863": "802",
  "2301": "reg",
  "25864": "atl",
  "5790": "acad",
  "23140": "enberg",
  "10536": "gre",
  "17052": "donor",
  "36244": "311",
  "20064": "210",
  "27621": "174",
  "48151": "ennett",
  "18946": "1999",
  "24130": "hon",
  "1172": "prog",
  "28551": "183",
  "23349": "215",
  "1935": "viol",
  "35044": "lett",
  "1200": "child",
  "15668": "ahl",
  "5026": "sem",
  "42975": "pt",
  "9838": "ye",
  "10531": "2009",
  "35126": "502",
  "673": "she",
  "12195": ".(",
  "11802": "natural",
  "7758": "mel",
  "45451": "nikov",
  "5125": "49",
  "33042": "508",
  "3255": "oring",
  "5079": "annual",
  "19369": "foundations",
  "9162": "1994",
  "6213": "lyn",
  "21498": "1997",
  "8628": "150",
  "2797": "unt",
  "6436": "optim",
  "29691": "193",
  "21261": "205",
  "23258": "realization",
  "44417": "351",
  "14246": "iw",
  "1078": "att",
  "16698": "omon",
  "10602": "aco",
  "30014": "owler",
  "715": "itt",
  "16936": "nearest",
  "12250": "neighbour",
  "34385": "237",
  "28072": "251",
  "47562": "wang",
  "10946": "theories",
  "11538": "electron",
  "5714": "stein",
  "9999": "ordon",
  "22448": "defects",
  "6473": "bull",
  "4353": "38",
  "33121": "802",
  "36928": "807",
  "39937": "345",
  "28262": "420",
  "18955": "molecular",
  "37446": "magnets",
  "32921": "410",
  "44750": "793",
  "28110": "tha",
  "8590": "oz",
  "4708": "professional",
  "4033": "col",
  "17190": "prints",
  "26908": "plement",
  "49544": "hashing",
  "3235": "mach",
  "4533": "ado",
  "9651": "monthly",
  "25807": "rainfall",
  "9417": "elling",
  "7409": "hyd",
  "44367": "349",
  "35195": "361",
  "29022": "509",
  "14288": "median",
  "14415": "pi",
  "41164": "forecasting",
  "33400": "316",
  "14315": "2005",
  "22986": "146",
  "35253": "gust",
  "50126": "relational",
  "9796": "110",
  "11641": "aeda",
  "8083": "ima",
  "1003": "//",
  "34975": "spr",
  "5943": "idel",
  "3900": "berg",
  "5075": "2005",
  "4024": "olf",
  "1140": "ox",
  "34696": "chemotherapy",
  "382": "ore",
  "4890": "cancer",
  "22131": "202",
  "22136": "206",
  "36495": "conduct",
  "7600": "85",
  "26142": "tac",
  "2879": "ino",
  "8352": "mac",
  "18798": "llo",
  "45941": "np",
  "8195": "recon",
  "32996": "248",
  "28676": "257",
  "35560": "az",
  "29016": "implant",
  "35132": "confer",
  "43019": "368",
  "36088": "804",
  "5561": "approx",
  "2894": "hood",
  "26826": "163",
  "15259": "180",
  "3425": "pan",
  "6571": "oen",
  "44341": "342",
  "14877": "350",
  "3053": "email",
  "18084": "spam",
  "4780": "neighbor",
  "41492": "naÃ¯ve",
  "851": "âĢĶ",
  "5": "&",
  "3143": "prep",
  "9888": "scale",
  "42577": "barb",
  "16964": "por",
  "19972": "magnet",
  "14201": "hal",
  "12279": "115",
  "10763": "recommendations",
  "26610": "quantitative",
  "47946": "373",
  "30460": "388",
  "8056": "err",
  "47966": "uti",
  "6124": "cas",
  "14651": "oni",
  "14139": "separation",
  "31009": "191",
  "3870": "som",
  "35492": "atos",
  "15276": "assessed",
  "41717": "660",
  "45385": "674",
  "24660": "lia",
  "9929": "overt",
  "4286": "picture",
  "19264": "naming",
  "11752": "oh",
  "4000": "pun",
  "43439": "saw",
  "28079": "ongs",
  "28374": "kun",
  "42428": "beer",
  "5117": "arp",
  "18246": "funded",
  "35264": "244",
  "836": "don",
  "6148": "elly",
  "6039": "hol",
  "1641": "family",
  "32386": "careg",
  "39466": "279",
  "3715": "scene",
  "36966": "405",
  "26200": "408",
  "19038": "175",
  "6034": "prospect",
  "38265": "brid",
  "7625": "gap",
  "1664": "company",
  "45229": "sag",
  "26629": "electrom",
  "28555": "011",
  "35858": "paralysis",
  "39925": "687",
  "7995": "alert",
  "33492": "ographs",
  "30880": "electr",
  "8237": "wine",
  "30680": "wines",
  "1615": "bas",
  "9587": "erk",
  "20951": "owitz",
  "24574": "epidem",
  "12593": "diabetes",
  "48118": "phthal",
  "29126": "mology",
  "43132": "mol",
  "34287": "648",
  "1460": "ides",
  "19545": "next",
  "37865": "semantic",
  "11844": "dil",
  "40842": "pb",
  "5059": "driving",
  "901": "ife",
  "2134": "object",
  "9358": "transportation",
  "5239": "text",
  "6605": "uated",
  "31064": "229",
  "32416": "paced",
  "7509": "izer",
  "47233": "502",
  "50207": "kernels",
  "20243": "workshop",
  "36945": "nem",
  "8497": "hesis",
  "2933": "boy",
  "2778": "oud",
  "1601": "ury",
  "48228": "oscopic",
  "10268": "stere",
  "7721": "chest",
  "19772": "radi",
  "39174": "278",
  "2596": "ran",
  "20470": "cry",
  "7757": "stal",
  "3877": "charge",
  "23018": "fried",
  "33134": "andel",
  "49941": "imilar",
  "44300": "610",
  "778": "pr",
  "36650": "mc",
  "1655": "gin",
  "24669": "467",
  "6880": "mes",
  "30986": "1970",
  "39570": "864",
  "11109": "ello",
  "15280": "cker",
  "44107": "college",
  "45243": "md",
  "18765": "theor",
  "4587": "der",
  "19647": "energ",
  "47818": "iever",
  "2593": "norm",
  "2213": "tr",
  "30433": "utsche",
  "46097": "ische",
  "19187": "ells",
  "11693": "cha",
  "701": "ft",
  "21489": "1900",
  "28054": "1986",
  "45210": "357",
  "20167": "370",
  "24652": "153",
  "19707": "159",
  "2768": "lev",
  "5708": "ola",
  "4215": "soft",
  "15813": "kit",
  "14077": "artif",
  "43153": "endon",
  "42191": "assisted",
  "27488": "biom",
  "2305": "ole",
  "5622": "philos",
  "41761": "358",
  "8130": "aka",
  "22288": "1996",
  "40427": "552",
  "26937": "176",
  "15498": "aba",
  "2956": "ur",
  "1230": "government",
  "4152": "college",
  "10393": "progressive",
  "21545": "retention",
  "17755": "verbal",
  "1490": "vis",
  "2117": "osp",
  "7883": "abilities",
  "22220": "ulsive",
  "7460": "symptoms",
  "14754": "loses",
  "24043": "simplest",
  "2997": "billion",
  "6989": "suffered",
  "18309": "globally",
  "30612": "surpassed",
  "14963": "occurring",
  "12227": "second",
  "13342": "globe",
  "6152": "prompt",
  "36246": "contraction",
  "16886": "tex",
  "10157": "shr",
  "18568": "hipp",
  "3612": "thinking",
  "24865": "remembering",
  "38587": "hippocampus",
  "27382": "shrinking",
  "37287": "enlarged",
  "1173": "ric",
  "3499": "interesting",
  "16794": "help",
  "29597": "consultants",
  "16969": "descriptions",
  "32656": "dn",
  "19376": "timely",
  "7073": "discover",
  "15501": "incom",
  "10549": "puter",
  "23584": "diagnostic",
  "5887": "expert",
  "10495": "91",
  "23677": "translates",
  "4632": "mostly",
  "5225": "works",
  "40085": "optim",
  "8395": "chances",
  "18140": "remembers",
  "21611": "discovering",
  "7685": "normally",
  "10224": "conventional",
  "3213": "ection",
  "11672": "fed",
  "26356": "weighted",
  "44528": "depictions",
  "18487": "contin",
  "24987": "uously",
  "1397": "aining",
  "10906": "outcomes",
  "9812": "enormous",
  "8904": "substantial",
  "15343": "volumes",
  "1442": "vious",
  "23786": "surfaced",
  "11123": "threatening",
  "36747": "chall",
  "1099": "law",
  "9382": "graphics",
  "31197": "gp",
  "34788": "tp",
  "14735": "magnitude",
  "12705": "pose",
  "3660": "modern",
  "19428": "phenomena",
  "3639": "lements",
  "47116": "atomic",
  "4633": "negative",
  "13166": "particles",
  "17790": "combinations",
  "28654": "alle",
  "6344": "road",
  "10806": "omach",
  "40273": "endeavors",
  "27809": "gp",
  "12228": "operated",
  "38227": "qq",
  "49786": "evaluate",
  "38495": "deterioration",
  "16384": "nerve",
  "24106": "accumulation",
  "18801": "abnormal",
  "7532": "protein",
  "2645": "yl",
  "1868": "oid",
  "15856": "illary",
  "4292": "expand",
  "16125": "publications",
  "17765": "asis",
  "13160": "composed",
  "15458": "batch",
  "2290": "lu",
  "14378": "onde",
  "11607": "mild",
  "10768": "moderate",
  "11011": "imp",
  "11059": "translation",
  "28681": "attained",
  "12342": "oder",
  "14736": "aging",
  "17085": "progression",
  "44258": "diffusion",
  "24167": "stacked",
  "11068": "examined",
  "7135": "narrow",
  "26790": "sliced",
  "13363": "rained",
  "16485": "squ",
  "28889": "comprise",
  "15715": "dense",
  "14541": "prelim",
  "1625": "came",
  "24028": "herein",
  "5269": "outs",
  "7042": "formed",
  "23163": "clusters",
  "3339": "ple",
  "18896": "len",
  "1130": "gg",
  "30839": "inception",
  "11925": "len",
  "39696": "elong",
  "9495": "notion",
  "30632": "executions",
  "9930": "they",
  "30620": "modifying",
  "25641": "vari",
  "36519": "untouched",
  "19827": "intriguing",
  "10521": "gest",
  "27349": "network",
  "5214": "37",
  "18100": "bolt",
  "6833": "classic",
  "13500": "deg",
  "24972": "gradual",
  "7899": "inson",
  "15998": "autism",
  "17251": "artic",
  "7794": "decline",
  "25419": "degener",
  "919": "cess",
  "40387": "iquette",
  "19327": "dysfunction",
  "27886": "dementia",
  "3489": "obvious",
  "17975": "deterior",
  "9694": "damaged",
  "2900": "turned",
  "14366": "peoples",
  "13206": "compelling",
  "25403": "demise",
  "7027": "nations",
  "4597": "ady",
  "11814": "tum",
  "10152": "ease",
  "4113": "places",
  "4172": "families",
  "26407": "icator",
  "5339": "capacity",
  "2707": "ceed",
  "26757": "communal",
  "10672": "ulty",
  "41878": "arranging",
  "41209": "provocation",
  "23840": "accustomed",
  "4516": "ception",
  "9648": "struggling",
  "21674": "arrange",
  "47886": "melancholy",
  "42364": "abnorm",
  "10668": "dual",
  "15568": "proteins",
  "12616": "damages",
  "46725": "molded",
  "2727": "created",
  "46806": "aques",
  "11239": "distur",
  "38659": "connection",
  "576": "ile",
  "37064": "parable",
  "10921": "disappear",
  "6224": "existence",
  "18328": "skeleton",
  "37995": "tub",
  "5028": "ules",
  "27324": "strengthened",
  "37354": "binds",
  "47027": "bil",
  "19018": "nonetheless",
  "32129": "defective",
  "17383": "retained",
  "14556": "sooner",
  "16612": "inability",
  "3946": "jobs",
  "1663": "grow",
  "35907": "anomalies",
  "2532": "chall",
  "1136": "get",
  "5183": "hat",
  "1645": "happen",
  "49951": "biomark",
  "20076": "anat",
  "10179": "omic",
  "8958": "deliber",
  "2178": "umb",
  "21025": "punct",
  "12452": "examination",
  "35445": "entails",
  "33315": "revisions",
  "9380": "correctly",
  "19810": "occurrence",
  "6736": "cere",
  "7957": "bro",
  "27112": "uid",
  "3257": "extreme",
  "40525": "assembling",
  "22900": "unpredictable",
  "19001": "outline",
  "40324": "conceivable",
  "11832": "decreased",
  "20734": "bodily",
  "10104": "inspect",
  "12263": "lifestyle",
  "6678": "usual",
  "5895": "signs",
  "9299": "interviews",
  "2929": "atives",
  "8385": "algorith",
  "9383": "mic",
  "10568": "resolve",
  "19188": "would",
  "6083": "hered",
  "45541": "amalg",
  "14755": "amation",
  "13442": "forcement",
  "39468": "relations",
  "9608": "abel",
  "7584": "puts",
  "37414": "reinforcement",
  "5797": "agent",
  "6721": "reward",
  "5232": "ems",
  "11298": "displays",
  "2121": "fall",
  "25477": "contingent",
  "113": "µ",
  "2160": "sum",
  "14448": "belongs",
  "5594": "belong",
  "24772": "comprehend",
  "4271": "previously",
  "8988": "comes",
  "7144": "compens",
  "35311": "trained",
  "11067": "perceived",
  "27878": "utmost",
  "3613": "save",
  "10245": "instances",
  "15662": "oversight",
  "5120": "proceed",
  "24191": "insign",
  "29052": "numerical",
  "11172": "transferred",
  "33096": "multiplied",
  "27379": "each",
  "11583": "receives",
  "5192": "trig",
  "34195": "succeeding",
  "6396": "ivered",
  "7830": "repeatedly",
  "29057": "altering",
  "395": "est",
  "13196": "assumption",
  "12475": "tempt",
  "90": "{",
  "20039": "predictable",
  "22930": "prop",
  "9575": "reverse",
  "43448": "forwarding",
  "6718": "conver",
  "3212": "ges",
  "17698": "overly",
  "13550": "hier",
  "6275": "excellent",
  "15124": "relate",
  "12925": "countless",
  "6765": "alle",
  "19898": "intermediate",
  "11092": "forecast",
  "29858": "alterations",
  "6536": "category",
  "2316": "relations",
  "11688": "attribute",
  "7727": "gorith",
  "741": "sel",
  "6962": "ayers",
  "36755": "scramble",
  "6337": "46",
  "18911": "hierarchy",
  "949": "min",
  "12001": "local",
  "41062": "receptive",
  "12608": "attributes",
  "27918": "comprising",
  "23759": "curves",
  "42946": "conv",
  "29275": "biases",
  "16605": "dot",
  "12784": "entries",
  "18616": "generates",
  "7224": "sees",
  "46140": "rgb",
  "46968": "convol",
  "41271": "ze",
  "33769": "stride",
  "24511": "padding",
  "49262": "culated",
  "127": "Ã",
  "39231": "padding",
  "49491": "minimized",
  "6903": "portion",
  "27179": "resh",
  "7916": "apes",
  "10451": "formula",
  "16689": "accountable",
  "11791": "accompanied",
  "15687": "demonstrates",
  "15534": "admits",
  "5614": "ishes",
  "30240": "encoded",
  "47416": "nurturing",
  "14250": "invention",
  "48628": "acus",
  "18019": "mankind",
  "21353": "nature",
  "5305": "real",
  "39793": "entail",
  "45253": "unbearable",
  "37820": "eminent",
  "19254": "centered",
  "9153": "headed",
  "3992": "web",
  "22616": "browsers",
  "3657": "laws",
  "21170": "circ",
  "15379": "uits",
  "46334": "istors",
  "41510": "puters",
  "37621": "spins",
  "2083": "trad",
  "3131": "extra",
  "6397": "reasonable",
  "10810": "acknowledged",
  "25888": "supremacy",
  "5002": "element",
  "1161": "formation",
  "37872": "embraces",
  "44657": "accumulating",
  "13853": "surge",
  "16246": "intersection",
  "7632": "57",
  "13878": "convey",
  "9248": "angle",
  "21196": "remarkably",
  "3129": "cul",
  "7949": "inqu",
  "14294": "altered",
  "29349": "manipulating",
  "16611": "freeze",
  "40379": "ts",
  "37430": "eq",
  "46668": "ti",
  "38442": "jad",
  "17457": "bd",
  "27214": "Ã°",
  "2237": "six",
  "15926": "âĹ",
  "21004": "encoding",
  "28308": "forwarded",
  "1851": "vert",
  "38375": "rotated",
  "421": "qu",
  "17507": "expectation",
  "28435": "vc",
  "12049": "dressed",
  "10774": "cir",
  "12560": "placing",
  "47347": "zn",
  "35073": "nin",
  "10247": "wa",
  "25836": "512",
  "15680": "downloaded",
  "9460": "agg",
  "1299": "ains",
  "4059": "500",
  "24251": "dement",
  "30745": "nond",
  "27121": "208",
  "14436": "104",
  "11001": "predicted",
  "34106": "tn",
  "46428": "fp",
  "22184": "fn",
  "13390": "fraction",
  "37661": "categorized",
  "16005": "cision",
  "20541": "global",
  "7742": "pool",
  "7110": "plot",
  "3146": "numbers",
  "24848": "152",
  "31017": "skipping",
  "14267": "skip",
  "1341": "sk",
  "2419": "ips",
  "10802": "confusion",
  "17618": "number",
  "43501": "batch",
  "15696": "106",
  "22429": "penn",
  "4277": "default",
  "1984": "isk",
  "25534": "aer",
  "12972": "py",
  "13165": "tor",
  "20652": "plugins",
  "35375": "simulator",
  "12286": "default",
  "36659": "assimil",
  "45432": "855",
  "16226": "107",
  "41236": "strawberry",
  "7032": "fields",
  "24851": "etti",
  "24283": "ib",
  "23645": "google",
  "13877": "plugin",
  "11150": "synd",
  "3474": "icated",
  "18053": "depth",
  "12514": "elta",
  "15495": "108",
  "6220": "kit",
  "11545": "two",
  "1845": "par",
  "9193": "88",
  "36754": "amate",
  "2498": "circ",
  "37606": "itto",
  "26369": "penny",
  "39698": "simul",
  "33407": "testing",
  "1697": "enn",
  "23601": "340",
  "665": "tw",
  "23192": "terson",
  "22723": "imer",
  "492": "..",
  "20198": "147",
  "43998": "kan",
  "8149": "wan",
  "19880": "134",
  "31916": "604",
  "33618": "020",
  "13381": "255",
  "9937": "mad",
  "32775": "erva",
  "48597": "036",
  "6507": "sad",
  "25011": "iq",
  "45079": "mt",
  "21139": "143",
  "20107": "138",
  "27877": "242",
  "11018": "math",
  "7842": "magn",
  "46525": "angelo",
  "12715": "ippi",
  "34741": "383",
  "13374": "111",
  "24309": "151",
  "8710": "ven",
  "404": "op",
  "10479": "tong",
  "39436": "hr",
  "24970": "254",
  "28642": "nm",
  "22534": "accessing",
  "31076": "fetus",
  "2657": "card",
  "18781": "145",
  "7056": "aza",
  "45091": "ja",
  "22359": "tumor",
  "38530": "onics",
  "36649": "eb",
  "11392": "rah",
  "32803": "fri",
  "25191": "259",
  "5450": "https",
  "17464": "124",
  "42391": "asar",
  "10036": "athy",
  "3609": "ae",
  "539": "ake",
  "45125": "sow",
  "7888": "thin",
  "759": "tern",
  "2049": "oon",
  "23568": "sung",
  "35038": "415",
  "16298": "od",
  "6277": "ami",
  "12422": "mas",
  "3754": "ius",
  "22379": "ril",
  "15820": "avi",
  "40881": "uned",
  "18216": "nost",
  "15201": "zan",
  "6759": "mat",
  "6893": "bal",
  "23940": "hm",
  "702": "ood",
  "38387": "ka",
  "7673": "ouch",
  "24591": "217",
  "463": "ud",
  "4484": "rian",
  "20613": "db",
  "2583": "host",
  "19014": "naval",
  "32188": "raf",
  "15059": "sher",
  "619": "ough",
  "1452": "ten",
  "18982": "format",
  "17219": "biology",
  "3032": "hon",
  "17754": "mobil",
  "29331": "777",
  "27689": "zeal",
  "19199": "types",
  "28253": "hippocamp",
  "21349": "ya",
  "34716": "460",
  "23638": "iza",
  "32926": "uld",
  "1494": "kill",
  "31884": "oran",
  "25870": "278",
  "15503": "lett",
  "49287": "883",
  "5375": "iat",
  "1750": "sever",
  "21047": "herb",
  "1706": "ster",
  "1681": "ney",
  "34409": "training",
  "62": "_",
  "9099": "don",
  "740": "rough",
  "13087": "lean",
  "6485": "abb",
  "1530": "ush",
  "574": "ven",
  "2998": "07",
  "3247": "raz",
  "32660": "ll",
  "45286": "variable",
  "1489": "bo",
  "10641": "char",
  "10571": "km",
  "28041": "006",
  "29034": "mp",
  "3972": "ya",
  "4255": "cook",
  "43067": "powering",
  "48000": "047",
  "7493": "aug",
  "32148": "332",
  "43703": "acho",
  "18013": "agi",
  "17572": "220",
  "32812": "kb",
  "5602": "rent",
  "28338": "ropy",
  "39804": "rhythms",
  "44318": "1007",
  "38172": "755",
  "46821": "021",
  "20219": "139",
  "34847": "yuan",
  "16799": "127",
  "30924": "678",
  "34107": "396",
  "8862": "depression",
  "8143": "rical",
  "23968": "oust",
  "21738": "179",
  "17729": "1080",
  "25397": "focal",
  "4374": "ocal",
  "48200": "628",
  "24714": "fn",
  "39733": "gin",
  "3464": "ken",
  "15334": "fifty",
  "45494": "arella",
  "9160": "isa",
  "4398": "haven",
  "22789": "rase",
  "19173": "aran",
  "17909": "comparisons",
  "19279": "vl",
  "501": "ice",
  "35378": "507",
  "24910": "olin",
  "17342": "114",
  "14879": "prototype",
  "40603": "qi",
  "15121": "crystal",
  "1251": "chool",
  "20380": "ghai",
  "16102": "240",
  "8181": "hang",
  "1748": "city",
  "38536": "zhou",
  "39598": "jiang",
  "14953": "intentions",
  "11519": "inherent",
  "21999": "pn",
  "18700": "lightweight",
  "42096": "uniformly",
  "27571": "tailored",
  "5787": "free",
  "47385": "transformer",
  "7380": "fewer",
  "39125": "benefiting",
  "3373": "//",
  "12567": "github",
  "1192": "anc",
  "29856": "mun",
  "10760": "effect",
  "45795": "rehearsal",
  "38350": "visualize",
  "28869": "syn",
  "11413": "chron",
  "29588": "garnered",
  "38800": "keleton",
  "19259": "vance",
  "18772": "shortage",
  "38096": "intensive",
  "36537": "calibration",
  "35501": "scarcity",
  "34992": "weakening",
  "30742": "establishes",
  "22706": "unified",
  "19318": "oct",
  "2023": "ober",
  "45066": "knowledge",
  "32647": "315",
  "7769": "09",
  "10733": "phenomenon",
  "27450": "evidently",
  "19022": "insufficient",
  "36484": "gc",
  "5748": "hips",
  "8569": "comprehens",
  "20315": "resent",
  "6551": "weight",
  "38575": "finer",
  "13378": "devoted",
  "43274": "hung",
  "33885": "kernel",
  "14191": "olutions",
  "30885": "alleviate",
  "28781": "tl",
  "37047": "sym",
  "3734": "fine",
  "6986": "essentially",
  "31081": "reconstruct",
  "13110": "compromise",
  "24216": "continuity",
  "35016": "augment",
  "38869": "swapping",
  "4574": "push",
  "32338": "prototypes",
  "13205": "beneficial",
  "43846": "ouple",
  "11003": "importantly",
  "4691": "serve",
  "26566": "dilemma",
  "25735": "systematically",
  "28569": "termed",
  "7937": "ships",
  "36133": "vp",
  "11266": "separated",
  "5881": "enh",
  "7351": "serving",
  "18330": "inspire",
  "1126": "cre",
  "2313": "asing",
  "11322": "akh",
  "771": "ced",
  "8561": "improvements",
  "487": "ff",
  "42653": "recal",
  "1358": "ration",
  "100": "§",
  "13103": "modules",
  "8333": "assign",
  "4079": "reflect",
  "3520": "remain",
  "31286": "unexpl",
  "4112": "absolute",
  "15066": "meanwhile",
  "25297": "tg",
  "17985": "neglect",
  "16537": "lately",
  "33419": "atu",
  "3303": "language",
  "16354": "former",
  "7021": "blocks",
  "20203": "dependency",
  "23047": "tc",
  "13845": "ms",
  "36540": "vt",
  "8478": "branch",
  "5358": "conflict",
  "16181": "memor",
  "13567": "otypes",
  "11706": "closest",
  "9442": "shot",
  "22974": "learns",
  "1152": "gener",
  "5688": "largely",
  "32738": "fuse",
  "228": "Ĩ",
  "114": "¶",
  "12143": "tains",
  "18662": "rhythm",
  "1177": "view",
  "36319": "divides",
  "7303": "shares",
  "3447": "resh",
  "1758": "ape",
  "232": "Ĭ",
  "24866": "corresponds",
  "43440": "resultant",
  "19468": "gran",
  "33737": "ularity",
  "5716": "treated",
  "8603": "equally",
  "12476": "emphasis",
  "7785": "var",
  "47527": "[(",
  "16124": "deriv",
  "1463": "ention",
  "20936": "illustration",
  "12328": "adjusted",
  "31070": "constrained",
  "44017": "pend",
  "8203": "indicated",
  "7368": "specified",
  "19392": "slides",
  "234": "Į",
  "14583": "forming",
  "10620": "sizes",
  "45096": "flattened",
  "1673": "conc",
  "36686": "aten",
  "2457": "final",
  "30902": "noteworthy",
  "14394": "lacking",
  "18645": "boundary",
  "9155": "loose",
  "32335": "scarcely",
  "30066": "researched",
  "31821": "implicitly",
  "10330": "margin",
  "2204": "benef",
  "2535": "itting",
  "49480": "clustered",
  "8802": "isp",
  "17272": "aiming",
  "26537": "enlarg",
  "27413": "compress",
  "24969": "oscill",
  "4588": "influence",
  "2505": "lier",
  "18478": "uber",
  "91": "|",
  "29": ">",
  "15637": "limiting",
  "24842": "instability",
  "41528": "outl",
  "13946": "cluster",
  "17707": "tightly",
  "8725": "ribed",
  "16992": "implicit",
  "7952": "explicit",
  "23928": "impl",
  "3628": "icit",
  "7845": "displ",
  "2114": "aces",
  "8159": "origin",
  "1500": "const",
  "3201": "rain",
  "7121": "pushed",
  "20676": "expl",
  "2461": "respect",
  "26727": "guiding",
  "15459": "posed",
  "3292": "trade",
  "2364": "off",
  "9089": "losses",
  "20070": "pushes",
  "42685": "denote",
  "1743": "official",
  "26250": "720",
  "1528": "days",
  "7724": "72",
  "31170": "bipolar",
  "45482": "distinguishes",
  "27753": "balanced",
  "7297": "division",
  "12040": "quantity",
  "19180": "fluct",
  "26063": "224",
  "11032": "designated",
  "44125": "preclude",
  "9949": "guidelines",
  "11904": "seeds",
  "44266": "setups",
  "21744": "vidia",
  "8387": "orce",
  "19944": "pu",
  "8298": "001",
  "22119": "decay",
  "14247": "stage",
  "5025": "stopped",
  "14104": "twelve",
  "2307": "compet",
  "4265": "ota",
  "35381": "coefficient",
  "34384": "sided",
  "39716": "wil",
  "23813": "xon",
  "43027": "rank",
  "4511": "highest",
  "12085": "significance",
  "22919": "reproduce",
  "33300": "649",
  "13466": "best",
  "7592": "lation",
  "14367": "std",
  "24762": "âľĵ",
  "9225": "79",
  "25948": "161",
  "14183": "attributed",
  "19849": "model",
  "6939": "realized",
  "19299": "yields",
  "29754": "enhancements",
  "2649": "ification",
  "7796": "pushing",
  "19787": "noticeable",
  "5969": "fixed",
  "2388": "0000",
  "10820": "noting",
  "9944": "solely",
  "15565": "implies",
  "27": "<",
  "17896": "dc",
  "27237": "norm",
  "970": "ool",
  "42781": "avg",
  "34229": "454",
  "20370": "333",
  "27800": "287",
  "38380": "463",
  "9166": "71",
  "37397": "680",
  "31952": "398",
  "47325": "699",
  "30610": "768",
  "27641": "5000",
  "37680": "657",
  "28872": "241",
  "18294": "148",
  "26660": "243",
  "29211": "336",
  "1245": "effect",
  "3606": "crim",
  "5023": "unlike",
  "34140": "imagining",
  "2112": "discuss",
  "5879": "prove",
  "30473": "designed",
  "16293": "pronounced",
  "17592": "prone",
  "17341": "surpass",
  "7577": "colors",
  "3387": "please",
  "30602": "ooming",
  "22363": "clearer",
  "13318": "altogether",
  "4156": "apparent",
  "6688": "explains",
  "2952": "quickly",
  "4197": "fit",
  "18282": "clarify",
  "15174": "prevents",
  "14084": "strictly",
  "1554": "hist",
  "21857": "ogram",
  "10758": "bold",
  "10837": "lined",
  "44762": "pooled",
  "21599": "156",
  "27508": "exhibits",
  "23660": "realizes",
  "26883": "superiority",
  "4838": "closed",
  "26268": "loop",
  "10907": "expense",
  "12462": "floating",
  "2704": "fl",
  "2840": "ops",
  "19114": "alignment",
  "36680": "702",
  "6018": "arrow",
  "25223": "balances",
  "10162": "mirror",
  "18398": "partition",
  "24194": "inspired",
  "2391": "simply",
  "10925": "deserve",
  "29900": "undergone",
  "18043": "offline",
  "49659": "relevant",
  "6216": "confirm",
  "8766": "formal",
  "12857": "editing",
  "20865": "supervision",
  "8537": "chat",
  "5798": "responsibility",
  "9207": "publication",
  "17240": "finan",
  "48182": "acknowledgment",
  "12387": "partially",
  "9650": "otion",
  "47730": "disabled",
  "21643": "137",
  "15187": "140",
  "1557": "iqu",
  "14908": "awa",
  "15026": "mush",
  "5978": "olt",
  "48207": "392",
  "21844": "401",
  "48555": "729",
  "32370": "elman",
  "700": "urn",
  "32452": "agar",
  "40864": "axter",
  "1694": "ister",
  "11882": "erer",
  "1278": "gl",
  "40088": "etter",
  "5935": "egg",
  "10381": "utter",
  "15601": "burg",
  "2613": "ball",
  "37710": "391",
  "9174": "hung",
  "30273": "013",
  "3400": "aly",
  "735": "ock",
  "34659": "afer",
  "2376": "lo",
  "7643": "03",
  "2304": "isc",
  "12035": "heal",
  "18302": "pres",
  "14344": "erving",
  "31412": "factor",
  "22393": "angled",
  "13821": "izable",
  "5988": "alt",
  "14875": "hammad",
  "47840": "aiman",
  "38790": "jri",
  "2044": "cher",
  "48564": "681",
  "38147": "276",
  "22567": "209",
  "21229": "squeeze",
  "2859": "exc",
  "3780": "itation",
  "6457": "izz",
  "12079": "owski",
  "5634": "olved",
  "32544": "238",
  "6201": "aze",
  "30010": "omez",
  "5847": "iser",
  "20079": "hin",
  "10129": "deny",
  "37466": "656",
  "35698": "informed",
  "21626": "249",
  "18182": "225",
  "22124": "revis",
  "33967": "cv",
  "15136": "119",
  "518": "ue",
  "557": "ire",
  "6597": "audio",
  "3857": "rob",
  "4072": "emb",
  "626": "vel",
  "39236": "amar",
  "22281": "quez",
  "6966": "cos",
  "3076": "hor",
  "17455": "guided",
  "29693": "repetition",
  "14580": "reflection",
  "35273": "351",
  "38652": "474",
  "41194": "exc",
  "19924": "132",
  "23756": "141",
  "6909": "awa",
  "25308": "isch",
  "41369": "prototyp",
  "35764": "cci",
  "17053": "asi",
  "27830": "domain",
  "11939": "completion",
  "20049": "primitive",
  "4793": "2006",
  "50242": "794",
  "43564": "803",
  "20655": "elines",
  "50038": "436",
  "43489": "445",
  "8270": "ille",
  "45086": "hypers",
  "1456": "here",
  "19637": "verification",
  "14932": "rus",
  "10465": "iens",
  "2371": "inton",
  "1650": "sit",
  "41158": "aram",
  "38836": "pas",
  "13255": "qual",
  "17631": "otto",
  "2822": "buy",
  "36590": "tur",
  "49006": "oglu",
  "5733": "ano",
  "3029": "itiz",
  "2955": "behav",
  "38249": "269",
  "26502": "won",
  "17792": "cha",
  "26615": "haw",
  "1015": "ave",
  "27446": "eph",
  "14813": "than",
  "43573": "hak",
  "6381": "dis",
  "10102": "ila",
  "8847": "ras",
  "1211": "orn",
  "35943": "task",
  "45029": "illiter",
  "7933": "gra",
  "2784": "consum",
  "19356": "harness",
  "9892": "dy",
  "12236": "aha",
  "16548": "ayed",
  "25045": "mans",
  "13923": "witnessed",
  "4245": "burn",
  "2814": "exam",
  "43165": "grading",
  "5682": "homes",
  "8452": "surveillance",
  "2422": "military",
  "38228": "revolves",
  "12414": "observe",
  "31198": "prominence",
  "25145": "agnetic",
  "5276": "cel",
  "21486": "gy",
  "29982": "scope",
  "16083": "traditionally",
  "11228": "gathering",
  "2418": "necess",
  "13939": "itated",
  "23436": "incurred",
  "20981": "atches",
  "15111": "rendered",
  "10935": "affordable",
  "33488": "commonplace",
  "31649": "regrett",
  "39144": "facet",
  "5154": "gment",
  "32121": "utilization",
  "11510": "rac",
  "30304": "informative",
  "10367": "formance",
  "6007": "capable",
  "4327": "tend",
  "7525": "primarily",
  "32270": "arger",
  "20823": "extensively",
  "10747": "landscape",
  "6427": "passing",
  "26211": "workload",
  "5722": "icted",
  "32556": "imbalance",
  "20736": "predominantly",
  "35010": "simplistic",
  "9894": "failing",
  "38356": "contextual",
  "7379": "unw",
  "47940": "arranted",
  "39754": "primary",
  "35268": "pertinent",
  "2455": "ribut",
  "15252": "object",
  "22486": "balancing",
  "15234": "prov",
  "45273": "juxtap",
  "17201": "liter",
  "15676": "summar",
  "25249": "background",
  "39130": "delve",
  "10753": "overs",
  "8288": "liked",
  "6800": "iments",
  "43420": "results",
  "12956": "encountered",
  "12027": "itate",
  "5182": "trend",
  "5482": "gar",
  "20995": "-,",
  "12852": "orientation",
  "2004": "ged",
  "6793": "delivered",
  "39509": "776",
  "32118": "343",
  "1214": "ross",
  "1886": "aged",
  "2207": "enc",
  "9409": "isd",
  "2373": "apt",
  "3663": "opportunity",
  "10365": "opp",
  "18342": "gesture",
  "12609": "lected",
  "39958": "sanitation",
  "29059": "478",
  "1269": "opp",
  "13630": "delivering",
  "42980": "882",
  "21854": "prevalent",
  "6282": "creation",
  "21064": "appro",
  "49164": "casc",
  "4980": "ading",
  "42008": "uci",
  "38907": "578",
  "38905": "585",
  "29558": "263",
  "4387": "largest",
  "12420": "residential",
  "18512": "synthetic",
  "9137": "minority",
  "1883": "ination",
  "27824": "367",
  "7173": "closely",
  "28567": "355",
  "624": "ick",
  "39555": "interpol",
  "22474": "were",
  "29824": "inert",
  "22068": "arises",
  "20427": "balance",
  "1247": "cent",
  "2340": "ids",
  "14184": "dupl",
  "12364": "icating",
  "6195": "sole",
  "6587": "hetic",
  "14051": "operates",
  "10338": "differently",
  "6974": "merely",
  "9532": "encing",
  "20415": "sequently",
  "26934": "nominal",
  "18360": "lb",
  "9717": "lad",
  "38768": "adas",
  "1403": "ample",
  "33567": "ynt",
  "6615": "lines",
  "38422": "borderline",
  "24983": "synthes",
  "38709": "resolves",
  "30940": "avoids",
  "33181": "incorporates",
  "13907": "rox",
  "1920": "imate",
  "23202": "converting",
  "17519": "formats",
  "38382": "ingestion",
  "19088": "subjective",
  "11766": "pert",
  "3575": "oper",
  "48473": "multiplication",
  "13284": "subt",
  "7861": "raction",
  "8209": "engage",
  "18224": "error",
  "9027": "expectations",
  "15550": "accommodate",
  "38185": "rounding",
  "3157": "lying",
  "36426": "manageable",
  "4674": "itable",
  "23696": "analytics",
  "18046": "irrelevant",
  "15254": "eliminated",
  "19086": "priorit",
  "32525": "ridge",
  "33161": "mathematic",
  "1547": "ians",
  "15268": "shapes",
  "23607": "loops",
  "3097": "ysis",
  "19459": "rooted",
  "4901": "belief",
  "40693": "qualitative",
  "1040": "ins",
  "2337": "ights",
  "20930": "analysis",
  "35601": "enriched",
  "1257": "fun",
  "2715": "ctor",
  "39774": "cornerstone",
  "16218": "persistent",
  "30802": "persistence",
  "7951": "void",
  "10421": "holes",
  "15114": "clouds",
  "6652": "icial",
  "19794": "compression",
  "25388": "compressed",
  "9721": "overwhelming",
  "22609": "rob",
  "436": "ust",
  "16340": "inv",
  "25275": "invari",
  "43370": "skew",
  "7429": "answers",
  "10911": "equipped",
  "19276": "pers",
  "13274": "istence",
  "4082": "birth",
  "1918": "death",
  "11463": "apper",
  "10317": "lens",
  "36045": "facilitating",
  "4388": "successful",
  "8094": "group",
  "11635": "pin",
  "29909": "folding",
  "9296": "breast",
  "9779": "gene",
  "5408": "expression",
  "6412": "referred",
  "3552": "olute",
  "39504": "minimum",
  "13013": "accomplished",
  "34128": "subtract",
  "20208": "minus",
  "46094": "adjusts",
  "3890": "ribution",
  "20307": "standard",
  "13586": "replacing",
  "30738": "resilient",
  "36008": "quart",
  "25067": "percent",
  "10361": "utility",
  "3684": "unf",
  "26401": "forefront",
  "6754": "historical",
  "27530": "models",
  "7249": "struct",
  "25614": "linked",
  "17451": "continually",
  "24571": "their",
  "3505": "remember",
  "16550": "enh",
  "35915": "comprehension",
  "16311": "sequences",
  "38562": "consolidate",
  "5198": "appeal",
  "432": "ight",
  "20475": "bm",
  "39521": "boost",
  "22103": "boasts",
  "6131": "bag",
  "15740": "proceeds",
  "9088": "copies",
  "10034": "hist",
  "31722": "particularly",
  "742": "xt",
  "21543": "instrumental",
  "10098": "collective",
  "11501": "wisdom",
  "22024": "discern",
  "48929": "gru",
  "11750": "ilst",
  "15304": "variant",
  "11283": "counterpart",
  "4466": "budget",
  "13062": "bears",
  "20594": "similarities",
  "9593": "featuring",
  "6044": "forget",
  "22848": "gru",
  "39673": "streamlined",
  "27070": "architectural",
  "37295": "direction",
  "20825": "cater",
  "7736": "util",
  "8534": "front",
  "10143": "fails",
  "8139": "umes",
  "17397": "divisions",
  "4612": "inct",
  "35366": "erroneous",
  "5772": "param",
  "45574": "predetermined",
  "17596": "exert",
  "6406": "illust",
  "10762": "deemed",
  "38654": "itates",
  "5132": "orial",
  "17021": "proves",
  "39512": "advantageous",
  "24642": "culmin",
  "32652": "encaps",
  "13770": "thoroughly",
  "6302": "ounded",
  "29543": "ensuing",
  "18229": "sourced",
  "38072": "repositories",
  "21315": "208",
  "15274": "rows",
  "7220": "user",
  "27823": "estamp",
  "44065": "walking",
  "30853": "ogging",
  "5646": "standing",
  "17617": "stairs",
  "2902": "down",
  "35846": "sampled",
  "19286": "android",
  "11661": "volunteers",
  "9337": "ages",
  "30136": "amsung",
  "16161": "galaxy",
  "19411": "android",
  "8369": "aying",
  "19171": "allocated",
  "27432": "train",
  "43551": "folder",
  "9288": "test",
  "33394": "352",
  "40890": "features",
  "3891": "names",
  "14116": "txt",
  "9708": "phones",
  "9037": "static",
  "5586": "sitting",
  "5055": "standing",
  "9105": "lying",
  "6155": "walking",
  "34624": "downstairs",
  "26148": "upstairs",
  "43616": "sem",
  "18788": "proceeding",
  "14997": "crashed",
  "13529": "consumed",
  "21899": "crashing",
  "22579": "299",
  "49489": "546",
  "5752": "row",
  "31677": "vertically",
  "41228": "stacking",
  "2350": "ique",
  "10295": "mn",
  "10069": "reveals",
  "14024": "seventh",
  "22105": "record",
  "6098": "cr",
  "7014": "crash",
  "3763": "yes",
  "27345": "asu",
  "4926": "pport",
  "5193": "nine",
  "5009": "views",
  "39279": "normalized",
  "10985": "bott",
  "43163": "leneck",
  "24929": "asser",
  "41701": "bins",
  "1746": "ands",
  "10223": "pace",
  "13495": "igma",
  "25080": "heat",
  "18217": "sil",
  "5857": "ette",
  "13617": "cub",
  "42665": "complexes",
  "10869": "lifetime",
  "27537": "discard",
  "18188": "attain",
  "16524": "tuned",
  "45240": "tions",
  "4844": "none",
  "8781": "lets",
  "10353": "repre",
  "5458": "section",
  "13044": "leak",
  "35759": "yre",
  "17759": "256",
  "27172": "flatt",
  "28119": "1024",
  "22570": "zero",
  "14857": "emin",
  "25208": "Â½",
  "9006": "emed",
  "12409": "orical",
  "29315": "experimentation",
  "7646": "strict",
  "14895": "assumptions",
  "44353": "consider",
  "4598": "do",
  "26585": "performance",
  "36883": "scripting",
  "32152": "umpy",
  "29487": "plot",
  "8019": "lib",
  "23108": "none",
  "28665": "column",
  "8733": "restrictions",
  "46761": "771",
  "46815": "901",
  "40022": "980",
  "50119": "951",
  "35549": "911",
  "49649": "953",
  "48894": "916",
  "45039": "860",
  "48712": "896",
  "49702": "ported",
  "34808": "998",
  "39647": "997",
  "21179": "keyword",
  "4328": "spl",
  "1967": "itter",
  "2": "#",
  "36213": "aler",
  "14784": "etc",
  "12893": "overl",
  "6570": "aph",
  "1739": "ued",
  "23753": "247",
  "29326": "017",
  "43864": "672",
  "21652": "185",
  "50049": "041",
  "31115": "448",
  "38783": "483",
  "44169": "589",
  "31360": "875",
  "29796": "586",
  "43240": "798",
  "24038": "707",
  "23516": "239",
  "41292": "598",
  "27988": "276",
  "38314": "759",
  "31046": "555",
  "22337": "198",
  "41813": "643",
  "26598": "405",
  "12865": "900",
  "25272": "196",
  "32128": "376",
  "44928": "905",
  "35978": "685",
  "23195": "275",
  "34251": "486",
  "33032": "457",
  "38819": "969",
  "44675": "909",
  "9536": "dem",
  "33438": "995",
  "41561": "992",
  "45064": "showcases",
  "38565": "996",
  "1164": "ield",
  "32196": "978",
  "33646": "488",
  "31027": "950",
  "32869": "704",
  "22042": "131",
  "18742": "155",
  "29769": "389",
  "35402": "706",
  "19708": "137",
  "36260": "498",
  "32220": "387",
  "48156": "792",
  "16945": "133",
  "30120": "407",
  "26704": "625",
  "12762": "128",
  "47159": "661",
  "37747": "496",
  "32459": "366",
  "26492": "191",
  "34137": "484",
  "40393": "779",
  "41289": "491",
  "22413": "177",
  "30695": "378",
  "44230": "885",
  "27037": "016",
  "31980": "607",
  "35500": "1024",
  "43697": "551",
  "41060": "796",
  "39251": "757",
  "25399": "173",
  "27371": "349",
  "48581": "949",
  "42520": "989",
  "44183": "987",
  "50148": "956",
  "3624": "eight",
  "44821": "993",
  "30749": "ieving",
  "49503": "815",
  "43916": "730",
  "44093": "899",
  "5912": "apping",
  "38339": "471",
  "39380": "662",
  "35435": "476",
  "36879": "665",
  "38956": "968",
  "33981": "647",
  "37452": "576",
  "15426": "750",
  "45758": "673",
  "38073": "497",
  "25710": "295",
  "30803": "369",
  "29703": "406",
  "27412": "368",
  "35844": "690",
  "40486": "558",
  "32417": "605",
  "28011": "888",
  "38205": "696",
  "43571": "772",
  "39111": "654",
  "46871": "773",
  "37950": "1978",
  "33372": "397",
  "42759": "641",
  "33319": "353",
  "17430": "175",
  "24760": "365",
  "45734": "596",
  "29807": "272",
  "32321": "392",
  "43134": "493",
  "29334": "458",
  "32182": "354",
  "39710": "441",
  "36809": "703",
  "40271": "481",
  "26279": "285",
  "1787": "pot",
  "32319": "ranging",
  "26508": "assisting",
  "9684": "populations",
  "699": "ious",
  "28071": "percentages",
  "1749": "ories",
  "40077": "ometers",
  "27561": "depicting",
  "48036": "locality",
  "23866": "favors",
  "23682": "successes",
  "8889": "absence",
  "27915": "uristic",
  "22913": "194",
  "5718": "aine",
  "10287": "les",
  "23185": "haw",
  "591": "ks",
  "31552": "403",
  "48382": "qs",
  "27126": "essays",
  "32637": "323",
  "8042": "iary",
  "24263": "orf",
  "6391": "hew",
  "1017": "sl",
  "8356": "aws",
  "25541": "choice",
  "6341": "banks",
  "9710": "obst",
  "13041": "caution",
  "13713": "enna",
  "31707": "nosis",
  "9189": "adi",
  "45094": "aban",
  "3664": "sal",
  "7341": "suicide",
  "12665": "tweets",
  "45916": "handwritten",
  "27673": "hp",
  "34589": "jee",
  "24621": "gestures",
  "2799": "urd",
  "37035": "hate",
  "13154": "ride",
  "12769": "rin",
  "38630": "ivas",
  "35436": "pain",
  "2762": "ruction",
  "23734": "380",
  "18320": "iker",
  "19215": "ifa",
  "522": "ike",
  "37325": "ahar",
  "7544": "ju",
  "16007": "drill",
  "29728": "mounted",
  "776": "ath",
  "18092": "ernandez",
  "4188": "que",
  "1670": "arm",
  "5799": "ora",
  "25982": "workshops",
  "36020": "dm",
  "4496": "za",
  "4741": "arant",
  "43524": "onis",
  "22931": "ayan",
  "1842": "love",
  "897": "ax",
  "18907": "ambul",
  "20808": "opez",
  "13038": "vo",
  "16111": "illo",
  "14870": "uez",
  "9172": "behaviour",
  "35447": "363",
  "3600": "bud",
  "8516": "rows",
  "26711": "prostate",
  "14839": "aqu",
  "3361": "omp",
  "26355": "logistics",
  "22995": "245",
  "22149": "alez",
  "7850": "river",
  "2436": "bl",
  "47699": "anco",
  "6042": "life",
  "34294": "2200",
  "34125": "317",
  "41785": "multit",
  "22980": "265",
  "5612": "isation",
  "49211": "568",
  "34218": "cunning",
  "13427": "acceptance",
  "5496": "diet",
  "9613": "una",
  "1067": "cr",
  "35509": "addock",
  "16558": "sphere",
  "44673": "797",
  "17899": "hor",
  "10868": "picking",
  "17983": "amel",
  "12183": "rib",
  "27108": "hair",
  "9563": "bow",
  "9860": "yer",
  "48794": "meyer",
  "6244": "2002",
  "36453": "321",
  "2255": "dou",
  "26514": "377",
  "6788": "cooper",
  "2401": "dom",
  "10573": "ammed",
  "3435": "characters",
  "33916": "324",
  "44429": "pas",
  "42721": "rm",
  "10663": "semi",
  "37800": "automatic",
  "2369": "mot",
  "7795": "1998",
  "25791": "atel",
  "22472": "arrison",
  "19291": "reiter",
  "962": "ank",
  "10045": "ige",
  "26605": "ba",
  "9618": "iley",
  "38151": "pric",
  "23503": "pac",
  "20254": "rim",
  "7051": "coast",
  "19048": "117",
  "18605": "mol",
  "894": "bel",
  "6362": "anche",
  "28141": "Ãł",
  "37255": "306",
  "18173": "uler",
  "37749": "atis",
  "2912": "comment",
  "15574": "academ",
  "33100": "iae",
  "12571": "iar",
  "1773": "rop",
  "16528": "sson",
  "13578": "stock",
  "29112": "twentieth",
  "10558": "symp",
  "43292": "347",
  "11106": "oli",
  "35904": "bg",
  "31": "@",
  "11063": "euro",
  "11549": "raphics",
  "49191": "licks",
  "24432": "groups",
  "26789": "similarity",
  "4779": "transl",
  "35592": "311",
  "22985": "174",
  "9200": "nic",
  "23145": "lev",
  "25217": "cancers",
  "9441": "survival",
  "945": "ars",
  "9689": "scoring",
  "28738": "lime",
  "7114": "vin",
  "23013": "oi",
  "2844": "veh",
  "18444": "144",
  "2382": "amer",
  "37721": "ultrasound",
  "46250": "671",
  "45314": "gorilla",
  "6553": "troops",
  "36545": "ns",
  "28745": "amd",
  "1814": "fund",
  "15539": "cycl",
  "3930": "aby",
  "5650": "gay",
  "18647": "hart",
  "2341": "sus",
  "17488": "morph",
  "20603": "cad",
  "30362": "verte",
  "24427": "bral",
  "31155": "tumors",
  "41268": "gat",
  "25096": "186",
  "28256": "805",
  "22556": "yy",
  "20142": "gomery",
  "30736": "dc",
  "1705": "news",
  "5013": "uit",
  "27206": "eto",
  "8505": "yes",
  "42768": "mah",
  "10280": "infection",
  "7749": "inem",
  "39209": "synerg",
  "48111": "yi",
  "2501": "alt",
  "9401": "imore",
  "7968": "county",
  "3265": "population",
  "26234": "spinal",
  "15050": "cord",
  "21871": "jury",
  "10404": "independence",
  "38853": "compromises",
  "34666": "critical",
  "20480": "achine",
  "25646": "restoring",
  "2712": "playing",
  "3638": "touch",
  "15159": "propri",
  "32056": "253",
  "31088": "groundbreaking",
  "4721": "opened",
  "30757": "stroke",
  "17062": "irs",
  "7616": "trigger",
  "8071": "pat",
  "35459": "reorgan",
  "7719": "promote",
  "44810": "underscore",
  "1683": "ever",
  "17648": "obstacles",
  "22194": "possesses",
  "2299": "compl",
  "1563": "oint",
  "32558": "angular",
  "11555": "vel",
  "42193": "synergy",
  "44405": "dexter",
  "22866": "context",
  "47711": "paving",
  "24039": "joints",
  "10986": "investigations",
  "21084": "move",
  "35360": "254",
  "29483": "strokes",
  "14352": "acute",
  "23476": "diminished",
  "15010": "establishing",
  "35290": "unaffected",
  "39007": "modulation",
  "36633": "hurdle",
  "22602": "util",
  "43129": "individual",
  "10835": "males",
  "13180": "grasp",
  "1660": "water",
  "9294": "bottle",
  "42893": "bracelet",
  "20841": "downward",
  "21337": "indicators",
  "4385": "supposed",
  "2982": "heard",
  "9688": "start",
  "11338": "stop",
  "22711": "suppression",
  "28585": "repetitive",
  "26633": "swallow",
  "15009": "excluded",
  "14280": "255",
  "23205": "love",
  "2522": "oph",
  "15683": "thumb",
  "14793": "prox",
  "21587": "ietal",
  "33154": "sul",
  "9042": "cus",
  "13857": "mediate",
  "33169": "hemisphere",
  "847": "other",
  "4247": "asion",
  "451": "ear",
  "17936": "thirds",
  "22577": "differential",
  "18333": "angles",
  "43714": "hypothesized",
  "32578": "referencing",
  "23528": "tro",
  "20216": "racted",
  "36654": "broad",
  "5126": "asp",
  "2946": "hold",
  "23515": "ulus",
  "39529": "rogram",
  "10599": "rot",
  "27075": "widow",
  "16441": "envelop",
  "20268": "dy",
  "18127": "amic",
  "28282": "ranked",
  "7321": "acter",
  "43775": "weights",
  "48476": "sth",
  "16242": "structed",
  "9043": "oded",
  "34006": "asured",
  "9945": "db",
  "36100": "257",
  "5768": "ulations",
  "36653": "changes",
  "1253": "incre",
  "25446": "settling",
  "4769": "holding",
  "14796": "ilateral",
  "21243": "versely",
  "39707": "ilaterally",
  "24537": "bilateral",
  "9066": "displayed",
  "15313": "exceptional",
  "26591": "alpha",
  "37528": "258",
  "47060": "deviations",
  "43684": "settles",
  "37831": "259",
  "19617": "coding",
  "15432": "velocity",
  "28483": "gam",
  "44342": "illus",
  "4111": "rated",
  "20134": "traject",
  "50003": "dexterity",
  "21392": "compensate",
  "7656": "oding",
  "11398": "pink",
  "37901": "dashed",
  "5858": "ring",
  "21148": "260",
  "9573": "diversity",
  "3384": "ut",
  "8468": "unusual",
  "11747": "forb",
  "35258": "lesions",
  "1691": "eral",
  "27452": "retains",
  "1914": "urther",
  "16957": "medi",
  "40288": "impacting",
  "9836": "compensation",
  "14900": "inclusion",
  "6593": "practices",
  "47112": "romising",
  "11560": "promoting",
  "14329": "contributing",
  "47293": "letal",
  "16793": "target",
  "22625": "contributes",
  "41278": "eeper",
  "22588": "intric",
  "15019": "struction",
  "43835": "ape",
  "18089": "utic",
  "39166": "261",
  "20161": "pine",
  "3266": "ube",
  "15223": "preliminary",
  "8376": "ults",
  "7204": "ko",
  "9045": "iry",
  "14830": "turb",
  "24484": "bush",
  "9255": "enter",
  "30539": "bart",
  "25655": "sor",
  "11020": "oker",
  "39684": "correlate",
  "1133": "ute",
  "4873": "rate",
  "2065": "hod",
  "13021": "airy",
  "11181": "bet",
  "13602": "mid",
  "12702": "bass",
  "7109": "dr",
  "25487": "elic",
  "15727": "lasting",
  "8702": "04",
  "36073": "ikk",
  "20246": "burns",
  "2852": "oul",
  "16869": "hem",
  "2876": "ste",
  "4489": "vill",
  "47785": "519",
  "7365": "bat",
  "34870": "humanoid",
  "45213": "sg",
  "43021": "wk",
  "3686": "urg",
  "1379": "bro",
  "23773": "etz",
  "48029": "bras",
  "3655": "liber",
  "45579": "yz",
  "10726": "chronic",
  "23126": "topp",
  "12375": "otta",
  "31822": "boosts",
  "9001": "regulation",
  "15904": "1967",
  "27796": "ovy",
  "12536": "bases",
  "49087": "986",
  "26334": "predicts",
  "19244": "121",
  "6236": "bur",
  "17187": "nik",
  "1638": "idd",
  "22942": "trajectory",
  "48952": "591",
  "31911": "449",
  "4267": "ios",
  "10819": "quer",
  "14163": "otos",
  "20364": "anchez",
  "46441": "icio",
  "5862": "discl",
  "4629": "oses",
  "36571": "mech",
  "6583": "isms",
  "22544": "005",
  "35404": "262",
  "48863": "Ã¶n",
  "12618": "rup",
  "7750": "kel",
  "37314": "ulz",
  "9096": "heim",
  "30315": "alla",
  "8530": "butt",
  "27693": "289",
  "10484": "rush",
  "22922": "bog",
  "17215": "ovic",
  "40645": "hews",
  "9114": "pm",
  "4199": "prem",
  "5515": "fif",
  "43898": "arya",
  "39601": "benz",
  "36076": "coarse",
  "12204": "roc",
  "24940": "236",
  "4491": "mor",
  "48055": "jc",
  "5691": "alls",
  "48619": "blow",
  "22545": "omical",
  "15671": "cra",
  "3493": "acher",
  "33480": "mk",
  "45166": "oresc",
  "5032": "skill",
  "10853": "gly",
  "3631": "opin",
  "27936": "315",
  "3643": "orge",
  "7780": "erm",
  "31403": "immersive",
  "7442": "case",
  "39135": "263",
  "48342": "jog",
  "16017": "liv",
  "11464": "rice",
  "13554": "icut",
  "14339": "completing",
  "32215": "2050",
  "4485": "rise",
  "25993": "symptom",
  "13806": "erto",
  "2787": "rem",
  "11970": "urable",
  "15147": "ogenic",
  "17407": "redict",
  "30458": "lifespan",
  "47356": "diagn",
  "13870": "habits",
  "13730": "omatic",
  "47367": "clinical",
  "45852": "served",
  "3500": "using",
  "6554": "agents",
  "1573": "word",
  "10316": "reek",
  "22538": "205",
  "35031": "medically",
  "10924": "ois",
  "3111": "worked",
  "19906": "psychiatric",
  "2206": "deter",
  "19407": "displaying",
  "17211": "behavioral",
  "6776": "alive",
  "46515": "mortem",
  "35594": "fts",
  "20533": "landmark",
  "7522": "honor",
  "33115": "coined",
  "31953": "1910",
  "47436": "been",
  "928": "olog",
  "37305": "examinations",
  "40572": "pathology",
  "8752": "naturally",
  "34826": "precursor",
  "13874": "gly",
  "22163": "cop",
  "35574": "rotein",
  "598": "app",
  "9586": "aved",
  "3200": "secret",
  "3080": "aves",
  "27255": "derivative",
  "21078": "secret",
  "34337": "pept",
  "33757": "avage",
  "4693": "species",
  "9233": "secondary",
  "8401": "udes",
  "15747": "sheets",
  "14150": "have",
  "14659": "chains",
  "20803": "obic",
  "4487": "ils",
  "18190": "deposits",
  "18681": "explanations",
  "25908": "ogenesis",
  "14078": "hypothesis",
  "18251": "aque",
  "27253": "206",
  "35127": "plaque",
  "2716": "released",
  "13396": "si",
  "47457": "bis",
  "29738": "drained",
  "42306": "pathological",
  "19737": "metabolic",
  "17788": "lowered",
  "40502": "buildup",
  "8358": "que",
  "44847": "cascade",
  "20807": "genetically",
  "10693": "mice",
  "48676": "intrinsically",
  "11422": "toxic",
  "46679": "synaptic",
  "8117": "there",
  "3507": "osition",
  "2261": "ule",
  "7877": "ax",
  "41896": "ilic",
  "26237": "prefers",
  "34660": "unfolded",
  "6345": "icing",
  "47279": "iso",
  "20394": "repeating",
  "28003": "adulthood",
  "9456": "maintained",
  "10474": "assembly",
  "27104": "cyt",
  "20996": "onal",
  "4839": "transport",
  "6978": "path",
  "23156": "rites",
  "7512": "apse",
  "46015": "ritic",
  "14222": "osph",
  "17249": "lated",
  "7784": "bound",
  "7906": "spin",
  "32963": "aptic",
  "14856": "ul",
  "3358": "imately",
  "16217": "immun",
  "37074": "ochemistry",
  "31759": "reproduced",
  "27791": "207",
  "12765": "binding",
  "12202": "tub",
  "11599": "ulin",
  "13096": "modify",
  "18431": "phosph",
  "10773": "tob",
  "15140": "semble",
  "41604": "degraded",
  "20062": "concentrate",
  "927": "stem",
  "17751": "nucle",
  "5925": "substant",
  "44873": "nig",
  "1179": "loc",
  "31255": "coer",
  "48240": "impact",
  "13973": "triggered",
  "25174": "acet",
  "39474": "regulates",
  "25079": "turnover",
  "8555": "preced",
  "21068": "promotes",
  "35186": "residue",
  "35831": "insol",
  "26664": "uble",
  "32874": "interfering",
  "19513": "uced",
  "17408": "receptor",
  "44377": "cking",
  "20099": "receptors",
  "25822": "suppressed",
  "49229": "hyper",
  "23253": "acet",
  "28639": "oft",
  "49467": "soluble",
  "15760": "clinic",
  "19458": "oped",
  "9572": "intervention",
  "46436": "posit",
  "25592": "emission",
  "11445": "1950",
  "25521": "radioactive",
  "49908": "acers",
  "11736": "acer",
  "33449": "anatomy",
  "23536": "oxy",
  "15701": "glucose",
  "16344": "fd",
  "25077": "injected",
  "28660": "scanned",
  "24823": "rays",
  "592": "ays",
  "48764": "leasing",
  "12212": "rons",
  "28722": "electrons",
  "9106": "gam",
  "2825": "phot",
  "24705": "ipl",
  "12403": "tube",
  "5081": "stated",
  "44995": "hallmark",
  "6646": "necessarily",
  "20312": "paired",
  "6464": "receiving",
  "1711": "hour",
  "5668": "completed",
  "10241": "pregnancy",
  "32613": "breastfeeding",
  "10081": "sed",
  "19711": "accommodation",
  "11064": "abetes",
  "10527": "mg",
  "44092": "might",
  "19936": "discontin",
  "37004": "radio",
  "5275": "active",
  "29915": "accumulate",
  "25433": "mil",
  "8717": "aus",
  "18116": "anxious",
  "7530": "scheduled",
  "43071": "stren",
  "5623": "uous",
  "1110": "day",
  "12097": "tension",
  "35340": "uptake",
  "10742": "dose",
  "5457": "possibly",
  "6666": "causing",
  "37645": "unavoidable",
  "48826": "iazep",
  "6600": "eating",
  "1293": "pri",
  "12607": "breakfast",
  "5687": "elim",
  "7543": "sugar",
  "22511": "caffeine",
  "21856": "nicotine",
  "13780": "oided",
  "26077": "cardiac",
  "15649": "oz",
  "20875": "afterward",
  "34918": "bladder",
  "46705": "emptied",
  "38976": "insure",
  "12307": "retion",
  "6565": "empty",
  "3393": "immediately",
  "29608": "wallets",
  "22634": "jewelry",
  "18135": "interfere",
  "26029": "patient",
  "4367": "noted",
  "9970": "bone",
  "20567": "pins",
  "8761": "pace",
  "6620": "makers",
  "18795": "disreg",
  "10676": "arded",
  "41893": "recl",
  "2513": "walk",
  "2524": "site",
  "28837": "lymph",
  "19905": "premature",
  "37664": "drainage",
  "28815": "209",
  "18397": "relaxed",
  "5560": "pil",
  "34794": "blankets",
  "1005": "ret",
  "2221": "begin",
  "1818": "work",
  "10337": "intake",
  "30590": "vitro",
  "30121": "dye",
  "20637": "avin",
  "18746": "stain",
  "11700": "cycl",
  "6841": "facility",
  "348": "wh",
  "12629": "amples",
  "19261": "emet",
  "22012": "anol",
  "28742": "differing",
  "33543": "compositions",
  "13370": "tic",
  "14011": "nons",
  "2330": "white",
  "2300": "matter",
  "12768": "gray",
  "5605": "arc",
  "21407": "disadvantage",
  "3616": "meaning",
  "42181": "neurot",
  "18047": "oxic",
  "45329": "ig",
  "21499": "omers",
  "2417": "yr",
  "3898": "inated",
  "6566": "phen",
  "19754": "inyl",
  "11722": "ben",
  "17890": "iaz",
  "11848": "bb",
  "964": "ever",
  "8713": "ultimate",
  "5249": "combat",
  "35757": "antibody",
  "30972": "ot",
  "30869": "antibodies",
  "13054": "barrier",
  "38363": "mediated",
  "48162": "anism",
  "11310": "antib",
  "1930": "pos",
  "11365": "itivity",
  "42947": "469",
  "7194": "sought",
  "26106": "lig",
  "1118": "ody",
  "46170": "levels",
  "41704": "inhibitor",
  "41539": "untreated",
  "16921": "vid",
  "48569": "viz",
  "29137": "approved",
  "12827": "challenged",
  "6225": "turning",
  "16439": "compounds",
  "28015": "mk",
  "31720": "nets",
  "19888": "positively",
  "5047": "charged",
  "1237": "prot",
  "19445": "pulse",
  "22037": "atom",
  "34714": "vivo",
  "33535": "344",
  "22796": "healthy",
  "23679": "212",
  "17669": "hydrogen",
  "48980": "phosphorus",
  "1441": "return",
  "19874": "aligned",
  "43914": "cession",
  "22960": "resembles",
  "7604": "hole",
  "16566": "lined",
  "41331": "coils",
  "35099": "transmitter",
  "9733": "receiver",
  "25661": "coil",
  "37783": "pulses",
  "21379": "tissues",
  "23263": "abundant",
  "14587": "concentrations",
  "10645": "lip",
  "8815": "tiss",
  "794": "uch",
  "3223": "dark",
  "3735": "fat",
  "6016": "bright",
  "1409": "mov",
  "5645": "ends",
  "21822": "microphone",
  "7451": "ologist",
  "29417": "detrimental",
  "19166": "clips",
  "11894": "uter",
  "3979": "akers",
  "40740": "implanted",
  "8218": "entering",
  "43332": "heter",
  "18846": "inserted",
  "31856": "allergic",
  "12737": "reactions",
  "39469": "contrasts",
  "4071": "rare",
  "7465": "ashes",
  "8033": "breath",
  "23802": "mediately",
  "6486": "lie",
  "27474": "scanner",
  "18631": "bore",
  "21032": "upwards",
  "23671": "blur",
  "7812": "loud",
  "25218": "umping",
  "26782": "noises",
  "30598": "intermitt",
  "28629": "currents",
  "10339": "ugs",
  "30665": "obia",
  "8208": "twenty",
  "2652": "stay",
  "3252": "fear",
  "6864": "oral",
  "15290": "mock",
  "11636": "speakers",
  "19072": "interrupted",
  "15765": "restart",
  "1571": "ending",
  "36620": "acquainted",
  "28658": "213",
  "17504": "restriction",
  "2057": "food",
  "3514": "danger",
  "10423": "pregnant",
  "7090": "medium",
  "23793": "gad",
  "7545": "milk",
  "9579": "through",
  "11903": "babies",
  "8635": "afe",
  "1310": "little",
  "34205": "relaxation",
  "19493": "spinning",
  "36211": "longitudinal",
  "38694": "milliseconds",
  "4399": "verse",
  "39706": "spin",
  "49638": "agents",
  "45381": "shorten",
  "40038": "leng",
  "17169": "administered",
  "47311": "orally",
  "45840": "intraven",
  "39270": "ions",
  "6953": "iron",
  "30788": "oxide",
  "2589": "moment",
  "1030": "gan",
  "2771": "ese",
  "47799": "intensity",
  "8607": "era",
  "28469": "metal",
  "28152": "toxicity",
  "37056": "salts",
  "17173": "hydro",
  "15511": "hyd",
  "14383": "liver",
  "20042": "leen",
  "45573": "problem",
  "7069": "harder",
  "17565": "absorb",
  "13181": "excessive",
  "28277": "214",
  "11572": "bol",
  "12057": "omer",
  "46661": "nanop",
  "20205": "article",
  "26845": "articles",
  "10211": "mouse",
  "3073": "looks",
  "38516": "genic",
  "41093": "rodents",
  "4295": "wild",
  "50074": "rodent",
  "32553": "deposition",
  "21546": "therapeutic",
  "7585": "delivery",
  "12860": "show",
  "18268": "induced",
  "42846": "protection",
  "9339": "esis",
  "6475": "amm",
  "45124": "functional",
  "33549": "synth",
  "6024": "pg",
  "17795": "linking",
  "25481": "robe",
  "11644": "conj",
  "26776": "inhibit",
  "37089": "angan",
  "6617": "proof",
  "39081": "administ",
  "10822": "targeting",
  "6339": "route",
  "6468": "ast",
  "37761": "esting",
  "13456": "experiencing",
  "1068": "ered",
  "18922": "urine",
  "26881": "216",
  "11124": "duction",
  "44020": "interacts",
  "40757": "measurable",
  "41213": "ducers",
  "15245": "chem",
  "35414": "orescent",
  "6377": "ensity",
  "31379": "chemical",
  "47685": "biochemical",
  "3555": "reading",
  "8654": "prev",
  "16378": "costly",
  "12916": "uncomfortable",
  "2259": "cing",
  "20424": "into",
  "23371": "engineered",
  "27756": "molecule",
  "4592": "istry",
  "6317": "reaction",
  "4658": "actions",
  "3386": "forces",
  "24124": "multitude",
  "26129": "ategories",
  "27679": "enzyme",
  "34365": "sty",
  "25924": "rene",
  "36116": "beads",
  "801": "lect",
  "26692": "ps",
  "33612": "fabricated",
  "2500": "icro",
  "49773": "bead",
  "1207": "dep",
  "16074": "plasma",
  "3591": "dise",
  "6588": "carbon",
  "29080": "ubes",
  "24185": "composite",
  "48693": "protein",
  "49492": "ceptor",
  "2587": "material",
  "5254": "tests",
  "9213": "ported",
  "42255": "densely",
  "11856": "packed",
  "42463": "graphene",
  "29217": "218",
  "30453": "219",
  "49586": "stiffness",
  "33124": "probes",
  "45808": "jug",
  "32150": "complementary",
  "47602": "inventive",
  "24242": "differs",
  "10793": "mir",
  "10567": "ethe",
  "47800": "immobil",
  "15055": "triple",
  "13930": "cules",
  "37936": "diluted",
  "20502": "serum",
  "3236": "huge",
  "38706": "nano",
  "3962": "mechan",
  "17810": "horizon",
  "7621": "tag",
  "4102": "mark",
  "8122": "liquid",
  "24770": "crystals",
  "44601": "lc",
  "11007": "bind",
  "11141": "plex",
  "2577": "oe",
  "4140": "qual",
  "20028": "textures",
  "5043": "sites",
  "46469": "polarized",
  "36396": "microscope",
  "5405": "glass",
  "10649": "slide",
  "30267": "coated",
  "21610": "ethyl",
  "38441": "oct",
  "38801": "cyl",
  "44921": "chloride",
  "5908": "mo",
  "44187": "detectable",
  "23241": "pg",
  "43395": "mr",
  "28885": "oxide",
  "2794": "ayer",
  "946": "meric",
  "3098": "anti",
  "36688": "clinically",
  "22006": "tein",
  "9723": "applicable",
  "37369": "cible",
  "35902": "chip",
  "43169": "concept",
  "32969": "tandem",
  "19360": "outlook",
  "49427": "dd",
  "31566": "221",
  "5077": "ancing",
  "10966": "attractive",
  "3114": "looked",
  "19736": "markers",
  "10117": "ft",
  "2462": "ep",
  "7243": "topic",
  "14615": "deciding",
  "7453": "elig",
  "40013": "wellbeing",
  "17252": "pets",
  "14869": "shifted",
  "2068": "quick",
  "11153": "professionals",
  "12430": "mortality",
  "8871": "striking",
  "2205": "doc",
  "46053": "curing",
  "4902": "crisis",
  "15454": "founder",
  "1396": "eas",
  "47693": "biotech",
  "27795": "222",
  "3451": "career",
  "37166": "1905",
  "41172": "785",
  "20764": "dod",
  "1929": "wh",
  "28857": "274",
  "43466": "hare",
  "4607": "chem",
  "29517": "retrieved",
  "14100": "million",
  "22398": "icans",
  "19892": "older",
  "31575": "342",
  "15516": "lli",
  "3536": "ager",
  "46381": "ickson",
  "47748": "ki",
  "2809": "squ",
  "15429": "dietary",
  "44427": "033",
  "18958": "ochem",
  "2914": "arri",
  "15024": "esp",
  "46057": "pez",
  "3846": "cell",
  "15027": "puzzle",
  "18638": "204",
  "12334": "ow",
  "12574": "dun",
  "14192": "stan",
  "10994": "oids",
  "27211": "420",
  "6883": "phy",
  "31361": "beta",
  "26540": "reconsider",
  "25644": "440",
  "41734": "579",
  "1788": "intern",
  "6005": "aser",
  "34801": "705",
  "24839": "183",
  "1055": "ser",
  "46951": "870",
  "48768": "043",
  "48699": "orescence",
  "8692": "base",
  "37954": "arthritis",
  "27798": "umat",
  "48290": "083",
  "44103": "413",
  "30299": "223",
  "5816": "2003",
  "39891": "hof",
  "43979": "ls",
  "10680": "atin",
  "6019": "suppl",
  "24052": "aple",
  "6014": "abin",
  "20416": "121",
  "46054": "mats",
  "15339": "uda",
  "43193": "652",
  "46636": "421",
  "25531": "vic",
  "38572": "nen",
  "14211": "kg",
  "16564": "pic",
  "18840": "Ã³n",
  "3617": "pen",
  "8821": "rating",
  "3768": "osh",
  "18392": "engine",
  "19677": "sr",
  "8800": "bin",
  "10094": "ito",
  "37096": "tc",
  "19755": "124",
  "18784": "vide",
  "7746": "estimates",
  "8499": "after",
  "18940": "umed",
  "29142": "ibli",
  "21777": "212",
  "1721": "ault",
  "25140": "coal",
  "977": "oun",
  "18439": "auth",
  "7357": "zy",
  "18569": "opath",
  "24219": "still",
  "19820": "psychiat",
  "6450": "sand",
  "11025": "ean",
  "14068": "treasure",
  "20094": "therape",
  "8400": "fro",
  "10809": "eling",
  "7274": "iner",
  "1023": "ists",
  "14309": "reson",
  "36993": "590",
  "29617": "orth",
  "27399": "cu",
  "7582": "shell",
  "20781": "ologic",
  "48250": "635",
  "2834": "pull",
  "19167": "nursing",
  "40114": "watt",
  "40054": "anse",
  "10881": "dele",
  "10438": "van",
  "2082": "wa",
  "7190": "ped",
  "22172": "169",
  "622": "ru",
  "1145": "fam",
  "14325": "physician",
  "30005": "630",
  "48435": "perv",
  "24869": "olig",
  "15132": "ostic",
  "22745": "207",
  "9620": "lan",
  "7086": "raid",
  "45151": "725",
  "41476": "aldo",
  "2903": "anced",
  "31761": "jug",
  "37556": "reversing",
  "24108": "hibition",
  "13411": "obi",
  "37283": "322",
  "44087": "022",
  "4490": "grand",
  "6855": "mand",
  "7527": "rich",
  "22260": "aca",
  "13299": "ampa",
  "21536": "210",
  "10232": "120",
  "29173": "644",
  "16762": "mt",
  "27765": "tx",
  "7608": "vo",
  "3732": "inn",
  "43593": "aday",
  "37437": "sund",
  "18906": "orthy",
  "45443": "pont",
  "3149": "mp",
  "6548": "illy",
  "12014": "chips",
  "4534": "earth",
  "5712": "itect",
  "36221": "ocon",
  "36631": "mediated",
  "1955": "crit",
  "17999": "ollah",
  "7354": "sho",
  "14523": "conducting",
  "11056": "mers",
  "13373": "toy",
  "26666": "onso",
  "30300": "mu",
  "8231": "ials",
  "44804": "js",
  "37309": "414",
  "24267": "gold",
  "3491": "star",
  "46963": "triangular",
  "27310": "666",
  "43364": "666",
  "8254": "iger",
  "30959": "sands",
  "41141": "anus",
  "21554": "thesis",
  "22270": "physic",
  "32864": "ochemical",
  "26276": "269",
  "46519": "782",
  "18500": "225",
  "32428": "jong",
  "21263": "synthesis",
  "25901": "atibility",
  "44086": "oxicity",
  "15927": "anka",
  "647": "mer",
  "704": "hed",
  "48681": "pour",
  "21070": "kar",
  "42060": "1100",
  "32289": "bors",
  "45895": "rl",
  "1127": "ines",
  "14764": "ultra",
  "4575": "unction",
  "6278": "tun",
  "9107": "zer",
  "29457": "izons",
  "48096": "553",
  "25151": "Ã¼r",
  "558": "ace",
  "31510": "226",
  "4027": "resear",
  "2052": "ches",
  "15462": "asa",
  "17374": "mall",
  "17325": "abad",
  "13632": "tel",
  "23953": "forensic",
  "7611": "campus",
  "5207": "pieces",
  "12198": "outs",
  "38136": "eworld",
  "37505": "impulses",
  "14018": "traded",
  "25530": "motions",
  "27218": "these",
  "35223": "implants",
  "11061": "beneath",
  "12666": "worn",
  "21152": "apparatus",
  "1807": "thought",
  "23493": "cursor",
  "4438": "offered",
  "38324": "atro",
  "6686": "injured",
  "842": "reg",
  "11261": "may",
  "892": "think",
  "10755": "about",
  "5920": "bodies",
  "2292": "position",
  "20387": "proximity",
  "6130": "talks",
  "34948": "charges",
  "17655": "discharge",
  "11718": "hero",
  "14785": "ften",
  "39005": "repairing",
  "9785": "sid",
  "25386": "eps",
  "45193": "intermediary",
  "14508": "also",
  "1804": "doing",
  "17243": "meg",
  "27376": "invasive",
  "14767": "ascular",
  "24055": "micro",
  "28917": "meg",
  "29797": "neutral",
  "37367": "concentrating",
  "7016": "emotional",
  "44949": "alam",
  "13147": "dys",
  "17179": "rh",
  "5272": "yth",
  "20730": "mia",
  "4625": "under",
  "12681": "adverse",
  "8185": "surgery",
  "10153": "scar",
  "20274": "result",
  "2038": "fail",
  "32077": "impro",
  "7743": "teaching",
  "7770": "blind",
  "3215": "foreign",
  "41174": "congen",
  "1287": "ital",
  "37673": "blindness",
  "40547": "pioneers",
  "6504": "sight",
  "36299": "sb",
  "14649": "trauma",
  "6361": "orders",
  "28734": "tted",
  "17642": "weaker",
  "21024": "directing",
  "5069": "esh",
  "8744": "electricity",
  "8754": "thrown",
  "9474": "rams",
  "16638": "easiest",
  "7817": "taught",
  "24654": "readings",
  "10732": "carries",
  "17562": "pointer",
  "1016": "going",
  "5802": "tough",
  "6568": "excited",
  "2739": "late",
  "5863": "famous",
  "14169": "clever",
  "7342": "watched",
  "11914": "lips",
  "3888": "moved",
  "683": "him",
  "45178": "anticipated",
  "15072": "gamers",
  "23373": "hooked",
  "3910": "aware",
  "47944": "technical",
  "7960": "worried",
  "6573": "moral",
  "5490": "worry",
  "8165": "tied",
  "2130": "someone",
  "17772": "else",
  "24313": "odo",
  "5876": "trouble",
  "2951": "eyes",
  "4206": "knows",
  "10589": "staying",
  "21693": "awake",
  "43695": "aml",
  "7100": "tle",
  "4425": "lose",
  "27768": "ppe",
  "643": "ople",
  "39898": "pals",
  "6821": "injuries",
  "48316": "ooters",
  "32126": "formulas",
  "4952": "tells",
  "9014": "replacement",
  "5042": "odies",
  "3521": "couldn",
  "28408": "tet",
  "3579": "obile",
  "7588": "lights",
  "2128": "sound",
  "8215": "doors",
  "8526": "illness",
  "1076": "ouse",
  "5344": "icate",
  "26481": "290",
  "27858": "undes",
  "27003": "digit",
  "19052": "before",
  "15997": "desires",
  "2170": "typ",
  "10446": "gered",
  "31336": "either",
  "19738": "select",
  "50228": "romy",
  "9989": "accomplish",
  "3850": "letter",
  "20337": "area",
  "18644": "upward",
  "14482": "qualities",
  "17555": "guides",
  "3466": "teams",
  "12259": "settle",
  "26197": "tore",
  "5372": "place",
  "20342": "hey",
  "1283": "seem",
  "1997": "anything",
  "6589": "installed",
  "9258": "begun",
  "37496": "usefulness",
  "14052": "motivation",
  "22031": "expensive",
  "2721": "install",
  "48299": "technologically",
  "32293": "benign",
  "31227": "need",
  "24668": "insurers",
  "41483": "skyrocket",
  "1107": "really",
  "30548": "dissemin",
  "4017": "mer",
  "17350": "install",
  "11622": "broader",
  "45841": "depend",
  "12273": "pressing",
  "3595": "poor",
  "3428": "iring",
  "33167": "youngsters",
  "34768": "arithmetic",
  "5875": "thank",
  "12455": "iability",
  "1933": "months",
  "16198": "imensional",
  "41569": "292",
  "17199": "regulators",
  "13194": "irable",
  "20777": "since",
  "33348": "conveyed",
  "11113": "cooperation",
  "12801": "alliance",
  "21126": "develops",
  "5048": "instruct",
  "22080": "coordinated",
  "4762": "believed",
  "8656": "acts",
  "4104": "spread",
  "28116": "sever",
  "17438": "behave",
  "1928": "mus",
  "10576": "timing",
  "35627": "reins",
  "29962": "satisfactory",
  "3737": "perhaps",
  "28158": "community",
  "22806": "disse",
  "25729": "nation",
  "31267": "development",
  "11989": "sons",
  "38533": "incapac",
  "24024": "illnesses",
  "14982": "pilots",
  "38479": "surgeons",
  "34423": "professions",
  "20661": "stro",
  "44832": "dissemination",
  "30084": "demographics",
  "18591": "eliminating",
  "26817": "muse",
  "43592": "biology",
  "21175": "gow",
  "13239": "kingdom",
  "23539": "229",
  "34785": "rero",
  "39588": "ÃŃn",
  "4548": "ait",
  "40523": "689",
  "22204": "brightness",
  "37988": "806",
  "12461": "layout",
  "15232": "glasses",
  "34155": "990",
  "17115": "luc",
  "10510": "consciousness",
  "16664": "iov",
  "2991": "vil",
  "39566": "qua",
  "24543": "pseudo",
  "25119": "online",
  "24419": "emb",
  "37320": "ocular",
  "17477": "192",
  "48878": "transact",
  "7278": "ls",
  "2654": "itte",
  "3258": "arr",
  "15464": "forming",
  "30111": "renders",
  "15381": "shifts",
  "41235": "294",
  "12886": "oral",
  "27855": "capsule",
  "45720": "718",
  "8968": "cut",
  "11655": "aneous",
  "10867": "mos",
  "28033": "wig",
  "28362": "808",
  "37302": "nov",
  "33166": "chi",
  "2001": "aff",
  "29228": "456",
  "31028": "pi",
  "3828": "rog",
  "26691": "cz",
  "8640": "episodes",
  "38612": "530",
  "46526": "alcoholism",
  "9232": "ika",
  "18038": "nil",
  "14225": "pur",
  "38535": "ashtra",
  "7609": "istent",
  "6048": "edd",
  "47928": "udi",
  "46551": "esi",
  "7327": "consumption",
  "5548": "alcohol",
  "30497": "disturbance",
  "14851": "disturbing",
  "21134": "cardiovascular",
  "5906": "unable",
  "13716": "control",
  "10900": "immune",
  "15833": "problematic",
  "13230": "addiction",
  "5242": "millions",
  "614": "year",
  "30989": "227",
  "26877": "societal",
  "2642": "wrong",
  "17583": "liable",
  "11491": "incorrect",
  "19687": "ema",
  "48804": "ellipt",
  "1747": "ots",
  "6071": "forth",
  "19419": "without",
  "15542": "three",
  "9132": "md",
  "31463": "central",
  "13542": "tendency",
  "7284": "bes",
  "29041": "228",
  "26016": "alcoholic",
  "42142": "alcohol",
  "394": "igh",
  "2865": "bor",
  "4352": "ht",
  "47707": "instantaneous",
  "38672": "htar",
  "17766": "sadd",
  "24142": "wp",
  "5289": "lets",
  "7339": "taining",
  "1156": "rent",
  "35344": "intoxicated",
  "11462": "guaranteed",
  "21048": "tree",
  "22554": "energy",
  "49410": "lees",
  "2802": "mother",
  "37971": "requently",
  "18400": "telesc",
  "16603": "opic",
[...]
